{"<pad>":0,"<mask>":1,"<unk>":2,"<s>":3,"</s>":4,"!":5,"\"":6,"#":7,"$":8,"%":9,"&":10,"'":11,"(":12,")":13,"*":14,"+":15,",":16,"-":17,".":18,"/":19,"0":20,"1":21,"2":22,"3":23,"4":24,"5":25,"6":26,"7":27,"8":28,"9":29,":":30,";":31,"<":32,"=":33,">":34,"?":35,"@":36,"A":37,"B":38,"C":39,"D":40,"E":41,"F":42,"G":43,"H":44,"I":45,"J":46,"K":47,"L":48,"M":49,"N":50,"O":51,"P":52,"Q":53,"R":54,"S":55,"T":56,"U":57,"V":58,"W":59,"X":60,"Y":61,"Z":62,"[":63,"\\":64,"]":65,"^":66,"_":67,"`":68,"a":69,"b":70,"c":71,"d":72,"e":73,"f":74,"g":75,"h":76,"i":77,"j":78,"k":79,"l":80,"m":81,"n":82,"o":83,"p":84,"q":85,"r":86,"s":87,"t":88,"u":89,"v":90,"w":91,"x":92,"y":93,"z":94,"{":95,"|":96,"}":97,"~":98,"¡":99,"¢":100,"£":101,"¤":102,"¥":103,"¦":104,"§":105,"¨":106,"©":107,"ª":108,"«":109,"¬":110,"®":111,"¯":112,"°":113,"±":114,"²":115,"³":116,"´":117,"µ":118,"¶":119,"·":120,"¸":121,"¹":122,"º":123,"»":124,"¼":125,"½":126,"¾":127,"¿":128,"À":129,"Á":130,"Â":131,"Ã":132,"Ä":133,"Å":134,"Æ":135,"Ç":136,"È":137,"É":138,"Ê":139,"Ë":140,"Ì":141,"Í":142,"Î":143,"Ï":144,"Ð":145,"Ñ":146,"Ò":147,"Ó":148,"Ô":149,"Õ":150,"Ö":151,"×":152,"Ø":153,"Ù":154,"Ú":155,"Û":156,"Ü":157,"Ý":158,"Þ":159,"ß":160,"à":161,"á":162,"â":163,"ã":164,"ä":165,"å":166,"æ":167,"ç":168,"è":169,"é":170,"ê":171,"ë":172,"ì":173,"í":174,"î":175,"ï":176,"ð":177,"ñ":178,"ò":179,"ó":180,"ô":181,"õ":182,"ö":183,"÷":184,"ø":185,"ù":186,"ú":187,"û":188,"ü":189,"ý":190,"þ":191,"ÿ":192,"Ā":193,"ā":194,"Ă":195,"ă":196,"Ą":197,"ą":198,"Ć":199,"ć":200,"Ĉ":201,"ĉ":202,"Ċ":203,"ċ":204,"Č":205,"č":206,"Ď":207,"ď":208,"Đ":209,"đ":210,"Ē":211,"ē":212,"Ĕ":213,"ĕ":214,"Ė":215,"ė":216,"Ę":217,"ę":218,"Ě":219,"ě":220,"Ĝ":221,"ĝ":222,"Ğ":223,"ğ":224,"Ġ":225,"ġ":226,"Ģ":227,"ģ":228,"Ĥ":229,"ĥ":230,"Ħ":231,"ħ":232,"Ĩ":233,"ĩ":234,"Ī":235,"ī":236,"Ĭ":237,"ĭ":238,"Į":239,"į":240,"İ":241,"ı":242,"Ĳ":243,"ĳ":244,"Ĵ":245,"ĵ":246,"Ķ":247,"ķ":248,"ĸ":249,"Ĺ":250,"ĺ":251,"Ļ":252,"ļ":253,"Ľ":254,"ľ":255,"Ŀ":256,"ŀ":257,"Ł":258,"ł":259,"Ń":260,"ä¸":261,"çļ":262,"çļĦ":263,"ãĢ":264,"ä»":265,"äº":266,"æľ":267,"ãĢĤ":268,"åı":269,"åħ":270,"ä½":271,"æĪ":272,"åľ":273,"å®":274,"å¤":275,"è¿":276,"åĪ":277,"çĶ":278,"æĺ":279,"åĲ":280,"Ġa":281,"è¯":282,"åĬ":283,"æĸ":284,"åľ¨":285,"è®":286,"Ġi":287,"åĽ":288,"ç»":289,"å°":290,"åĴ":291,"åº":292,"ä¸Ģ":293,"åĴĮ":294,"ä¹":295,"æĹ":296,"æľī":297,"æĺ¯":298,"ä¼":299,"Ġe":300,"æĪĳ":301,"æĿ":302,"åį":303,"æī":304,"å¹":305,"éĩ":306,"Ġo":307,"éĢ":308,"ãĢģ":309,"å¸":310,"å·":311,"äºĨ":312,"äºº":313,"çĶ¨":314,"ä¸į":315,"åŃ":316,"å¾":317,"ä»¬":318,"è¡":319,"å¯":320,"ä¸ª":321,"å¥":322,"åĨ":323,"å¼":324,"çī":325,"æķ":326,"è§":327,"ä»¥":328,"ä¸Ń":329,"ä»ĸ":330,"åĩ":331,"è¿Ļ":332,"åı¯":333,"ĥ½":334,"ä¿":335,"éĹ":336,"èĢ":337,"è´":338,"æł":339,"åĮ":340,"ä¸º":341,"çĽ":342,"åľ°":343,"ç§":344,"ç½":345,"è½":346,"æĭ":347,"çº":348,"æĢ":349,"ä½ł":350,"æĬ":351,"éĻ":352,"æĤ":353,"åĽ½":354,"ä¾":355,"å¿":356,"æŃ":357,"æ³":358,"å¤§":359,"ä¸Ĭ":360,"èµ":361,"éħ":362,"æµ":363,"¦ģ":364,"åĪ°":365,"æĶ":366,"èĩ":367,"è¦ģ":368,"äºİ":369,"æĤ¨":370,"æĹ¶":371,"æİ":372,"åİ":373,"éĿ":374,"åħ¬":375,"ç«":376,"âĢ":377,"çİ":378,"ä¼ļ":379,"åĳ":380,"åĵ":381,"å½":382,"èĥ½":383,"æı":384,"æŀ":385,"æĪĸ":386,"æĪĳä»¬":387,"å¦":388,"è¡Į":389,"æĥ":390,"æĿ¥":391,"é¢":392,"å±":393,"Ġu":394,"çľ":395,"çĲ":396,"ä½ľ":397,"éħĴ":398,"åºĹ":399,"è¾":400,"æ°":401,"æĦ":402,"æıĲ":403,"å¯¹":404,"åŁ":405,"å¤ļ":406,"æīĢ":407,"æ¸":408,"åıĳ":409,"æ²":410,"ä¸ĭ":411,"æĸ¹":412,"æľº":413,"æĮ":414,"æ¯":415,"æį":416,"æ´":417,"çĶŁ":418,"éħĴåºĹ":419,"é¡":420,"åĬ¡":421,"è¿ĩ":422,"æ±":423,"åĬ¨":424,"æĽ":425,"å¹´":426,"èĩª":427,"åĩº":428,"å·¥":429,"åħ¶":430,"Ġs":431,"ç®":432,"å¦Ĥ":433,"ĠA":434,"éĩĮ":435,"ä½¿":436,"å®¶":437,"ä¸Ģä¸ª":438,"æĪĲ":439,"ç¨":440,"ä¸ļ":441,"éĹ´":442,"ä¸İ":443,"ä¾Ľ":444,"æ¬":445,"æģ":446,"éĺ":447,"æľ¬":448,"åī":449,"20":450,"ĠS":451,"åĪĨ":452,"è®¾":453,"éĤ":454,"æľĢ":455,"çŃ":456,"çĶµ":457,"çĲĨ":458,"er":459,"æķ°":460,"äº§":461,"ç¬":462,"ä»¶":463,"åıĬ":464,"åĵģ":465,"ç¤":466,"éģ":467,"ä¿¡":468,"è·":469,"ç½ĳ":470,"çĿ":471,"æĢ§":472,"å¹¶":473,"å°±":474,"åģ":475,"ĠC":476,"æĸ°":477,"Ł¥":478,"ç³":479,"åŃĲ":480,"æľį":481,"å°Ĩ":482,"æ³ķ":483,"åħ³":484,"éĿ¢":485,"åĿ":486,"åĪ©":487,"åħ¨":488,"æĸ¯":489,"åķ":490,"Ġ.":491,"ç»ı":492,"åºĶ":493,"Ġ,":494,"nt":495,"æĽ´":496,"åĲĪ":497,"é«":498,"å¼Ģ":499,"å¾Ĺ":500,"éĢļ":501,"ç¾":502,"å®ļ":503,"åı¯ä»¥":504,"é«ĺ":505,"æıĲä¾Ľ":506,"Ġr":507,"ç³»":508,"çĤ":509,"çİ°":510,"å®¢":511,"åĬł":512,"åĨħ":513,"åĲĮ":514,"ä¹ĭ":515,"è¿Ľ":516,"çī¹":517,"éĽ":518,"ĠI":519,"ä¹Ł":520,"å¿ĥ":521,"ä¿Ŀ":522,"è¯´":523,"å¥¹":524,"åĲİ":525,"åŃ¦":526,"ä½ķ":527,"èī":528,"ç¨ĭ":529,"æľįåĬ¡":530,"éĥ":531,"ä»İ":532,"ä»»":533,"åĪ¶":534,"çľĭ":535,"æĻ":536,"åĻ":537,"Ġin":538,"Ġ)":539,"èĢĮ":540,"æĸĩ":541,"ç¬¬":542,"èģ":543,"åīį":544,"Ġan":545,"æĦı":546,"åº¦":547,"00":548,"çļĦç":549,"åı¸":550,"åĻ¨":551,"äºĽ":552,"æį®":553,"éĤ£":554,"ä½¿çĶ¨":555,"on":556,"éľ":557,"çĿĢ":558,"è¡¨":559,"åĽ¾":560,"ä½ĵ":561,"éĥ¨":562,"è°":563,"å¥½":564,"st":565,"ä½į":566,"ä¸»":567,"æģ¯":568,"å®ŀ":569,"èĢħ":570,"çĤ¹":571,"æİ¥":572,"åľº":573,"éĥ½":574,"ç¤º":575,"è¯·":576,"ç¾İ":577,"è¶":578,"ĠE":579,"ç±":580,"å°Ķ":581,"éĩį":582,"ä¹Ī":583,"åħ¬åı¸":584,"è½¦":585,"çĦ":586,"æĹ¥":587,"æĪ·":588,"åķĨ":589,"çī©":590,"æĥħ":591,"å¤©":592,"äºĭ":593,"åĬĽ":594,"ç¦":595,"éģĵ":596,"or":597,"åĢ":598,"å¼ı":599,"ĠP":600,"çķ":601,"è®¡":602,"åĮĸ":603,"æŀľ":604,"å½ĵ":605,"æŃ¤":606,"èĪ":607,"Ġer":608,"éĶ":609,"åĽł":610,"æĪ¿":611,"å¤ĸ":612,"æ±Ĥ":613,"ĠT":614,"é¦":615,"æĹł":616,"å°ı":617,"ç§į":618,"ç«Ļ":619,"è¢":620,"le":621,"ä»ĸä»¬":622,"ç¡":623,"éĴ":624,"å®ī":625,"å»":626,"èĤ":627,"éĩı":628,"å§":629,"ĠM":630,"çĦ¶":631,"åĮº":632,"å£":633,"in":634,"èĬ":635,"an":636,"ç¥":637,"âĢĿ":638,"Ġc":639,"è¿ĺ":640,"å®ĥ":641,"âĢľ":642,"åħ¥":643,"ç©":644,"æ¡":645,"é£":646,"éļ":647,"äºļ":648,"ä¿¡æģ¯":649,"ĠR":650,"te":651,"çĽ¸":652,"èĭ":653,"è£":654,"éķ":655,"ĠD":656,"é©":657,"èĲ":658,"å¸Ĥ":659,"Ġ-":660,"æł¼":661,"ç®¡":662,"Ġar":663,"åĲį":664,"è§£":665,"ĠB":666,"æł·":667,"ç»Ł":668,"åĮħ":669,"åŁº":670,"æ²¡":671,"è¢«":672,"èµĦ":673,"æĺ¾":674,"ĠH":675,"ä½Ĩ":676,"ar":677,"çĽ®":678,"éľĢ":679,"æłĩ":680,"çĶ±":681,"æĥ³":682,"Ġp":683,"éĹ®":684,"ä»»ä½ķ":685,"çĻ":686,"éĢī":687,"çł":688,"ç¼":689,"ç´":690,"Ġt":691,"è´¹":692,"å¢":693,"201":694,"å·²":695,"æķ°æį®":696,"åĳĺ":697,"Ġy":698,"å¤ĩ":699,"è¯¥":700,"æīĢæľī":701,"åŀ":702,"æĭī":703,"æľĪ":704,"çº¿":705,"Ġ(":706,"èµ·":707,"æĺİ":708,"ĠL":709,"çŃī":710,"çŁ¥":711,"èģĶ":712,"åİ»":713,"æ»":714,"æīĭ":715,"æ¶":716,"Ġ1":717,"ç¦»":718,"å¾Ī":719,"æµ·":720,"çĥ":721,"åıĹ":722,"å»º":723,"æľ¯":724,"äº¤":725,"æ´»":726,"ä»£":727,"çĪ":728,"äº§åĵģ":729,"è§Ĩ":730,"æĿĥ":731,"æĤ¨çļĦ":732,"å¹³":733,"ĠçļĦ":734,"èİ":735,"Ġon":736,"¥¿":737,"èº":738,"å±ķ":739,"éĵ":740,"è¥¿":741,"å·¥ä½ľ":742,"åŀĭ":743,"æĬĢ":744,"åįķ":745,"æŃ£":746,"Ġen":747,"èī²":748,"æľŁ":749,"æ·":750,"åĲĳ":751,"åħ·":752,"om":753,"æĸĻ":754,"æ°´":755,"éķ¿":756,"Ġat":757,"æĮģ":758,"æĺ¾ç¤º":759,"èĦ":760,"Ġb":761,"åħ¶ä»ĸ":762,"å¸¸":763,"Ġl":764,"å¾·":765,"æ¸¸":766,"éª":767,"éĩĳ":768,"æ¯Ķ":769,"ä½ı":770,"æĿ¡":771,"çģ":772,"åħĭ":773,"ç½®":774,"Ł³":775,"re":776,"Ġm":777,"ĠO":778,"èº«":779,"éĢļè¿ĩ":780,"ç±»":781,"æĹħ":782,"al":783,"å¦Ĥæŀľ":784,"è¾¾":785,"å¸ĥ":786,"æŁ¥":787,"éĻĲ":788,"ĠG":789,"è¿Ĳ":790,"ä¸ĸ":791,"å¤Ħ":792,"ç»ĵ":793,"è£ħ":794,"ĠF":795,"å¸¦":796,"åĸ":797,"åıª":798,"æ²¡æľī":799,"è·¯":800,"ç§ĳ":801,"ä»Ģ":802,"è¯ģ":803,"åĪĹ":804,"æķĻ":805,"as":806,"é¡¹":807,"ç½ĳç«Ļ":808,"ç¡®":809,"èĥ":810,"æĦŁ":811,"ä»¥åıĬ":812,"éĹ¨":813,"æ¯ı":814,"ç½Ĺ":815,"10":816,"he":817,"æĹ¶éĹ´":818,"ç³»ç»Ł":819,"åĲĦ":820,"ç«ĭ":821,"è®®":822,"æ¬¡":823,"19":824,"ä¸ĵ":825,"é©¬":826,"éĿŀ":827,"Ġic":828,"åı£":829,"ç»Ļ":830,"Ġal":831,"Ġel":832,"è´¨":833,"è¿ĳ":834,"å®¤":835,"et":836,"ä¸ī":837,"ä»·":838,"ç»Ħ":839,"ä»Ģä¹Ī":840,"æ°Ķ":841,"åĪ«":842,"å®¹":843,"è®¤":844,"æĶ¶":845,"å®Į":846,"å·±":847,"åĬ©":848,"çº¦":849,"åŃĺ":850,"åħį":851,"èĩ³":852,"ä¼ł":853,"Ġf":854,"èĩªå·±":855,"at":856,"ç²":857,"åĨ³":858,"å¡":859,"æ³¨":860,"Ġg":861,"æµģ":862,"åľ°åĽ¾":863,"æĶ¾":864,"å¤´":865,"è¯Ń":866,"åĩĨ":867,"åħī":868,"Ġn":869,"éħį":870,"ro":871,"è¿Ľè¡Į":872,"éĽĨ":873,"Ġ/":874,"æº":875,"éĻħ":876,"Ġor":877,"å²":878,"åı°":879,"è¿ĻäºĽ":880,"Ġes":881,"é¢ĺ":882,"ä¸ŃåĽ½":883,"Ġit":884,"åı¯èĥ½":885,"è®©":886,"æĪĳä»¬çļĦ":887,"åıĺ":888,"é¢Ħ":889,"ç»´":890,"åĽŀ":891,"çķĮ":892,"æĶ¯":893,"éĢł":894,"çº§":895,"æ£":896,"æĶ¿":897,"ĠN":898,"éĢĤ":899,"Ġd":900,"æŁ":901,"åį¡":902,"è¯Ŀ":903,"çľŁ":904,"æĬĢæľ¯":905,"ä¸Ńå¿ĥ":906,"é»":907,"èį":908,"åĬŁ":909,"è®¸":910,"å·´":911,"éĩįè¦ģ":912,"åĪĽ":913,"ç©º":914,"æµĭ":915,"å°¼":916,"å¿ħ":917,"ä¹Ĳ":918,"åıĸ":919,"æĭ¬":920,"åĳĬ":921,"å¤į":922,"am":923,"æ¨":924,"åģļ":925,"æĮĩ":926,"å¯¼":927,"åĮħæĭ¬":928,"çĲĥ":929,"åħ°":930,"çĸ":931,"æĸ½":932,"ä¼ĺ":933,"è§Ħ":934,"Ġh":935,"è®º":936,"Ġis":937,"çĽ´":938,"¤Ĳ":939,"å¿«":940,"åĶ":941,"æĽ´å¤ļ":942,"æİ§":943,"é¤Ĳ":944,"æķĪ":945,"æĶ¹":946,"è¿Ļä¸ª":947,"åĦ":948,"ä¸Ķ":949,"åŁİ":950,"ic":951,"ä¸¤":952,"è½¬":953,"ç®¡çĲĨ":954,"ħ§":955,"æĳ":956,"å¥³":957,"é£İ":958,"åĦ¿":959,"es":960,"æ°ĳ":961,"ç«ł":962,"Ġ:":963,"çĭ":964,"å¹¿":965,"èĭ±":966,"è®¾è®¡":967,"çīĩ":968,"æ¨¡":969,"åįģ":970,"æīĵ":971,"ĠW":972,"Ġas":973,"è§ģ":974,"è°ĥ":975,"éªĮ":976,"æĬ¤":977,"åİŁ":978,"åħ±":979,"æºĲ":980,"æ¡Ī":981,"åįİ":982,"æĺ¾ç¤ºåľ°åĽ¾":983,"éĢŁ":984,"å¨":985,"æŃ¥":986,"çīĪ":987,"æĭ©":988,"éĺ¿":989,"è®¾å¤ĩ":990,"éĢīæĭ©":991,"ä½łçļĦ":992,"ä¾¿":993,"éĻ¤":994,"äºĮ":995,"åºĶçĶ¨":996,"éľĢè¦ģ":997,"æĬĬ":998,"åħĪ":999,"å§ĭ":1000,"ĠU":1001,"èİ·":1002,"æĺĵ":1003,"ä¹¦":1004,"å¯Ĩ":1005,"çĶ¨æĪ·":1006,"ĠV":1007,"æ¬¾":1008,"åı·":1009,"è·Ŀ":1010,"Ġ2":1011,"æŀĦ":1012,"é¢ĳ":1013,"åĥ":1014,"Ġet":1015,"åĽ½éĻħ":1016,"çĪ±":1017,"è¯ķ":1018,"éŁ³":1019,"è®¢":1020,"è±":1021,"Ġing":1022,"ch":1023,"é¡µ":1024,"äº«":1025,"æĬ¥":1026,"å½±":1027,"å½¢":1028,"ç¥ŀ":1029,"..":1030,"è¯¦":1031,"Ġv":1032,"é¦Ĩ":1033,"æī¾":1034,"åŃĹ":1035,"æĢ»":1036,"å£«":1037,"èĮ":1038,"è¿ŀ":1039,"âĢĶ":1040,"åĥı":1041,"æ®":1042,"èĻ":1043,"æĪĳçļĦ":1044,"åħįè´¹":1045,"æķ´":1046,"åıĤ":1047,"è¯Ħ":1048,"é¢Ĩ":1049,"ä¸ĸçķĮ":1050,"çħ§":1051,"è½½":1052,"200":1053,"Ġ3":1054,"Ġad":1055,"è½¯":1056,"åĽłä¸º":1057,"ç±³":1058,"åľ£":1059,"æ¢":1060,"å¯ĵ":1061,"ä¹ī":1062,"åħ¬å¯ĵ":1063,"å·²ç»ı":1064,"è®°":1065,"è¯·æ±Ĥ":1066,"è·Ŀç¦»":1067,"ç¾İåĽ½":1068,"çĹ":1069,"Ġk":1070,"èĬ±":1071,"Ġw":1072,"æĲ":1073,"UR":1074,"ä¸ªäºº":1075,"50":1076,"åĨµ":1077,"è§Ĥ":1078,"æĺŁ":1079,"ä¸ľ":1080,"å¼º":1081,"ag":1082,"Ġou":1083,"æ¼":1084,"æĴ":1085,"å®¢æĪ·":1086,"ä»ĸçļĦ":1087,"com":1088,"èĬĤ":1089,"ent":1090,"ä¾ĭ":1091,"çı":1092,"æľª":1093,"åĩ»":1094,"åŁŁ":1095,"åĽ½å®¶":1096,"ä»ħ":1097,"en":1098,"åĽ¢":1099,"ä¸ŃçļĦ":1100,"æĸĩä»¶":1101,"éĹ®é¢ĺ":1102,"ä½İ":1103,"çĬ":1104,"å®īåħ¨":1105,"çłģ":1106,"ç»Ń":1107,"åį³":1108,"åºı":1109,"éĶĢ":1110,"æĻ¯":1111,"ä¼ģ":1112,"èĢ¶":1113,"30":1114,"èĲ¥":1115,"çŁ¥éģĵ":1116,"åł":1117,"æ¸ħ":1118,"Ġil":1119,"é¥":1120,"åĪĩ":1121,"Ġam":1122,"è¯Ĩ":1123,"åıį":1124,"çĶ¨äºİ":1125,"æł¹":1126,"ct":1127,"ç»ľ":1128,"å°ĳ":1129,"ä¸įæĺ¯":1130,"æľīéĻĲ":1131,"el":1132,"çİĩ":1133,"åĢĻ":1134,"ãĢĤâĢĿ":1135,"ä¿®":1136,"çİ¯":1137,"ç¤¾":1138,"ä½įäºİ":1139,"èĢģ":1140,"ä¼ģä¸ļ":1141,"12":1142,"åĨį":1143,"éĻĦ":1144,"il":1145,"ĠK":1146,"é¦ĸ":1147,"ç´¢":1148,"æĿ¿":1149,"Ġed":1150,"çĥŃ":1151,"å£°":1152,"åįĹ":1153,"çļĦäºº":1154,"å¤ª":1155,"åĳ½":1156,"åĽŃ":1157,"ä½łä»¬":1158,"åĩł":1159,"å¸®":1160,"å¸Ī":1161,"éĴŁ":1162,"æĮī":1163,"ç®Ĺ":1164,"æĬķ":1165,"åİĭ":1166,"è¾ĵ":1167,"ä¸ĬçļĦ":1168,"åħ¬éĩĮ":1169,"ç§°":1170,"ç²¾":1171,"åįı":1172,"è¾¹":1173,"åıĪ":1174,"æİ§åĪ¶":1175,"åħĥ":1176,"å¤Ł":1177,"æĪĺ":1178,"è¨":1179,"çĶŁäº§":1180,"è¯·æ±ĤçļĦ":1181,"ou":1182,"ç½ĳç»ľ":1183,"å·ŀ":1184,"ĠSt":1185,"è¿°":1186,"çº³":1187,"æľīéĻĲåħ¬åı¸":1188,"åĢ¼":1189,"åĪĻ":1190,"è´Ń":1191,"ç®Ģ":1192,"è¿Ļæł·":1193,"å¾ĭ":1194,"æ¸©":1195,"è®¿":1196,"å¦Ĥä½ķ":1197,"éĢģ":1198,"è¨Ģ":1199,"æ»¡":1200,"URL":1201,"å°±æĺ¯":1202,"èµ°":1203,"åĨħå®¹":1204,"çİ°åľ¨":1205,"ion":1206,"Ġz":1207,"çĽ¸åħ³":1208,"çĻ½":1209,"å½ķ":1210,"è½®":1211,"èĳ":1212,"è§£åĨ³":1213,"å¼Ģå§ĭ":1214,"ç§ģ":1215,":/":1216,"æĵ":1217,"åįļ":1218,"è´§":1219,"æĿĲ":1220,"èĩ´":1221,"éĩĩ":1222,"æµ´":1223,"æĥħåĨµ":1224,"è§Ī":1225,"è½»":1226,"è¯·æ±ĤçļĦURL":1227,"Ġag":1228,"è¶ħ":1229,"ç§»":1230,"ç¨ĭåºı":1231,"is":1232,"æĶ¯æĮģ":1233,"æŁ¥çľĭ":1234,"11":1235,"æ¶Ī":1236,"Ġol":1237,"é¡»":1238,"åĬŀ":1239,"æŀĹ":1240,"è½¯ä»¶":1241,"ç»Ĩ":1242,"è´£":1243,"åĳ¨":1244,"å±±":1245,"æ´²":1246,"ç¼ĸ":1247,"å¢ĥ":1248,"Ġia":1249,"çłĶ":1250,"ãĢĮ":1251,"ol":1252,"åĲ§":1253,"è¿Ļæĺ¯":1254,"æ´»åĬ¨":1255,"åıĳå±ķ":1256,"ãĢį":1257,"è¶³":1258,"ä»½":1259,"æī¿":1260,"éĻ¢":1261,"åĮĹ":1262,"æ¬¢":1263,"Ġac":1264,"æİ¨":1265,"ote":1266,"å®¢æĪ¿":1267,"otel":1268,"èħ":1269,"ä¸įåĲĮ":1270,"æ³¢":1271,"è®¾æĸ½":1272,"éĤ®":1273,"åĲĹ":1274,"è¯¦æĥħ":1275,"éĥ¨åĪĨ":1276,"è§Ĩé¢ĳ":1277,"åĶ®":1278,"æĪĸèĢħ":1279,"é£Ł":1280,"çļĦä¸Ģ":1281,"15":1282,"å¢ŀ":1283,"å¸Į":1284,"é¾":1285,"æľĽ":1286,"æīį":1287,"åģĩ":1288,"18":1289,"åºĬ":1290,"æĸ¹å¼ı":1291,"äººçļĦ":1292,"æŃ¢":1293,"å¤±":1294,"åĭ":1295,"çª":1296,"åĪĴ":1297,"å¸®åĬ©":1298,"Ġle":1299,"è¦ģæ±Ĥ":1300,"Ġ4":1301,"å±ŀ":1302,"åĪĨéĴŁ":1303,"å¼ķ":1304,"åĬŁèĥ½":1305,"åİĨ":1306,"åĿĩ":1307,"ä»Ĭ":1308,"ä½ľä¸º":1309,"åħ³äºİ":1310,"çŁ":1311,"ä¸ĩ":1312,"çĶµåŃĲ":1313,"çĭ¬":1314,"åĲ¬":1315,"ä»·æł¼":1316,"åıĭ":1317,"å¾Ģ":1318,"æĢİ":1319,"çŃĸ":1320,"åĽ´":1321,"èĥ½å¤Ł":1322,"çĵ":1323,"å¥½çļĦ":1324,"å¼ł":1325,"è§ī":1326,"è¶Ĭ":1327,"ĠåĴĮ":1328,"åĵį":1329,"é¡¹çĽ®":1330,"é²":1331,"éĻ©":1332,"æ·±":1333,"å²Ľ":1334,"ĠÃ":1335,"åĲĪä½ľ":1336,"æļ":1337,"åį°":1338,"æĸ¹æ¡Ī":1339,"æķ°æį®è¡¨":1340,"ac":1341,"Ġ@":1342,"Ġot":1343,"æĹ¶åĢĻ":1344,"åıĮ":1345,"ç»Ī":1346,"åĸľ":1347,"åİħ":1348,"åģľ":1349,"èīº":1350,"ãĢĤ\"":1351,"å®¿":1352,"ç¿":1353,"å¤§çļĦ":1354,"ä¸ĭè½½":1355,")ãĢĤ":1356,"å¦Ī":1357,"çĻ¾":1358,"åĤ":1359,"æĹ©":1360,"ä¿ĿæĬ¤":1361,"ĠX":1362,"ç»ĩ":1363,"ç©¶":1364,"éĿŀå¸¸":1365,"èģĶç³»":1366,"æĢģ":1367,"ç¥¨":1368,"ow":1369,"å¹²":1370,"ç¢":1371,"Â·":1372,"Ġom":1373,"å¸Ĥåľº":1374,"åĽĽ":1375,"æµİ":1376,"æį¢":1377,"æ¬§":1378,"ä½įç½®":1379,"èµĦæĸĻ":1380,"éĺŁ":1381,"éļı":1382,"äº²":1383,"åĲ«":1384,"èĩªå·±çļĦ":1385,"çķĻ":1386,"çľ¼":1387,"èİ·å¾Ĺ":1388,"è®¿éĹ®":1389,"è¿ľ":1390,"æŀģ":1391,"æĻ®":1392,"æľīåħ³":1393,"è±¡":1394,"ä»ĺ":1395,"æĪı":1396,"éĩįè¦ģè¯¦æĥħ":1397,"å¤«":1398,"çļĦåľ°":1399,"16":1400,"æłĩåĩĨ":1401,"Ġid":1402,"æ²»":1403,"å¿ħé¡»":1404,"æ±½":1405,"Ġun":1406,"),":1407,"èı":1408,"å¥Ĺ":1409,"é¢Ħè®¢":1410,"æĸŃ":1411,"äºĨä¸Ģ":1412,"äºĨè§£":1413,"ç¦ı":1414,"å¤§åĪ©":1415,"Ġj":1416,"æĸ°çļĦ":1417,"åŃ©":1418,"å¥¥":1419,"çĽĳ":1420,"æįŁ":1421,"åĵ¥":1422,"age":1423,"æİĴ":1424,"æľºåľº":1425,"éĿł":1426,"æ£Ģ":1427,"ĠY":1428,"ä½³":1429,"å¤ĦçĲĨ":1430,"è¯»":1431,"è¿ŀæİ¥":1432,"åģ¥":1433,"Ġand":1434,"çŁ³":1435,"æĢĿ":1436,"èĪª":1437,"äºĴ":1438,"æ¹":1439,"ä½Ĩæĺ¯":1440,"24":1441,"çĳ":1442,"ĠJ":1443,"æĪĲä¸º":1444,"ç´ł":1445,"id":1446,"km":1447,"å¼Ģåıĳ":1448,"æĵį":1449,"Ġos":1450,"æ´Ĺ":1451,"ä¸»è¦ģ":1452,"åı¦":1453,"ç»ıæµİ":1454,"èĢĥ":1455,"éĻĦè¿ĳ":1456,"ä¼¦":1457,"åĮ»":1458,"èĩªåĬ¨":1459,"åľ°åĮº":1460,"æĭ¥":1461,"å¥¹çļĦ":1462,"èĤ²":1463,"æŃ»":1464,"èµĽ":1465,"æ¸¡":1466,"ashe":1467,"atashe":1468,"ãĢĭ":1469,"è¿ĻéĩĮ":1470,"çĹħ":1471,"å·¥åħ·":1472,"åįĩ":1473,"å¾®":1474,"å±Ĥ":1475,"åĲĮæĹ¶":1476,"ä¹ĭéĹ´":1477,"atasheet":1478,"ãĢĬ":1479,"æĭ¿":1480,"åĿĢ":1481,"çīĻ":1482,"è¿Ļä¸Ģ":1483,"åĨĮ":1484,"oo":1485,"éļ¾":1486,"çıŃ":1487,"Ġig":1488,"æĺ¯ä¸Ģ":1489,"æ¸¸æĪı":1490,"é¾Ļ":1491,"äºĶ":1492,"ä¹°":1493,"åĨĻ":1494,"Ġre":1495,"èĮĥ":1496,"è´Ł":1497,"æŀĲ":1498,"ä½ıå®¿":1499,"çģ«":1500,"17":1501,"25":1502,"è§£åĨ³æĸ¹æ¡Ī":1503,"æ±½è½¦":1504,"æıı":1505,"çĶŁæ´»":1506,"ĠéħĴåºĹ":1507,"ä¼Ĺ":1508,"åĽłæŃ¤":1509,"çīĪæľ¬":1510,"ad":1511,"ç»Ħç»ĩ":1512,"è¡£":1513,"åħ¨çĲĥ":1514,"çĦ¶åĲİ":1515,"èĲ½":1516,"è¯º":1517,"åº§":1518,"åĳ¢":1519,"å®¢äºº":1520,"åŁİå¸Ĥ":1521,"Ġent":1522,"çĻ»":1523,"åĲ¦":1524,"çİĭ":1525,"åĿĲ":1526,"ä»¤":1527,"14":1528,"éĺ²":1529,"In":1530,"åĪ°äºĨ":1531,"éĶĻ":1532,"åı²":1533,"è¿Ļç§į":1534,"Ġro":1535,"ç§Ł":1536,"13":1537,"ft":1538,"çĸĹ":1539,"Ġus":1540,"å°ıæĹ¶":1541,"æł¹æį®":1542,"ä¹ł":1543,"æĺ¯ä¸Ģä¸ª":1544,"å¹¶ä¸Ķ":1545,"ç³»åĪĹ":1546,"å®³":1547,"ä¸ļåĬ¡":1548,"å¨ģ":1549,"æĭ¥æľī":1550,"æ¸¯":1551,"åĨĽ":1552,"å©":1553,"æħ":1554,"ä¸įä¼ļ":1555,"æ³ķå¾ĭ":1556,"ç¬¬ä¸Ģ":1557,"æĭħ":1558,"å¡ŀ":1559,"æ±ł":1560,"80":1561,"çĮ":1562,"ä¸ĢäºĽ":1563,"ç«¯":1564,"çİ¯å¢ĥ":1565,"æĢİä¹Ī":1566,"çģµ":1567,"Page":1568,"åį´":1569,"è¾ĥ":1570,"æ¦":1571,"Ġst":1572,"çĶµè§Ĩ":1573,"æĿĲæĸĻ":1574,"ç®±":1575,"å°½":1576,"éĵ¾":1577,"å¡Ķ":1578,"è´¨éĩı":1579,"äºī":1580,"èĴ":1581,"åħ´":1582,"Ġay":1583,"åĪĨæŀĲ":1584,"000":1585,"å¤§åŃ¦":1586,"ç±»åŀĭ":1587,"em":1588,"åºŃ":1589,"è¿ĩç¨ĭ":1590,"asp":1591,"åħħ":1592,"Ġion":1593,"åºĵ":1594,"æ²Ļ":1595,"åĤ¨":1596,"ĠãĢĤ":1597,"æ²¹":1598,"éľ²":1599,"ä»ĸä»¬çļĦ":1600,"åħ·æľī":1601,"æĲľ":1602,"çĬ¶":1603,"å¯¹äºİ":1604,"éĺ³":1605,"åĺ":1606,"Ġ5":1607,"çīĮ":1608,"æĻº":1609,"Ġur":1610,"çļĦæĺ¯":1611,"Ġim":1612,"åĵª":1613,"å½±åĵį":1614,"çłĶç©¶":1615,"å±Ģ":1616,"éĺħ":1617,"ç¬¬ä¸ī":1618,"æ¿":1619,"çº¢":1620,"çŃ¾":1621,"å®īè£ħ":1622,"Ġch":1623,"æĻļ":1624,"aspx":1625,"Ġ'":1626,"è¯ī":1627,"it":1628,"è®¡åĪĴ":1629,"åį«":1630,"ä»¥ä¸ĭ":1631,"ç´§":1632,"Ġab":1633,"Ġap":1634,"æł¡":1635,"æ¯į":1636,"40":1637,"çĽĬ":1638,"èĲ¨":1639,"å®ŀçİ°":1640,"Ġ6":1641,"ew":1642,"ä¼Ĭ":1643,"èĤ¡":1644,"è¾ĳ":1645,"çĶ·":1646,"åĲĦç§į":1647,"æĿ¾":1648,"ä¸ºäºĨ":1649,"éĻį":1650,"çĿ£":1651,"æ¿Ģ":1652,"Ġéĩįè¦ģè¯¦æĥħ":1653,"ä»ĭ":1654,"æīĺ":1655,"åľ°åĿĢ":1656,"æĵįä½ľ":1657,"æīĢä»¥":1658,"é¡¿":1659,"æĸ¹æ³ķ":1660,"âĢĵ":1661,"é¦Ļ":1662,"Ġ_":1663,"ä¸¾":1664,"åħ¸":1665,"èŀ":1666,"äººåĳĺ":1667,"è¡Įä¸ļ":1668,"and":1669,"ĠIn":1670,"ed":1671,"åĩı":1672,"Ġra":1673,"åĪ¶éĢł":1674,"æ¥":1675,"åº·":1676,"æĿ¥çļĦ":1677,"éĽħ":1678,"è·Ł":1679,"ur":1680,"ä¼¯":1681,"åıĳçİ°":1682,"éº":1683,"å¸Ŀ":1684,"ä¾Ŀ":1685,"æ¼Ķ":1686,"åĬ¿":1687,"æĤ¨åı¯ä»¥":1688,"å·¥ä½ľæĹ¶éĹ´":1689,"èĦĳ":1690,"é»ĳ":1691,"æĸ¹éĿ¢":1692,"æĹħæ¸¸":1693,"æī§":1694,"å¯Į":1695,"æŀ¶":1696,"ia":1697,"ä¼¼":1698,"è®¸å¤ļ":1699,"Ġav":1700,"Ġem":1701,"Ġoo":1702,"è§Ĵ":1703,"ä¸ĵä¸ļ":1704,"Fi":1705,"ĠHotel":1706,"äº¤æĺĵ":1707,"Ġul":1708,"å®Ŀ":1709,"åºľ":1710,"Ġiv":1711,"æľĢä½³":1712,"?âĢĿ":1713,"åª":1714,"ä¾ĽåºĶ":1715,"ĠãĢģ":1716,"Ġak":1717,"å¥ĸ":1718,"æĦıå¤§åĪ©":1719,"og":1720,"éĤ®ä»¶":1721,"è®¡ç®Ĺ":1722,"åĳ³":1723,"çľģ":1724,"é¡µéĿ¢":1725,"æĬķèµĦ":1726,"ç¨£":1727,"æĿĥåĪ©":1728,"èĢ¶ç¨£":1729,"æ®µ":1730,"çºª":1731,"å¿µ":1732,"æĿ¥èĩª":1733,"ç¤¾ä¼ļ":1734,"ort":1735,"èĪ¹":1736,"éļĲ":1737,"åĲ¸":1738,"åķĬ":1739,"æĹłæ³ķ":1740,"ç»Ŀ":1741,"ä¼ļè®®":1742,"é¢Ŀ":1743,"åİĨåı²":1744,"21":1745,"ç»§":1746,"ä¸įèĥ½":1747,"èģĮ":1748,"çĶ±äºİ":1749,"ç¡®ä¿Ŀ":1750,"Ġell":1751,"Ġod":1752,"US":1753,"Ġai":1754,"Ġip":1755,"æŁĲ":1756,"æī¾åĪ°":1757,"ook":1758,"ht":1759,"å¾ħ":1760,"æ½":1761,"å¿Ĺ":1762,"åĲĮæĦı":1763,"çķ¥":1764,"æĶ¿çŃĸ":1765,"ç£":1766,"è®¤ä¸º":1767,"çļĦäºĭ":1768,"çĶ³":1769,"åıĳçĶŁ":1770,"åħ³ç³»":1771,"æ³¨æĦı":1772,"åľŁ":1773,"ĠZ":1774,"ä¾ĭå¦Ĥ":1775,"å±ħ":1776,"éĵģ":1777,"æ³¨åĨĮ":1778,"ip":1779,"æ»©":1780,"æµĭè¯ķ":1781,"ç§¯":1782,"å¯»":1783,"ç¬¦":1784,"Ġir":1785,"éĶ®":1786,"æııè¿°":1787,"æĲľç´¢":1788,"è¯¾":1789,"Ġian":1790,"è®¾æľī":1791,"åĿĹ":1792,"æĿŁ":1793,"åĵĪ":1794,"éĵ¶":1795,"äº¬":1796,"27":1797,"ont":1798,"é¸":1799,"é¤Ĳåİħ":1800,"åı¤":1801,"èĭ¥":1802,"è¿ª":1803,"...":1804,"ay":1805,"çĤ¹åĩ»":1806,"åł¡":1807,"Ġum":1808,"æĦ¿":1809,"åĸĦ":1810,"åįıè®®":1811,"eb":1812,"çĨ":1813,"ä¸½":1814,"ä¼ĳ":1815,"èīºæľ¯":1816,"æ´Ľ":1817,"Ġers":1818,"æĿ¡æ¬¾":1819,"å®Įåħ¨":1820,"Ġx":1821,"èĩªçĶ±":1822,"åĪĽå»º":1823,"åºķ":1824,"éĽ·":1825,"çŃĶ":1826,"åºĶè¯¥":1827,"å¾ĹåĪ°":1828,"éĤ£ä¹Ī":1829,"èµ·æĿ¥":1830,"ç»ĵæŀľ":1831,"èĥĮ":1832,"ä¸¤ä¸ª":1833,"çŃĳ":1834,"æĢ§èĥ½":1835,"èĪį":1836,"å®ĥä»¬":1837,"2016":1838,"æĿ¡ä»¶":1839,"23":1840,"Ġie":1841,"Ġate":1842,"è§Ħå®ļ":1843,"æ¤":1844,"åľ¨çº¿":1845,"æĺ¯åĲ¦":1846,"æµı":1847,"æİĪ":1848,"å¿«éĢŁ":1849,"Ġest":1850,"ç¾¤":1851,"Ġang":1852,"èĪĴ":1853,"æµıè§Ī":1854,"çĽĺ":1855,"éľĢæ±Ĥ":1856,"âĢĶâĢĶ":1857,"åĭĴ":1858,"Ġ9":1859,"ç«¥":1860,"å·¥ç¨ĭ":1861,"éĥ½æĺ¯":1862,"Ġq":1863,"åħŃ":1864,"ç¬ĳ":1865,"æĶ¿åºľ":1866,"åİĤ":1867,"åĪ©çĶ¨":1868,"åŃĺåľ¨":1869,"çĵ¦":1870,"ä¹İ":1871,"å®ĮæĪĲ":1872,"æĳ©":1873,"Ġow":1874,"æĥł":1875,"è¿ĺæĺ¯":1876,"åŁºçĿ£":1877,"ç®Ģåįķ":1878,"60":1879,"åĨ·":1880,"ä¸Ĭæµ·":1881,"è´£ä»»":1882,"çļĦä»»ä½ķ":1883,"çļĦæĹ¶åĢĻ":1884,"èī¯":1885,"ç§»åĬ¨":1886,"Ch":1887,"è°ģ":1888,"æľ¨":1889,"åı«":1890,"è¯¯":1891,"æľºæŀĦ":1892,"å®¶åºŃ":1893,"Ġ7":1894,"äºĳ":1895,"å®ĺ":1896,"åº¦åģĩ":1897,"ing":1898,"Ġard":1899,"å»ºçŃĳ":1900,"æĹħé¦Ĩ":1901,"åŃ©åŃĲ":1902,"ä¸´":1903,"ä¼´":1904,"åħ¶ä¸Ń":1905,"æľ¬ç½ĳç«Ļ":1906,"åŁºç¡":1907,"éĶĢåĶ®":1908,"éĤ£äºĽ":1909,"åŁºç¡Ģ":1910,"ite":1911,"ãĢĤãĢį":1912,"æł¸":1913,"åķĨä¸ļ":1914,"æī§è¡Į":1915,"å¥ĩ":1916,"çľĭåĪ°":1917,"æģ©":1918,"å§Ķ":1919,"Ġto":1920,"èĮĥåĽ´":1921,"ä¼Ļ":1922,"é¡¶":1923,"éŁ":1924,"Ġ0":1925,"æī©":1926,"åľ°æĸ¹":1927,"ç½ª":1928,"æĴŃ":1929,"è¿İ":1930,"ä¹ĭä¸Ģ":1931,"é£ŀ":1932,"å¦ĤæŀľæĤ¨":1933,"å·¥ä¸ļ":1934,"ä¿Ŀè¯ģ":1935,"è¶£":1936,"æıĲé«ĺ":1937,"å§Ĩ":1938,"è¿ĺæľī":1939,"æ¶²":1940,"éŁ³ä¹Ĳ":1941,"é¢ĨåŁŁ":1942,"çĶ»":1943,"å¸Ĳ":1944,"çħ§çīĩ":1945,"æµ´å®¤":1946,"èĹ":1947,"ä¹ħ":1948,"æİ¥åıĹ":1949,"ç¡¬":1950,"åĸľæ¬¢":1951,"æĹı":1952,"åªĴ":1953,"ä¸Ģç§į":1954,"Ġof":1955,"Ġov":1956,"ç¼ĸè¾ĳ":1957,"å°Ħ":1958,"æ³°":1959,"è®¾ç½®":1960,"ot":1961,"çī¹åĪ«":1962,"å¾Īå¤ļ":1963,"±ä¹Ĳ":1964,"è®Ń":1965,"éĹ»":1966,"èµĦæºĲ":1967,"æķĻèĤ²":1968,"è¯Ńè¨Ģ":1969,"æ¸¡è½®":1970,"æ¾":1971,"æĪ¿éĹ´":1972,"èĭ±åĽ½":1973,"å¸ĮæľĽ":1974,"è¯¢":1975,"çĶ¨çļĦ":1976,"åŁĥ":1977,"ä¸Ģèµ·":1978,"æ²³":1979,"ä¹ĭåīį":1980,"æĥħåĨµä¸ĭ":1981,"èĵ":1982,"åĲĥ":1983,"æľīæķĪ":1984,"è´¢":1985,"çİ°ä»£":1986,"ç»ĵæŀĦ":1987,"im":1988,"å®¡":1989,"åĲī":1990,"è®¯":1991,"æķħ":1992,"åĲ¯":1993,"ç¬¬äºĮ":1994,"èŀį":1995,"è®²":1996,"æĽ¾":1997,"ation":1998,"ç§ģäºº":1999,"æ³ķåĽ½":2000,"è´Ŀ":2001,"éĿĻ":2002,"æĪĲåĬŁ":2003,"çĳŀ":2004,"se":2005,"æ°¸":2006,"ä½ĵéªĮ":2007,"ĠER":2008,"åĪ»":2009,"çĽ´æİ¥":2010,"å·®":2011,"åŃ¦ä¹ł":2012,"åĲįç§°":2013,"èį¯":2014,"ĠCh":2015,"åĮºåŁŁ":2016,"ç»§ç»Ń":2017,"çĽĸ":2018,"èĩªçĦ¶":2019,"å¹³åı°":2020,"å°¼äºļ":2021,"æķĳ":2022,"Ġut":2023,"æĸ¯çī¹":2024,"art":2025,"è¿Ĳè¡Į":2026,"æ£®":2027,"æ»¡è¶³":2028,"ce":2029,"ir":2030,"ue":2031,"çĶ³è¯·":2032,"éĢĶ":2033,"åħ¬åĽŃ":2034,"è°¢":2035,"é²ģ":2036,"ä»ª":2037,"ä¸Ģæł·":2038,"åįĬ":2039,"åĨ²":2040,"èĭı":2041,"åĮħåĲ«":2042,"äºĪ":2043,"åħģ":2044,"ä¿Ħ":2045,"æ³³":2046,"åİ¨":2047,"èĪ¬":2048,"è¿ĲåĬ¨":2049,"å¾·åĽ½":2050,"Ġec":2051,"æŃ£åľ¨":2052,"åıªæľī":2053,"icro":2054,"éĵ¾æİ¥":2055,"èĢĮä¸Ķ":2056,"æĸĩåĮĸ":2057,"éĴĪ":2058,"ind":2059,"äº«åıĹ":2060,"æĿĳ":2061,"Ġoc":2062,"ä¸Ĭå¸Ŀ":2063,"èĥ½åĬĽ":2064,"ĠçļĦå·¥ä½ľæĹ¶éĹ´":2065,"éĽĨåĽ¢":2066,"æĬ¥åĳĬ":2067,"ç¿»":2068,"ä¸įè¦ģ":2069,"éŃ":2070,"åĪĿ":2071,"åĿı":2072,"Ġation":2073,"èĨ":2074,"è¿Ľåħ¥":2075,"èĳĹ":2076,"éĩĩçĶ¨":2077,"æ¦Ĥ":2078,"çļĦæīĢæľī":2079,"æİ¢":2080,"éĤ£éĩĮ":2081,"åºĶçĶ¨ç¨ĭåºı":2082,"è¿·":2083,"Ġant":2084,"æ¡£":2085,"Ġong":2086,"çļ®":2087,"è¯ĳ":2088,"éĩĬ":2089,"çĽŁ":2090,"çİ©":2091,"æĽ¼":2092,"ä¿ĿæĮģ":2093,"ä»£è¡¨":2094,"è¶ħè¿ĩ":2095,"ä¸¥":2096,"è¡Ģ":2097,"è¡Įä¸º":2098,"æĺ¯åľ¨":2099,"åŁ¹":2100,"æµ·æ»©":2101,"çŁŃ":2102,"100":2103,"åĨ³å®ļ":2104,"åħģè®¸":2105,"è¡Ĺ":2106,"Ġ&":2107,"è®¨":2108,"ä»į":2109,"æĿĤ":2110,"Ġist":2111,"ä¹ĭåĲİ":2112,"Ġ),":2113,"å¹¿åĳĬ":2114,"é½":2115,"æ·»":2116,"çªģ":2117,"éĺħè¯»":2118,"æĹłçº¿":2119,"22":2120,"æĭŁ":2121,"è±ª":2122,"ng":2123,"çĽ®æłĩ":2124,"èģĶåĲĪ":2125,"ex":2126,"å½©":2127,"ç¤¼":2128,"ç»ıéªĮ":2129,"æĹ©é¤Ĳ":2130,"St":2131,"Ġ8":2132,"ĠÂ":2133,"Ġik":2134,"æķ°åŃĹ":2135,"éĽ¶":2136,"èĦ¸":2137,"ver":2138,"éĢĢ":2139,"åŃ£":2140,"æĹħè¡Į":2141,"å²ģ":2142,"æĮģç»Ń":2143,"Micro":2144,"æ´¾":2145,"æĹ¥æľ¬":2146,"åģ¥åº·":2147,"æ¥¼":2148,"Ġæĺ¯":2149,"å¾Ĵ":2150,"çĶµè¯Ŀ":2151,"å®½":2152,"å¼Ĥ":2153,"ĠRo":2154,"Ad":2155,"ĠQ":2156,"åĽº":2157,"çº½":2158,"äº§çĶŁ":2159,"çĪ¶":2160,"åªĴä½ĵ":2161,"Al":2162,"éĢļçŁ¥":2163,"èģĶç½ĳ":2164,"NE":2165,"åķĨåĬ¡":2166,"èİ±":2167,"åłĤ":2168,"äº®":2169,"çļĦä¿¡æģ¯":2170,"æīĢæľīçļĦ":2171,"å®ľ":2172,"çĶµèĦĳ":2173,"æµĭéĩı":2174,"é±":2175,"è´´":2176,"éĴ¢":2177,"ä¹Łæĺ¯":2178,"èıľ":2179,"èĹı":2180,"åĪļ":2181,"æ¢ħ":2182,"éĨ":2183,"Ġhe":2184,"åŃĺåĤ¨":2185,"åĦ¿ç«¥":2186,"ä½Ľ":2187,"åıĳå¸ĥ":2188,"ark":2189,"æķ´ä¸ª":2190,"ig":2191,"éĢı":2192,"å¦Ĥæŀľä½ł":2193,"ä¸įåĲĮçļĦ":2194,"26":2195,"æľĭ":2196,"æį·":2197,"æĪĲæľ¬":2198,"å®ļçļĦ":2199,"æīĭæľº":2200,"å»ºç«ĭ":2201,"Ġill":2202,"æ¸©åº¦":2203,"æ¾³":2204,"é±¼":2205,"åıĳéĢģ":2206,"èģļ":2207,"æĥ³è¦ģ":2208,"åĳĬè¯ī":2209,"æ¬¢è¿İ":2210,"æ³³æ±ł":2211,"av":2212,"å¸ģ":2213,"ĠDatasheet":2214,"å»ºè®®":2215,"æĶ¶éĽĨ":2216,"æ¬§æ´²":2217,"ä¼Ļä¼´":2218,"åĩºæĿ¥":2219,"åŁºäºİ":2220,"æ¯ıä¸ª":2221,"åĽ¢éĺŁ":2222,"è¾ĵåħ¥":2223,"è´Ńä¹°":2224,"æĻºèĥ½":2225,"åĴĮåįİ":2226,"ä¸įåı¯":2227,"å¯Ł":2228,"åħ¶å®ĥ":2229,"æģ¶":2230,"æĸ°éĹ»":2231,"éļľ":2232,",\"":2233,":\"":2234,"çļĦæľĢ":2235,"åĪł":2236,"è´¦":2237,"ĠAp":2238,"æĹłè®º":2239,"ĠRe":2240,"ç§ĳåŃ¦":2241,"é»Ħ":2242,"åİ¨æĪ¿":2243,"28":2244,"ä¸ºæĤ¨":2245,"æľĭåıĭ":2246,"Ġåľ¨":2247,"å®£":2248,"åıªæĺ¯":2249,"è¯Ħè®º":2250,"èĢ¶åĴĮåįİ":2251,"éĶĻè¯¯":2252,"90":2253,"½çĦ¶":2254,"å±ı":2255,"ĠAN":2256,"ĠAR":2257,"èĤī":2258,"çł´":2259,"ä¸ĥ":2260,"çļĦå¤§":2261,"æ´ģ":2262,"åĩºçİ°":2263,"åĿļ":2264,"æĽ´æĸ°":2265,"ç»ĵæĿŁ":2266,"Ġfor":2267,"åĩĨå¤ĩ":2268,"æĺŁçº§":2269,"æ·»åĬł":2270,"Ġ\"":2271,"å©ļ":2272,"åĪłéĻ¤":2273,"å¹ķ":2274,"nter":2275,"é©±":2276,"éĵ¶è¡Į":2277,"å±ĭ":2278,"ä¿ĿéĻ©":2279,"éĴ±":2280,"ä¼łç»Ł":2281,"é»İ":2282,"çļĦéħĴåºĹ":2283,"åĨ°":2284,"éĿĴ":2285,"æ±ĩ":2286,"åĪ©äºļ":2287,"é²ľ":2288,"èĪĴéĢĤ":2289,"Datasheet":2290,"ä¼¤":2291,"è´¸":2292,"åĵģçīĮ":2293,"ç§ĳæĬĢ":2294,"éĢĤçĶ¨äºİ":2295,"æĳĦ":2296,"åİŁåĽł":2297,"æ¢°":2298,"æĴĴ":2299,"éļĲç§ģ":2300,"é¡¾":2301,"åŃ¦çĶŁ":2302,"åĪĽæĸ°":2303,"çĶµåŃĲéĤ®ä»¶":2304,"å®Ĺ":2305,"æĿĢ":2306,"æłĳ":2307,"ment":2308,"çĶļ":2309,"æĢ§çļĦ":2310,"éĿ¢çļĦ":2311,"Ġif":2312,"çº¸":2313,"çĶŁåĳ½":2314,"éħįç½®":2315,"è´µ":2316,"ç¨³":2317,"æıĲä¾ĽçļĦ":2318,"åĢŁ":2319,"è´¹çĶ¨":2320,"æŁĵ":2321,"è®¸åı¯":2322,"è¯¦ç»Ĩ":2323,"æľįåĬ¡åĻ¨":2324,"çŁ¥è¯Ĩ":2325,"æī¹":2326,"Ġop":2327,"æľºä¼ļ":2328,"è°·":2329,"åĨľ":2330,"å¹´çļĦ":2331,"æĹħèĪį":2332,"å¢ŀåĬł":2333,"Wi":2334,"ä½Ļ":2335,"æĥĬ":2336,"è¯´æĺİ":2337,"èĵĿ":2338,"åĳĺå·¥":2339,"An":2340,"åĬ³":2341,"æĤ¨åľ¨":2342,"ç¨İ":2343,"ç¼©":2344,"ç¬¬ä¸īæĸ¹":2345,"çļĦè¯Ŀ":2346,"å®¾":2347,"ä¸ĢçĽ´":2348,"éħĴåºĹçļĦ":2349,"çĽ®åīį":2350,"Ġth":2351,"Ġall":2352,"é¥®":2353,"åĮĹäº¬":2354,"35":2355,"ç¦ģ":2356,"ä¸įæĸŃ":2357,"ä¸»ä¹ī":2358,"The":2359,"è¸":2360,"æĹ§":2361,"åī§":2362,"åīĤ":2363,"æŃ¥è¡Į":2364,"èĻĳ":2365,"ate":2366,"ost":2367,"ç»į":2368,"è¡¨ç¤º":2369,"å½ĵåľ°":2370,"Ġ10":2371,"èĦļ":2372,"æīĵå¼Ģ":2373,"70":2374,"èĽ":2375,"åįĥ":2376,"å¯¸":2377,"ä½łåı¯ä»¥":2378,"èİ«":2379,"åı¯èĥ½ä¼ļ":2380,"è§¦":2381,"è°Ī":2382,"çģ¯":2383,"Wind":2384,"ä¸Ģä¸ĭ":2385,"2015":2386,"æĦŁè§ī":2387,"ç½Ĺæĸ¯":2388,"ows":2389,"ç¯":2390,"åĩºçļĦ":2391,"åħ¥ä½ı":2392,"å¡ĳ":2393,")-":2394,"ä¸°":2395,"ä¸ĢæŃ¥":2396,"2014":2397,"æĶ¹åıĺ":2398,"å°º":2399,"ä¹ĺ":2400,"å®ŀéĻħ":2401,"éĢĤåĲĪ":2402,"å¦Īå¦Ī":2403,"¢å¤į":2404,"é¼":2405,"ä¸ºä»Ģä¹Ī":2406,"åĿ¦":2407,"æ¡Į":2408,"æ··":2409,"é»ĺ":2410,"æ®Ĭ":2411,"èĻļ":2412,"å¤ľ":2413,"ä¿ĥ":2414,"èĢ³":2415,"æģ¢å¤į":2416,"ĠIN":2417,"199":2418,"å¯Ĩçłģ":2419,"å§Ķåĳĺ":2420,"çĩ":2421,"ä¸ĢåĪĩ":2422,"Ġob":2423,"åĪĨäº«":2424,"æľĢåĲİ":2425,"åħ¨éĥ¨":2426,"oft":2427,"æ´ĭ":2428,"èº«ä½ĵ":2429,"çªĹ":2430,"ry":2431,"å®Ī":2432,"è¿Ķ":2433,"ä»·åĢ¼":2434,"ap":2435,"èŃ":2436,"æıĴ":2437,"å»¶":2438,"ä»£çłģ":2439,"ä¸ĵå®¶":2440,"ĠéĻĦè¿ĳ":2441,"åħ»":2442,"è·³":2443,"æ»ĳ":2444,"ä¸ľè¥¿":2445,"è´Łè´£":2446,"è¿Ļä¹Ī":2447,"åħ¬åħ±":2448,"èĦ±":2449,"è¾¾åĪ°":2450,"ack":2451,"äºĴèģĶç½ĳ":2452,"éĿ©":2453,"å¦ĤæŃ¤":2454,"æĪĲåĳĺ":2455,"å¯¼èĩ´":2456,"èĻ½çĦ¶":2457,"ä»Ĭå¤©":2458,"33":2459,"æĽ²":2460,"ĠIS":2461,"ä¼łæĦŁ":2462,"éħįæľī":2463,"æ¨¡å¼ı":2464,"é¦Ļæ¸¯":2465,"æ¯Ĵ":2466,"å¹¶ä¸į":2467,"éĢīé¡¹":2468,"çĶļèĩ³":2469,"æŃĮ":2470,"ĠAT":2471,"æĬĹ":2472,"ç«ŀ":2473,"çĥŁ":2474,"åıĤä¸İ":2475,"ss":2476,"æĮĳ":2477,"åŃ¦æł¡":2478,"äººæ°ĳ":2479,"æľºæ¢°":2480,"æ¯Ľ":2481,"éģ¿":2482,"çļĦçĪ":2483,"æĹ¥æľŁ":2484,"æ°´å¹³":2485,"ĠÂ®":2486,"Windows":2487,"us":2488,"çļĦä¸Ģä¸ª":2489,"è¿½":2490,"åĬłåħ¥":2491,"æŃ¤å¤ĸ":2492,"çļĦåľ°æĸ¹":2493,"èŃ¦":2494,"ub":2495,"åħļ":2496,"è¯į":2497,"ä¼°":2498,"çī¹æ®Ĭ":2499,"è´Ńçī©":2500,"Ġä¸Ĭ":2501,"çĽ¸åħ³çļĦ":2502,"ä¼łæĦŁåĻ¨":2503,"\"ãĢĤ":2504,"29":2505,"åı¯éĿł":2506,"æĬĺ":2507,"ork":2508,"ĠDe":2509,"æŃ£ç¡®":2510,"åĴĸ":2511,"ä¸įè¿ĩ":2512,"æĢĢ":2513,"éĻĲåĪ¶":2514,"ç©ºè°ĥ":2515,"ä»ĭç»į":2516,"¡èĲ":2517,"ä¸Ģæ¬¡":2518,"Ġeb":2519,"è½´":2520,"æĶ¯ä»ĺ":2521,"è®°å½ķ":2522,"åģľè½¦":2523,"36":2524,"åĳ¼":2525,"åķ¡":2526,"çľĭçĿĢ":2527,"èį£":2528,"ä¼ĺæĥł":2529,"é©±åĬ¨":2530,"ä¸Ŀ":2531,"Ġah":2532,"Ġib":2533,"å¼¹":2534,"æķ¦":2535,"æĿ¥è¯´":2536,"åĮĸçļĦ":2537,"å¨±ä¹Ĳ":2538,"åĴĸåķ¡":2539,"å°ļ":2540,"ä¸ĢèĪ¬":2541,"å¸Ń":2542,"ä»İèĢĮ":2543,"ç½Ĺé©¬":2544,"ist":2545,"éĩİ":2546,"è¿ĩåİ»":2547,"Ġse":2548,"çĶµå½±":2549,"çĽ®çļĦ":2550,"è¥¿çıŃ":2551,"æľŁéĹ´":2552,"ç©ºéĹ´":2553,"è¥¿çıŃçīĻ":2554,"PD":2555,"å°ģ":2556,"ä¸Ģå®ļ":2557,"ä¸įä»ħ":2558,"éĻĨ":2559,"éĢļå¸¸":2560,"æ¸¸æ³³æ±ł":2561,"çº½çº¦":2562,"ram":2563,"éĹŃ":2564,"åĩºäºĨ":2565,"è£ģ":2566,"è®¤è¯ģ":2567,"åĩıå°ĳ":2568,"æ½ľ":2569,"å®¶éħĴåºĹ":2570,"ä¹Łä¸į":2571,"çľŁæŃ£":2572,"å½¢å¼ı":2573,"é£Łåĵģ":2574,"to":2575,"ä¸¹":2576,"è¿Ŀ":2577,"è¡¥":2578,"ä»¥èī²":2579,"ç²ī":2580,"é£İæł¼":2581,"çĬ¯":2582,"é¥°":2583,"èĢĥèĻĳ":2584,"éº¦":2585,"ä»¥èī²åĪĹ":2586,"AS":2587,"Ġex":2588,"ä½ľçĶ¨":2589,"éĥ¨éĹ¨":2590,"çĭ¬ç«ĭ":2591,"å§Ķåĳĺä¼ļ":2592,"du":2593,"pl":2594,"åĪ¤":2595,"å·¨":2596,"2012":2597,"çľŁçļĦ":2598,"å¹¿åľº":2599,"èĭ±è¯Ń":2600,"æ£Ģæµĭ":2601,"45":2602,"Tr":2603,"ĠAS":2604,"ĠEN":2605,"Ġne":2606,"èĳ¡èĲ":2607,"åįļçī©":2608,"è®¡ç®Ĺæľº":2609,"èĳ¡èĲĦ":2610,"èĸ":2611,"åı³":2612,"å½Ĵ":2613,"å¦ĩ":2614,"ä¾Ľè´§":2615,"åħ«":2616,"æıĲäº¤":2617,"çļĦç¥":2618,"çļĦçģ":2619,"éŁ©":2620,"å³":2621,"åĬª":2622,"èĢĲ":2623,"ä½ľåĵģ":2624,"æĪĲçļĦ":2625,"Ġart":2626,"åıĹåĪ°":2627,"èĬ±åĽŃ":2628,"ä¿®æĶ¹":2629,"å¢ŀéķ¿":2630,"æ¹¾":2631,"Un":2632,"ä¹Į":2633,"ä¹Ŀ":2634,"å¸ķ":2635,"æĶ»":2636,"æľĢè¿ĳ":2637,"åĪĽéĢł":2638,"é¢Ĩå¯¼":2639,"éĻįä½İ":2640,"åŁ¹è®Ń":2641,"åįļçī©é¦Ĩ":2642,"Av":2643,"ech":2644,"åį±":2645,"åı¯ä»¥åľ¨":2646,"çĸĳ":2647,"èİ·åıĸ":2648,"æī¿æĭħ":2649,"å¸ĲæĪ·":2650,"Re":2651,"ç»ĥ":2652,"æĿİ":2653,"ä¸ªæľĪ":2654,"å¤ļæķ°":2655,"éģµ":2656,"èĭ¦":2657,"ity":2658,"ç¿»è¯ĳ":2659,"55":2660,"op":2661,"ç»¿":2662,"æľīäºĽ":2663,"ç¬¦åĲĪ":2664,"Bl":2665,"ail":2666,"åī¯":2667,"ĠSh":2668,"èį·":2669,"é£İéĻ©":2670,"USD":2671,"ast":2672,"Ġiz":2673,"åįł":2674,"äººä»¬":2675,"æĢ¥":2676,"å®ļä¹ī":2677,"é«ĺçº§":2678,"æ¯Ķè¾ĥ":2679,"èĲ¥éĶĢ":2680,"åĲĪä½ľä¼Ļä¼´":2681,"è¯¾ç¨ĭ":2682,"æµª":2683,"éĤ£ä¸ª":2684,"çĤ¹è¯Ħ":2685,"å½ĵåīį":2686,"èĤ¯":2687,"èĥ¶":2688,"æµģç¨ĭ":2689,"é½Ĳ":2690,"ab":2691,"ä¸įåĪ°":2692,"éĤ¦":2693,"æıĲä¾ĽäºĨ":2694,"Ġend":2695,"åİĭåĬĽ":2696,"éĴĪå¯¹":2697,"çŀ":2698,"åħ³éĶ®":2699,"Ġpl":2700,"ĠStre":2701,"è´¸æĺĵ":2702,"ä¼ļåĳĺ":2703,"åĬłå·¥":2704,"ä¿ĿçķĻ":2705,"ä»£çĲĨ":2706,"ä¾Ľè´§åķĨ":2707,"Su":2708,"Ġio":2709,"æľīçļĦ":2710,"åį§":2711,"æĸ¹ä¾¿":2712,"ç¦»å¼Ģ":2713,"å®Įæķ´":2714,"è½¬æį¢":2715,"ä¸ªäººèµĦæĸĻ":2716,"æ²»çĸĹ":2717,"ä¹ĭéĹ´çļĦ":2718,"èĴĻ":2719,"Ap":2720,"Ar":2721,"ST":2722,"TM":2723,"åĨħéĥ¨":2724,"Ġter":2725,"ç¡®å®ļ":2726,"çĻ»å½ķ":2727,"Inst":2728,"Pro":2729,"éħĴåĲ§":2730,"Ġour":2731,"æ£ĢæŁ¥":2732,"ä¿Ħç½Ĺæĸ¯":2733,"è´¦æĪ·":2734,"èª":2735,"éĺ´":2736,"ĠCent":2737,"çļĦçĥ":2738,"çĦ¶èĢĮ":2739,"è±ªåįİ":2740,"ä¹³":2741,"æĬ±":2742,"æĬ½":2743,"åĨħçļĦ":2744,"å±ķç¤º":2745,"ä¸ģ":2746,"åį¢":2747,"åĩĢ":2748,"æĬµ":2749,"èµı":2750,"æĽ´æĶ¹":2751,"éĩįæĸ°":2752,"èĪŀ":2753,"å¢¨":2754,"åĦ¿åŃĲ":2755,"ill":2756,"å¥ĹæĪ¿":2757,"æħ¢":2758,"çĮ®":2759,"PDF":2760,"IP":2761,"soft":2762,"å®«":2763,"å¤ı":2764,"Ġain":2765,"å¾Ħ":2766,"æĭľ":2767,"æİª":2768,"æľºåĻ¨":2769,"æľĢé«ĺ":2770,"çĲĨæĥ³":2771,"ç¬Ķ":2772,"çļĦçĻ":2773,"2017":2774,"è§īå¾Ĺ":2775,"å®ģ":2776,"éĢĴ":2777,"å½¼":2778,"Ġub":2779,"éģĹ":2780,"éĢŁåº¦":2781,"75":2782,"ä¸įçŁ¥éģĵ":2783,"æ³Ľ":2784,"åĩºåı£":2785,"å¼ĢæĶ¾":2786,"åĢĴ":2787,"Ġper":2788,"ä¸ĸçºª":2789,"å¿ħè¦ģ":2790,"od":2791,"çļĦå·¥ä½ľ":2792,"Ġog":2793,"çİĽ":2794,"å¤ļä¸ª":2795,"æ±ī":2796,"ç»ıè¿ĩ":2797,"Ġde":2798,"åį°åº¦":2799,"åĮ»çĸĹ":2800,"File":2801,"ĠStreet":2802,"çļĩ":2803,"ä¸įå¾Ĺ":2804,"ä¸ĭæĿ¥":2805,"èĩªè¡Į":2806,"å£ģ":2807,"é¥Ń":2808,"ç¤¾åĮº":2809,"æ¶Īè´¹":2810,"æļ´":2811,"iv":2812,"åįĪ":2813,"çĶ¨éĢĶ":2814,"è¿ĻéĹ´":2815,"Ġug":2816,"ĠAC":2817,"éķľ":2818,"åŁºæľ¬":2819,"è½»æĿ¾":2820,"åĬŀåħ¬":2821,"èĴĤ":2822,"å¯»æī¾":2823,"çīĽ":2824,"ç½ĳé¡µ":2825,"å½ĵçĦ¶":2826,"éĻ¤äºĨ":2827,"åıĤåĬł":2828,"Hotel":2829,"äº¿":2830,"æľīä¸Ģä¸ª":2831,"ç§ĺ":2832,"åĬłæĭ¿":2833,"ç¼º":2834,"ç»´åŁº":2835,"æľªæĿ¥":2836,"ä¾ĽåºĶåķĨ":2837,"Microsoft":2838,"ĠæĪĸ":2839,"æľĿ":2840,"å¿ĺ":2841,"æĪĳä»¬åľ¨":2842,"è¡ĮåĬ¨":2843,"éĺ¶":2844,"è½¦ç¨ĭ":2845,"2018":2846,"éĩĳå±ŀ":2847,"æī©å±ķ":2848,"NET":2849,"HP":2850,"Ġåħ¬å¯ĵ":2851,"æķ£":2852,"åºĶå½ĵ":2853,"èī¾":2854,"åĽ¾çīĩ":2855,"åĽ¾åĥı":2856,"2013":2857,"Ġess":2858,"Ġity":2859,"æķĪæŀľ":2860,"æįŁå¤±":2861,"ä½©":2862,"åįĸ":2863,"é¡º":2864,"æľĢå¤§":2865,"ĠCl":2866,"åķĨæłĩ":2867,"ç©¿":2868,"éļĶ":2869,"æł·çļĦ":2870,"æłĩçŃ¾":2871,"éĩĳèŀį":2872,"ç«ĭåį³":2873,"ä¸ªäººä¿¡æģ¯":2874,"æĮīçħ§":2875,"è¿ĩç¨ĭä¸Ń":2876,"åĪ·":2877,"æĽ¿":2878,"ä¿ĿåŃĺ":2879,"å¸Ĥä¸Ńå¿ĥ":2880,"ä»¤äºº":2881,"å¼Ł":2882,"éĺ»":2883,"Ġine":2884,"å®¹æĺĵ":2885,"éħįå¤ĩ":2886,"æ¹ĸ":2887,"æ¤į":2888,"artment":2889,"duct":2890,"ant":2891,"Ġure":2892,"çĶŁçī©":2893,"Ġsk":2894,"åıĬåħ¶":2895,"éģĩ":2896,"æ¡Ĩ":2897,"ĠBe":2898,"èĥľ":2899,"åĩĨç¡®":2900,"æİĪæĿĥ":2901,"Sh":2902,"äº¡":2903,"Ġast":2904,"ä¾µ":2905,"æ´ŀ":2906,"æķ°éĩı":2907,"åĿ¡":2908,"åıĺåĮĸ":2909,"åħ±åĲĮ":2910,"åľĨ":2911,"ä¸Ńæĸĩ":2912,"æŃ¦":2913,"é¢ľ":2914,"Ġuc":2915,"çĿ¡":2916,"æĽ´åĬł":2917,"åķĨåĵģ":2918,"å¸¦æĿ¥":2919,"çļĦæĹ¶éĹ´":2920,"åĴ¨":2921,"æľīä¸Ģ":2922,"å¾ģ":2923,"ç§Ģ":2924,"æĢķ":2925,"è¿Ľä¸ĢæŃ¥":2926,"åķĨåºĹ":2927,"Ġce":2928,"å¢Ļ":2929,"è¿Ĳè¾ĵ":2930,"ç»´æĬ¤":2931,"éļıçĿĢ":2932,"32":2933,"38":2934,"th":2935,"èľ":2936,"ç«Ł":2937,"åīįå¾Ģ":2938,"åĬĽçļĦ":2939,"lect":2940,"ang":2941,"çĽ¸ä¿¡":2942,"èī²çļĦ":2943,"ĠéĻĦè¿ĳéħĴåºĹ":2944,"åį§å®¤":2945,"åı¯åľ¨":2946,"åı¯çĶ¨":2947,"æĪĸåħ¶ä»ĸ":2948,"è¾Ĩ":2949,"æ¯«":2950,"åĪ¶ä½ľ":2951,"ĠPro":2952,"å¢ħ":2953,"åĺ´":2954,"åĴ¨è¯¢":2955,"Ġud":2956,"æ°§":2957,"æĢ§åĴĮ":2958,"äºļæ´²":2959,"ĠON":2960,"éĽĨæĪĲ":2961,"å²¸":2962,"èįī":2963,"åħ¼":2964,"åĪĢ":2965,"éĹ²":2966,"å¤§å¤ļæķ°":2967,"æľĢæĸ°":2968,"ĠID":2969,"éķĩ":2970,"ĠOS":2971,"è·¯ç¨ĭ":2972,"çĬ¹":2973,"ç£ģ":2974,"ä¼ĳæģ¯":2975,"ĠRoad":2976,"ç¯ĩ":2977,"31":2978,"34":2979,"çļĦäº§åĵģ":2980,"Ġaf":2981,"å°Ŀ":2982,"æĤ£":2983,"ĠEx":2984,"å¹³åĿĩ":2985,"è¥¿äºļ":2986,"åĪ«å¢ħ":2987,"å®Įç¾İ":2988,"åıĸå¾Ĺ":2989,"æ¼«":2990,"Ġage":2991,"æŁĲäºĽ":2992,"Sp":2993,"min":2994,"Ġ+":2995,"åı¯æĺ¯":2996,"ä¸ĭåĪĹ":2997,"åĬ¨çī©":2998,"çĥĪ":2999,"äº¤éĢļ":3000,"ame":3001,"æ¢¦":3002,"åĿĲèĲ½":3003,"é¸¡":3004,"99":3005,"å·¦":3006,"å¼Ĺ":3007,"æĭį":3008,"æľĢå¥½çļĦ":3009,"ç½ĳä¸Ĭ":3010,"left":3011,"æ·ĭ":3012,"ç¡®è®¤":3013,"ä¼ĺåĮĸ":3014,"åĶ¯":3015,"å¹¿æ³Ľ":3016,"é¦ĸé¡µ":3017,"å£°æĺİ":3018,"æī£":3019,"å¹¸":3020,"çº¯":3021,"ĠSu":3022,"éĽª":3023,"ä¸»é¢ĺ":3024,"ĠTM":3025,"å§Ĳ":3026,"æł¼å¼ı":3027,"æ£Ĵ":3028,"å£°éŁ³":3029,"èĤ¡ä»½":3030,"æİªæĸ½":3031,"åĬłæĭ¿å¤§":3032,"æī«":3033,"ä»¥ä¸Ĭ":3034,"äº§ä¸ļ":3035,"ä½¿çĶ¨çļĦ":3036,"ç¾İåħĥ":3037,"are":3038,"æķĻä¼ļ":3039,"um":3040,"å°¤":3041,"å¥¶":3042,"æĭĽ":3043,"æıĲåįĩ":3044,"çļĦç©":3045,"onic":3046,"æĻ¯çĤ¹":3047,"èı²":3048,"ä¼Ł":3049,"Ġew":3050,"æķı":3051,"å¤§éĩı":3052,"å¹´è½»":3053,"éĿ¢åīį":3054,"æĸĩé¾Ļ":3055,"èĢħçļĦ":3056,"æ¶ī":3057,"çľŁå®ŀ":3058,"çĹĽ":3059,"æµıè§ĪåĻ¨":3060,"Ph":3061,"Ġont":3062,"èĥ½æºĲ":3063,"éĺµ":3064,"åģ¿":3065,"çĤī":3066,"å®ĥçļĦ":3067,"çĽ¸åĲĮ":3068,"åħ´è¶£":3069,"éĨĴ":3070,"èĽĭ":3071,"Th":3072,"æľĹ":3073,"è¯ļ":3074,"Ġies":3075,"Ġok":3076,"æľĢç»Ī":3077,"è¯·æ³¨æĦı":3078,"ç¥Ĥ":3079,"æ¡¥":3080,"åĲįçļĦ":3081,"æļĹ":3082,"çĬ¶æĢģ":3083,"ä¸°å¯Į":3084,"est":3085,"å¤ļç§į":3086,"Ġber":3087,"è¿ĲèĲ¥":3088,"å¤įæĿĤ":3089,"æ¨¡åĿĹ":3090,"çŁ¿":3091,"éĿłè¿ĳ":3092,"åı¦å¤ĸ":3093,"è®¨è®º":3094,":âĢľ":3095,"?ãĢį":3096,"åĬ±":3097,"ç½²":3098,"éĻĪ":3099,"æĿ¥åĪ°":3100,"çĶµæºĲ":3101,"éĩįè¦ģçļĦ":3102,"åľ°çĤ¹":3103,"èµĶ":3104,"Ġsh":3105,"åĪĹè¡¨":3106,"è°ĥæķ´":3107,"éĺ¿å°Ķ":3108,"Ġqu":3109,"ob":3110,"åįĵ":3111,"äººç±»":3112,"æ±Ł":3113,"æĪĲç«ĭ":3114,"åī²":3115,"ĠIT":3116,"org":3117,"é©¾":3118,"æķĪçİĩ":3119,"èĪªç©º":3120,"74":3121,"ut":3122,"å°Ĭ":3123,"ä½łæĺ¯":3124,"å·¥èīº":3125,"ĠCom":3126,"åŃ¦éĻ¢":3127,"äºĭæĥħ":3128,"åĮħè£ħ":3129,"Ġass":3130,"åį³ä½¿":3131,"éĩĩåıĸ":3132,"çĻ¾ç§ĳ":3133,"ĠInn":3134,"ç¨³å®ļ":3135,"ON":3136,"è¦":3137,"Ġ$":3138,"çļĦæľįåĬ¡":3139,"æĸĹ":3140,"çİ»":3141,"éĶģ":3142,"ĠBl":3143,"çĥ§":3144,"èº«ä¸Ĭ":3145,"æĳ¸":3146,"æ¨¡åŀĭ":3147,"äº«æľī":3148,"çģ«è½¦":3149,"å°½ç®¡":3150,"æ¾³å¤§åĪ©":3151,"æ©":3152,"åĽ°":3153,"ä¸ĭçļĦ":3154,"ĠAL":3155,"æĻ¶":3156,"è¡¨éĿ¢":3157,"å®ŀéªĮ":3158,"ord":3159,"ĠPl":3160,"æ¶¦":3161,"æĶ¿æ²»":3162,"çĽ´åĪ°":3163,"è°ĥæŁ¥":3164,"åħ±äº«":3165,"å¤ªéĺ³":3166,"æ¯įäº²":3167,"ĠApartment":3168,"çļĦçĥŃ":3169,"åľ¨è¿Ļ":3170,"éĺĢ":3171,"æľ¬æľįåĬ¡":3172,"çī¹å®ļ":3173,"çļĦç²":3174,"ç¼ĵ":3175,"éķ¿æľŁ":3176,"åĲĦé¡¹":3177,"åıĺå¾Ĺ":3178,"å¥³äºº":3179,"ç¥ŀçļĦ":3180,"our":3181,"æ¾³å¤§åĪ©äºļ":3182,"å¤®":3183,"çĽĽ":3184,"æ²ī":3185,"ĠST":3186,"çĲĨè§£":3187,"åħ¬åı¸çļĦ":3188,"éĴ»":3189,"Ġens":3190,"æĽ´å¤ļçļĦ":3191,"çĭ¬çī¹":3192,"å°ºå¯¸":3193,"\",":3194,"AD":3195,"Ġial":3196,"èµ«":3197,"åĩºåĶ®":3198,"å°Ĩä¼ļ":3199,"æĸĩç«ł":3200,"ĠLE":3201,"å±ŀäºİ":3202,"ç§Łè½¦":3203,"åĬªåĬĽ":3204,"echn":3205,"åĽ½åĨħ":3206,"åĪ°è¾¾":3207,"å¹¶åľ¨":3208,"çĪ¸":3209,"Ġlin":3210,"èĮ¶":3211,"åĩłä¹İ":3212,"åģ¥èº«":3213,"èĥĮæĻ¯":3214,"èĻļæĭŁ":3215,"æĮĳæĪĺ":3216,"çĴ":3217,"ä¼¸":3218,"éħ¸":3219,"æĤ¨åĲĮæĦı":3220,"âĢ¢":3221,"ĠAM":3222,"æĦıåĳ³":3223,"è¯ģæĺİ":3224,"ä¸ĵåĪ©":3225,"æīĵåį°":3226,"æīįèĥ½":3227,"çĨŁ":3228,"TML":3229,"AC":3230,"æĹĭ":3231,"æĸ¯åĿ¦":3232,"ĠIC":3233,"ä»»åĬ¡":3234,"çļĦçł":3235,"ä½ĵçļĦ":3236,"æ¡ĳ":3237,"Ġick":3238,"Ġish":3239,"icon":3240,"åħĪçĶŁ":3241,"ç£¨":3242,"ç»´åŁºçĻ¾ç§ĳ":3243,"48":3244,"Tem":3245,"çļĦå°ı":3246,"æĹ¨":3247,"äºĨä¸Ģä¸ª":3248,"äººåĴĮ":3249,"Ġust":3250,"ä¿¡çĶ¨":3251,"åħ³æ³¨":3252,"çľĭè§ģ":3253,"Ġina":3254,"å®ŀæĸ½":3255,"é©¶":3256,"è§£éĩĬ":3257,"æĽ´å¤ļä¿¡æģ¯":3258,"PC":3259,"ox":3260,"çļĦæĸ¹å¼ı":3261,"ä»ĸè¯´":3262,"è¡ĮçļĦ":3263,"è¾ħ":3264,"ĠSe":3265,"èģĬ":3266,"è®¤è¯Ĩ":3267,"å·´é»İ":3268,"è§ĦåĪĻ":3269,"ä¾¿å®ľ":3270,"é¢Ŀå¤ĸ":3271,"éģ¿åħį":3272,"ä¹±":3273,"æĹ¢":3274,"æı´":3275,"ĠSer":3276,"è·ĳ":3277,"æĦıæĢĿ":3278,"äºĭå®ŀ":3279,"çĥ¤":3280,"ç»ĵåĲĪ":3281,"ouse":3282,"ä¼¦æķ¦":3283,"åĲ¯åĬ¨":3284,"39":3285,"De":3286,"ud":3287,"çļĦæĥħåĨµä¸ĭ":3288,"å¤¹":3289,"åĴĮåħ¶ä»ĸ":3290,"æĪĳæĥ³":3291,"æīĢéľĢ":3292,"æ¸Ĳ":3293,"åĵģè´¨":3294,"ĠEL":3295,"åĸ·":3296,"çĸ¾":3297,"æ¶Īæģ¯":3298,"NT":3299,"ä¾§":3300,"æ¬£":3301,"åģı":3302,"åĿĽ":3303,"ç¾İä¸½":3304,"éĴ¥":3305,"å§ĵ":3306,"2011":3307,"Ġeng":3308,"æĦŁè°¢":3309,"ç©ºæ°Ķ":3310,"åı¦ä¸Ģ":3311,"çļĦä½įç½®":3312,"åľ¨è¿ĻéĩĮ":3313,"å°±ä¼ļ":3314,"éĢļä¿¡":3315,"ä¹Łåı¯ä»¥":3316,"Ġann":3317,"Ġond":3318,"èĦı":3319,"æĮĩåįĹ":3320,"æĦıåĳ³çĿĢ":3321,"65":3322,"Ġæĸĩä»¶":3323,"è¿Ī":3324,"çĶ²":3325,"åĴĮå¹³":3326,"æĿ°":3327,"ä»¥åīį":3328,"æĭĴ":3329,"èµĸ":3330,"Ġly":3331,"ä¸īä¸ª":3332,"çĹĩ":3333,"æ¹¿":3334,"å±Ĭ":3335,"ĠIP":3336,"éĥ½ä¼ļ":3337,"äºĭä»¶":3338,"èº«ä»½":3339,"éĢłæĪĲ":3340,"ĠÃ©":3341,"æĴŃæĶ¾":3342,"WiFi":3343,"çĩĥ":3344,"\"(":3345,"37":3346,"iew":3347,"çļĦæĸ°":3348,"çļĦéĹ®é¢ĺ":3349,"ç»ĺ":3350,"å¼ĥ":3351,"æİī":3352,"æĸ¹åĲĳ":3353,"æľ¬åħ¬åı¸":3354,"æıĲä¾Ľåħįè´¹":3355,"çİ°åľº":3356,"Ġment":3357,"è£ħç½®":3358,"ä¼ĺåĬ¿":3359,"çīĪæĿĥ":3360,"çŃĸçķ¥":3361,"çĽĳæİ§":3362,"ä»įçĦ¶":3363,"è¸ª":3364,"æĶ»åĩ»":3365,"çļĦç©º":3366,"SM":3367,"ronic":3368,"å«":3369,"çļĦé«ĺ":3370,"çļĦæķ°æį®":3371,"æľ«":3372,"æĪĳä¸į":3373,"åĩ¯":3374,"èµŀ":3375,"æľĢå¤§çļĦ":3376,"ç¨ĭåº¦":3377,"åĮĸåŃ¦":3378,"èĬ¬":3379,"æ»¤":3380,"ç»ĦåĲĪ":3381,"èįĲ":3382,"æĺŁæľŁ":3383,"ç»ĪæŃ¢":3384,"own":3385,"æįŁå®³":3386,"æĺ¯ä¸Ģç§į":3387,"08":3388,"çļĦæĿĥåĪ©":3389,"è¿«":3390,"éĩĮéĿ¢":3391,"çĿĽ":3392,"ç»ıèĲ¥":3393,"éļĨ":3394,"ress":3395,"èĥ¡":3396,"çĪ±çļĦ":3397,"æİ¨èįĲ":3398,"çģµæ´»":3399,"ational":3400,"ç«ŀäºī":3401,"çļĦç¥ŀ":3402,"è¦Ĩ":3403,"åı¥":3404,"äººæĿĥ":3405,"éĹª":3406,"èµģ":3407,"æıĲåĩº":3408,"æ²ĥ":3409,"ĠAr":3410,"åŃĲçļĦ":3411,"ĠTr":3412,"2010":3413,"æ¯ıå¤©":3414,"åħ±åĴĮ":3415,"å¨ľ":3416,"ç§Łèµģ":3417,"èĤ¡ä»½æľīéĻĲåħ¬åı¸":3418,"jp":3419,"Ġail":3420,"Ġier":3421,"å®ŀæĹ¶":3422,"æĶ¹åĸĦ":3423,"è¯Ħä¼°":3424,"åģľæŃ¢":3425,"åĪ¶éĢłåķĨ":3426,"å®ĹæķĻ":3427,"çĴĥ":3428,"Ġ>":3429,"Ġä¸Ń":3430,"Ġç³»åĪĹ":3431,"éĩĮçļĦ":3432,"ĠSp":3433,"åĲİçļĦ":3434,"çī©è´¨":3435,"èµĦäº§":3436,"æĶ¶åĪ°":3437,"åĨįæ¬¡":3438,"ooki":3439,"çļĦçĻ¾":3440,"AP":3441,"Se":3442,"å´":3443,"çĶŁæĪĲ":3444,"æ±¡":3445,"åĩºçīĪ":3446,"æģĲ":3447,"åŁºéĩĳ":3448,"æŁı":3449,"èĮ¨":3450,"è¿Ļæł·çļĦ":3451,"è´§å¸ģ":3452,"çĶ·äºº":3453,"å±ıå¹ķ":3454,"åģľè½¦åľº":3455,"çİ»çĴĥ":3456,"sh":3457,"Ġach":3458,"åľ¨æŃ¤":3459,"å¤§å®¶":3460,"ĠMar":3461,"ç¼¸":3462,"ĠNE":3463,"ĠUS":3464,"åŁŁåĲį":3465,"èģĶç³»æĪĳä»¬":3466,"èĩªåĬ¨åĮĸ":3467,"åĲ¸å¼ķ":3468,"49":3469,"int":3470,"åľ¨ä¸Ģä¸ª":3471,"æĪĳå°±":3472,"å¿Ļ":3473,"å¤§åŀĭ":3474,"è¡ĮæĶ¿":3475,"ĠAl":3476,"éģį":3477,"éģŃ":3478,"éĽ¨":3479,"æĪĺçķ¥":3480,"olog":3481,"ntern":3482,"echnolog":3483,"46":3484,"IS":3485,"Ġaz":3486,"ä¸Ńå¤®":3487,"èĢĹ":3488,"èµĮ":3489,"æĹ¶ä»£":3490,"ç¾İé£Ł":3491,"ç±»ä¼¼":3492,"éĻĲäºİ":3493,"ä¼łè¾ĵ":3494,"ç¿°":3495,"Templ":3496,"æĪĳä»¬å°Ĩ":3497,"å¯¹è±¡":3498,"ĠAP":3499,"ä½ĵèĤ²":3500,"ĠRE":3501,"åİ»äºĨ":3502,"198":3503,"ä¿®å¤į":3504,"çļĦäºĭæĥħ":3505,"èģĶåĲĪåĽ½":3506,"èªī":3507,"é¢ľèī²":3508,"åĶ¯ä¸Ģ":3509,"ld":3510,"æĺł":3511,"è¡¡":3512,"æķ¬":3513,"å¤§ä¼ļ":3514,"ĠCam":3515,"åħ³éĹŃ":3516,"èģĶçĽŁ":3517,"åįģåĪĨ":3518,"èĩ´åĬĽ":3519,"çľ¼çĿĽ":3520,"ide":3521,"æ½®":3522,"æ°¸è¿ľ":3523,"Ġ!":3524,"çĶ°":3525,"æľīçº¿":3526,"ä»¥ä¾¿":3527,"æīĢåľ¨":3528,"åĪĨç±»":3529,"æĦıä¹ī":3530,"éĴ®":3531,"ç¥Ń":3532,"å¤įåĪ¶":3533,"å¹¿å·ŀ":3534,"è¾ĵåĩº":3535,"æ´Ĺè¡£":3536,"åħħæ»¡":3537,"Mar":3538,"Ġte":3539,"æĺ¯ä»Ģä¹Ī":3540,"åĩŃ":3541,"å¦»":3542,"Ġue":3543,"çĤ¼":3544,"æľįåĬ¡çļĦ":3545,"åįķä½į":3546,"å¡«":3547,"æĶ¾æĿ¾":3548,"å¥³åŃ©":3549,"åıĮäºº":3550,"300":3551,"é¹":3552,"Ġix":3553,"æĭīæĸ¯":3554,"Ġland":3555,"æŁ¥æī¾":3556,"èĥŀ":3557,"ç³»ç»ŁçļĦ":3558,"è¿ĶåĽŀ":3559,"Bid":3560,"gBid":3561,"¹ģ":3562,"ç»¼":3563,"ä¸ĢçĤ¹":3564,"Ġore":3565,"å·§":3566,"äººå£«":3567,"å°±åı¯ä»¥":3568,"æĽ´é«ĺ":3569,"éĽĩ":3570,"Ġans":3571,"å¹³æĿ¿":3572,"æ¯Ķå¦Ĥ":3573,"çģŃ":3574,"æ¼ı":3575,"éļıæĹ¶":3576,"ç¬¬ä¸Ģæ¬¡":3577,"åį«çĶŁ":3578,"ä¼¼ä¹İ":3579,"çĳŀå£«":3580,"æŃ¥è¡Įè·¯ç¨ĭ":3581,"AvgBid":3582,"ive":3583,"500":3584,"ä¸Ģå®¶":3585,"æĹģ":3586,"æĤī":3587,"æľ¬åľ°":3588,"çĶµæ±ł":3589,"ä¿¡åı·":3590,"åħ¨åĽ½":3591,"åĬłåĿ¡":3592,"Ġ)ãĢĤ":3593,"æĦıè§ģ":3594,"åĢį":3595,"ĠRes":3596,"çĽ¸å½ĵ":3597,"å¹³æĸ¹":3598,"æĦŁåĪ°":3599,"åħĪè¿Ľ":3600,"æĮīéĴ®":3601,"ç§°ä¸º":3602,"Ġight":3603,"åº¦åģĩæĿĳ":3604,"of":3605,"Ġite":3606,"æľīäºº":3607,"æĪĳä¹Ł":3608,"Ġup":3609,"åıĳè¡¨":3610,"æ¯ķ":3611,"æľ¬åįıè®®":3612,"éĤ»":3613,"é«ĺéĢŁ":3614,"åº¦çļĦ":3615,"åĽłç´ł":3616,"ome":3617,"Ġby":3618,"åıªè¦ģ":3619,"è§Ħæ¨¡":3620,"è®¢åįķ":3621,"éº»":3622,"lectronic":3623,"æĭĴç»Ŀ":3624,"]ãĢĤ":3625,"Ġaw":3626,"æĿ¯":3627,"äºİæĺ¯":3628,"çĦĬ":3629,"å®ĥæĺ¯":3630,"2008":3631,"èĳ£":3632,"Ġack":3633,"é¾Ħ":3634,"åĪĨéĴŁè½¦ç¨ĭ":3635,"æŃ»äº¡":3636,"æ¿Ģåħī":3637,"edia":3638,"åŁĥåıĬ":3639,"èĨľ":3640,"ngl":3641,"èıľåįķ":3642,"å³°":3643,"èĩ´åĬĽäºİ":3644,"44":3645,"ED":3646,"Ġ]":3647,"çļĦä½ıå®¿":3648,"æĪĳæĺ¯":3649,"åİļ":3650,"æĮ¥":3651,"2000":3652,"åĲĪåĲĮ":3653,"æĦıè¯Ĩ":3654,"ä½Ĩä¸į":3655,"æ¶Ĥ":3656,"ĠOR":3657,"ç»Ħä»¶":3658,"èĩ³å°ĳ":3659,"åĩłä¸ª":3660,"åĿĲåľ¨":3661,"éŃĶ":3662,"åħ±åĴĮåĽ½":3663,"mm":3664,"åĹ":3665,"ä¸¢":3666,"çļĦä½¿çĶ¨":3667,"çļĦå®¢æĪ¿":3668,"çĶ¨åĵģ":3669,"åĩ¡":3670,"æĸ°åĬłåĿ¡":3671,"åĲĮæł·":3672,"æĸĩæľ¬":3673,"ä½ĵç³»":3674,"éĥ¨ä»¶":3675,"åĬĽéĩı":3676,"å»ºè®¾":3677,"äº¤æµģ":3678,"åĽŀçŃĶ":3679,"æĲº":3680,"è¯ĨåĪ«":3681,"èĢģå¸Ī":3682,"ish":3683,"æļĤ":3684,"èĪ¹ç¥¨":3685,"æĹłçº¿ç½ĳç»ľ":3686,"é¼ĵ":3687,"ä¿ĥè¿Ľ":3688,"nglish":3689,"IT":3690,"ĠSS":3691,"Ġind":3692,"æİ¥åı£":3693,"Ġco":3694,"Ġare":3695,"çĽ®çļĦåľ°":3696,"Ġph":3697,"æĺİçĻ½":3698,"éªĳ":3699,"è£ħé¥°":3700,"Ġiss":3701,"Ġett":3702,"æ¸ħæ´ģ":3703,"æĪĺäºī":3704,"èħĬ":3705,"ä¼ĳéĹ²":3706,"æł¸å¿ĥ":3707,"æ·ĭæµ´":3708,"Am":3709,"çļĦæľĢä½³":3710,"åħ¹":3711,"å®ĩ":3712,"è¿ħ":3713,"æľīæĿĥ":3714,"æĢª":3715,"ä½łè¦ģ":3716,"æ¯ģ":3717,"ç¾Ĭ":3718,"ç»Łè®¡":3719,"å±ķè§Ī":3720,"åıªéľĢ":3721,"åİŁåĪĻ":3722,"ç¢į":3723,"jpg":3724,"Pl":3725,"Ste":3726,"ik":3727,"åĪ¸":3728,"å¯¿":3729,"çº¤":3730,"Ġsc":3731,"ç³ĸ":3732,"ç»ıå¸¸":3733,"çī©æµģ":3734,"æ»ļ":3735,"åħ·ä½ĵ":3736,"åĸĿ":3737,"å®¤åĨħ":3738,"éĺ¿æĭī":3739,"å¾ĭå¸Ī":3740,"éŁ©åĽ½":3741,"çļĦçłĶ":3742,"HTML":3743,"åľ¨ä¸Ģèµ·":3744,"æĪĳè¦ģ":3745,"ç§Ĵ":3746,"å·¥åİĤ":3747,"æ¬²":3748,"åħ¨éĿ¢":3749,"æĸ¯ç§ĳ":3750,"çľĭçľĭ":3751,"çļĦçĭ":3752,"å½ĵæĹ¶":3753,"æ¸¸å®¢":3754,"å®¤å¤ĸ":3755,"éĢĤçĶ¨":3756,"æ¢¯":3757,"æļĸ":3758,"æ¥ļ":3759,"éļĲç§ģæĶ¿çŃĸ":3760,"Fl":3761,"pe":3762,"ĠæıĲä¾Ľ":3763,"Ġale":3764,"åľ¨è¿Ļä¸ª":3765,"ä¿±ä¹Ĳ":3766,"æłı":3767,"æĹ¶å°ļ":3768,"å¤ļçļĦ":3769,"æ²¿":3770,"æľºçļĦ":3771,"åħ¶å®ŀ":3772,"ĠCon":3773,"Ġry":3774,"å¿ĥéĩĮ":3775,"éĥ½æľī":3776,"æĹłéľĢ":3777,"äº§åĵģçļĦ":3778,"æŃ£å¼ı":3779,"Ġich":3780,"æĳĩ":3781,"åľ£ç»ı":3782,"ä»ĺæ¬¾":3783,"kmåħ¬å¯ĵ":3784,"å°¤åħ¶":3785,"Cl":3786,"Le":3787,"Web":3788,"ru":3789,"ä¸Ģå¼ł":3790,"Ġoy":3791,"æİĮ":3792,"éĢļè®¯":3793,"çİ°å®ŀ":3794,"ç¬¬ä¸Ģä¸ª":3795,"å¤ĸéĥ¨":3796,"çĽ®å½ķ":3797,"èģĶéĤ¦":3798,"åıĤæķ°":3799,"2009":3800,"çĵ¶":3801,"emicon":3802,"æ³°åĽ½":3803,"æķħäºĭ":3804,"è¿Ŀåıį":3805,"ä¿±ä¹Ĳéĥ¨":3806,"çļĦåĨħå®¹":3807,"æĪ´":3808,"åĪº":3809,"åľ¨ä»ĸ":3810,"æĪĳè¯´":3811,"æķŀ":3812,"å®ļåĪ¶":3813,"åĲįåŃĹ":3814,"æŃ£å¸¸":3815,"å¸ĥæĭī":3816,"åıªèĥ½":3817,"æŁĶ":3818,"ä¼ĺç§Ģ":3819,"æ®¿":3820,"æ®ĭ":3821,"é¢ĨåħĪ":3822,"åį³åı¯":3823,"å¸ĮèħĬ":3824,"éĺ³åı°":3825,"åĵªäºĽ":3826,"ä¸¥éĩį":3827,"And":3828,"ä¿¡çĶ¨åį¡":3829,"èģĬå¤©":3830,"Â°":3831,"Â»":3832,"ç¹ģ":3833,"ä»Ķ":3834,"åħĦ":3835,"è´¥":3836,"æĭĸ":3837,"éĻ¶":3838,"æ³µ":3839,"å¤ļå°ĳ":3840,"çī¹çĤ¹":3841,"Ġanc":3842,"è¡¨çİ°":3843,"æİ¥è§¦":3844,"èµĦè®¯":3845,"Ġice":3846,"åıĸæ¶Ī":3847,"æĶ¹è¿Ľ":3848,"æĳĨ":3849,"Ġade":3850,"å¼ķèµ·":3851,"åĵªéĩĮ":3852,"æ¤ħ":3853,"çĪ¶äº²":3854,"47":3855,"éŀ":3856,"çĶ¨é¤Ĳ":3857,"ä»¥ä¸º":3858,"åľ°çļĦ":3859,"çº¹":3860,"ä½łä¼ļ":3861,"èµ¢":3862,"åĬ¨åĬĽ":3863,"æĸĩæ¡£":3864,"åĻ¨çļĦ":3865,"å¤©æ°Ķ":3866,"è¿ĺåı¯ä»¥":3867,"è£¤":3868,"æ¯ĶèµĽ":3869,"ä¼ĺè´¨":3870,"åĳ½ä»¤":3871,"ç¢³":3872,"æ¶īåıĬ":3873,"Via":3874,"èĶ":3875,"åĲ¹":3876,"å°¾":3877,"å¾ª":3878,"ä»¥åĲİ":3879,"åİĺ":3880,"æľĢä½İ":3881,"Ġran":3882,"ä¹ĭå¤ĸ":3883,"å®īæİĴ":3884,"æłĩå¿Ĺ":3885,"ç¼ĺ":3886,"æ¯ıæĻļ":3887,"è§ĦåĪĴ":3888,"æľªç»ı":3889,"ç»Ĩèĥŀ":3890,"æ¦Ĥå¿µ":3891,"æ··åĲĪ":3892,"çļĦçĪ±":3893,"Template":3894,"è¿¹":3895,"åĴĮè§Ĩé¢ĳ":3896,"å¦¹":3897,"æ²Ł":3898,"çĶµåĬ¨":3899,"erry":3900,"åħ³èģĶ":3901,"ĠEC":3902,"ĠPark":3903,"æĥ³æ³ķ":3904,"è¯¥çŃī":3905,"ĠLa":3906,"Ġica":3907,"ç²Ĵ":3908,"è®ºåĿĽ":3909,"å¥³æĢ§":3910,"èĭ±æĸĩ":3911,"åıĤè§Ĥ":3912,"èħ¿":3913,"Ġood":3914,"ç§¯æŀģ":3915,"ç¾¤å²Ľ":3916,"Ġock":3917,"éģµå®Ī":3918,"å½¼å¾Ĺ":3919,"å°Ŀè¯ķ":3920,"66":3921,"Pr":3922,"ul":3923,"Ġæķ°æį®è¡¨":3924,"çļĦå·¥ä½ľæĹ¶éĹ´":3925,"å®ħ":3926,"æĹ¦":3927,"æľīçĤ¹":3928,"å¿į":3929,"æįķ":3930,"ĠAir":3931,"æģĴ":3932,"äº§æĿĥ":3933,"è¶ĭ":3934,"å¹³éĿ¢":3935,"åįķåĩ»":3936,"åĽ½éĻħæľºåľº":3937,"åį«æĺŁ":3938,"èģĮä¸ļ":3939,"å®ĺæĸ¹":3940,"è½´æī¿":3941,"æ¤įçī©":3942,"è¦ĨçĽĸ":3943,"ENT":3944,"if":3945,"ä»°":3946,"åı¶":3947,"åľ³":3948,"åºŁ":3949,"ä¸Ĭè¿°":3950,"å¹¶æ²¡æľī":3951,"ĠCity":3952,"åĲĪçĲĨ":3953,"ĠIM":3954,"è¡¨æĺİ":3955,"ĠET":3956,"ĠMan":3957,"æµ·å²¸":3958,"æ¨¡æĭŁ":3959,"æ·±åľ³":3960,"åı¦ä¸Ģä¸ª":3961,"ä¸¾åĬŀ":3962,"æİ¢ç´¢":3963,"æĬµè¾¾":3964,"åĬŀåħ¬å®¤":3965,"èĬ¬åħ°":3966,"AR":3967,"pt":3968,"per":3969,"çļĦæīĭ":3970,"æĺĤ":3971,"è¯ŀ":3972,"è½¨":3973,"æĬĵ":3974,"èµĲ":3975,"æĪĳä»¬ä¼ļ":3976,"ĠAn":3977,"å®¶åħ·":3978,"è·¨":3979,"è¿Ľåı£":3980,"ĠPS":3981,"æŃ¤ç±»":3982,"ç¥Ŀ":3983,"æ¯ıå¹´":3984,"æ°ĶåĢĻ":3985,"çº¦ç¿°":3986,"æĮĩå®ļ":3987,"éªĮè¯ģ":3988,"Ġoun":3989,"ä»ħæľī":3990,"åĳ¨åĽ´":3991,"å¸®åĬ©æĤ¨":3992,"è¯¦ç»Ĩä¿¡æģ¯":3993,"ç»¼åĲĪ":3994,"åľĪ":3995,"å¹ħ":3996,"åĨł":3997,"æı¡":3998,"åĪĨéħį":3999,"çĲĨçĶ±":4000,"ç»ıçĲĨ":4001,"å¼Ģå±ķ":4002,"çī¹èī²":4003,"å¿ĥçļĦ":4004,"çļĦç¡":4005,"å¤©çĦ¶":4006,"Ġern":4007,"å°ıçļĦ":4008,"Ġha":4009,"æįŁåĿı":4010,"çªģçĦ¶":4011,"çļĦçģµ":4012,"çļĦç²¾":4013,"88":4014,"CO":4015,"æľīä»Ģä¹Ī":4016,"åľ°çĲĥ":4017,"åĬ¨æĢģ":4018,"æľįåĬ¡åĴĮ":4019,"ç«ĻçĤ¹":4020,"äº¤ä»ĺ":4021,"ç»ĦæĪĲ":4022,"æĶ¾åľ¨":4023,"2007":4024,"ç¢İ":4025,"Inc":4026,"éľ²åı°":4027,"ductor":4028,"emiconductor":4029,":ãĢĮ":4030,"os":4031,"åºĦ":4032,"åºĨ":4033,"åį·":4034,"æīİ":4035,"ä»ĸæĺ¯":4036,"ä½ľèĢħ":4037,"Ġson":4038,"ä½¿å¾Ĺ":4039,"åĪ©çĽĬ":4040,"åħ¨ä¹¦":4041,"åĢº":4042,"æĲŃ":4043,"èĬĤçľģ":4044,"çłĶåıĳ":4045,"è¿Ļæĺ¯ä¸Ģä¸ª":4046,"æĢİæł·":4047,"çĻ»è®°":4048,"ä¸¾è¡Į":4049,"èĮĥåĽ´åĨħ":4050,"ä¸ºæĤ¨æıĲä¾Ľ":4051,"åħ¼å®¹":4052,"æŁıæŀĹ":4053,"AM":4054,"ux":4055,"âĤ":4056,"Ġåı¯":4057,"çļĦå¿ĥ":4058,"æĪª":4059,"ä»¥æĿ¥":4060,"åľ°äº§":4061,"æıĲç¤º":4062,"Ġsp":4063,"çĶµæľº":4064,"ç¬¬åĽĽ":4065,"çļĦç¼":4066,"è¡¨è¾¾":4067,"æĪ¿åŃĲ":4068,"å£®":4069,"äº¤åıĭ":4070,"Ġatt":4071,"æ¯ıä¸Ģä¸ª":4072,"ä¸ĵéĹ¨":4073,"æĴ¤":4074,"æ²Ļåıĳ":4075,"å¡ĳæĸĻ":4076,"é©¾é©¶":4077,"Com":4078,"ID":4079,"IN":4080,"SS":4081,"tp":4082,"äº¦":4083,"ç»©":4084,"è¿Ļå°±æĺ¯":4085,"è´¡":4086,"æµ¦":4087,"æĿ¥è¶Ĭ":4088,"è¿ĩæĿ¥":4089,"åĩºåıĳ":4090,"å°Ķå¤«":4091,"Ġerm":4092,"åįķåħĥ":4093,"èĦī":4094,"Ġort":4095,"å½¢æĪĲ":4096,"è¶ĬæĿ¥è¶Ĭ":4097,"æĬĺæī£":4098,"é½Ĳåħ¨":4099,"çļĦçĻ¾ç§ĳ":4100,")(":4101,"é¬":4102,"åľ¨æĪĳ":4103,"ä¸Ģä½į":4104,"ä¸Ģå¤©":4105,"ä¸Ģèĩ´":4106,"éĢĲ":4107,"ä¸ŃéĹ´":4108,"åĮ¹":4109,"é¢Ĺ":4110,"å¦Ĥä»Ĭ":4111,"ĠAv":4112,"å®¶çļĦ":4113,"åľºæīĢ":4114,"äºĭåĬ¡":4115,"è¢ĭ":4116,"èĤ¤":4117,"æĺİç¡®":4118,"çĪĨ":4119,"Ġzh":4120,"æµ´ç¼¸":4121,"é£Łçī©":4122,"åĪĨéĴŁçļĦ":4123,"åįĩçº§":4124,"èĩªçĶ±çļĦçĻ¾ç§ĳ":4125,"èµĶåģ¿":4126,"èĩªçĶ±çļĦçĻ¾ç§ĳåħ¨ä¹¦":4127,"La":4128,"LED":4129,"MB":4130,"gle":4131,"rand":4132,"æĤ¨å°Ĩ":4133,"åħ¬å¼Ģ":4134,"è·µ":4135,"éĿ¢ç§¯":4136,"çİ°æľī":4137,"ĠDr":4138,"Ġty":4139,"æķ°æį®åºĵ":4140,"Ġone":4141,"åħ¶ä»ĸå·¥ä½ľ":4142,"å¤Ħäºİ":4143,"æķĻåłĤ":4144,"èĥ¸":4145,"Ġics":4146,"ç»Ļä½ł":4147,"ĠUR":4148,"é¦ĸåħĪ":4149,"250":4150,"ile":4151,"Ġåħ¬åı¸":4152,"Ġè½¯ä»¶":4153,"Ġint":4154,"æĪĳåľ¨":4155,"äººåı£":4156,"éħĴåºĹåľ¨":4157,"æ³ķè§Ħ":4158,"çĽ¸åºĶ":4159,"éĵº":4160,"éª¤":4161,"æĹħå®¢":4162,"éĿŀæ´²":4163,"è§Ĥçľĭ":4164,"çıł":4165,"åıįåºĶ":4166,"ç¤¾äº¤":4167,"æī¿è®¤":4168,"çĬ¶åĨµ":4169,"èŀº":4170,"http":4171,"ä¸ĭåĪĹåĲĦé¡¹":4172,"èĳ£äºĭ":4173,"éĺ¿æĭīä¼¯":4174,"Mac":4175,"Or":4176,"ach":4177,"ml":4178,"site":4179,"çħ":4180,"è¯Ĭ":4181,"å¯Ħ":4182,"å¥ī":4183,"åľ°éĵģ":4184,"å¦Ļ":4185,"æıĲåīį":4186,"å¹´é¾Ħ":4187,"çĻĮ":4188,"ç¼Ĩ":4189,"Ġash":4190,"è¯ķéªĮ":4191,"://":4192,"æİĴåĲį":4193,"äºīè®®":4194,"åĺī":4195,"æİĪäºĪ":4196,"æĺŁçº§éħĴåºĹ":4197,"åĨ°ç®±":4198,"ä¹ĺå®¢":4199,"59":4200,"Ġ=":4201,"çļĦä¸»è¦ģ":4202,"æľīè¶£":4203,"å¹»":4204,"å¼±":4205,"å¼Ħ":4206,"æķĮ":4207,"ä½łä¸į":4208,"éĻ·":4209,"ä¸Ĭç½ĳ":4210,"åĪ°çļĦ":4211,"æĿ¥æºĲ":4212,"Ġuk":4213,"è¿ĩæ»¤":4214,"ä¸İä¸ĭåĪĹåĲĦé¡¹":4215,"ĠIL":4216,"ä¹Łä¼ļ":4217,"star":4218,"ĠES":4219,"éģĵè·¯":4220,"æ¸¸è§Ī":4221,"åĬ©äºİ":4222,"åĽŀåĪ°":4223,"åĬŁçİĩ":4224,"åģļåĩº":4225,"URY":4226,"åİĭç¼©":4227,"åħĥç´ł":4228,"èµ°äºĨ":4229,"isc":4230,"åĮ»çĶŁ":4231,"çĽ¸åħ³çļĦåħ¶ä»ĸå·¥ä½ľ":4232,"è¿ħéĢŁ":4233,"ENTURY":4234,"ä¸İä¸ĭåĪĹåĲĦé¡¹çĽ¸åħ³çļĦåħ¶ä»ĸå·¥ä½ľ":4235,"09":4236,"400":4237,"AN":4238,"Ex":4239,"çĺ":4240,"ä¹¡":4241,"æĺ¯çĶ±":4242,"è¿Ļå®¶":4243,"å±ģ":4244,"å¯¹è¯Ŀ":4245,"éĩĮæĸ¯":4246,"Ġru":4247,"è¯´è¯Ŀ":4248,"Ġark":4249,"ç¼Ŀ":4250,"ĠLe":4251,"èĦĤ":4252,"ç±»åĪ«":4253,"ç½ĳç«ĻçļĦ":4254,"æĶ¶åħ¥":4255,"çĭĤ":4256,"ĠUn":4257,"Ġver":4258,"åıĤèĢĥ":4259,"ä¹īåĬ¡":4260,"çŃ¾è¯ģ":4261,"çħ§çīĩåĴĮè§Ĩé¢ĳ":4262,"é½¿":4263,"èĸĦ":4264,"ĠSuite":4265,"çĭ¬çī¹çļĦ":4266,"éŀĭ":4267,"âĤ¬":4268,"Ġå·²ç»ı":4269,"Ġä¸ªäººèµĦæĸĻ":4270,"Ġey":4271,"ä»ĸåľ¨":4272,"æ³¡":4273,"åĲİæĿ¥":4274,"çļĦçĬ":4275,"è½¦è¾Ĩ":4276,"Ġery":4277,"æĺİæĺ¾":4278,"Ġ12":4279,"å¾Īå¥½":4280,"éķ¿çļĦ":4281,"ä½ıåľ¨":4282,"oogle":4283,"Ġive":4284,"å®½æķŀ":4285,"é²ľèĬ±":4286,"æ°§åĮĸ":4287,"æ¬£èµı":4288,"é¬¼":4289,"54":4290,"78":4291,"CD":4292,"wik":4293,"ç»ķ":4294,"Ġeg":4295,"æĪĳä»¬åı¯ä»¥":4296,"ä½ľåĩº":4297,"å°±åĥı":4298,"åģ¶":4299,"å¼Ģåħ³":4300,"é«ĺåº¦":4301,"åĬłæĹ©é¤Ĳ":4302,"åĽ¾å½¢":4303,"ç©Ĩ":4304,"Ġath":4305,"å¸¸è§ģ":4306,"Ġge":4307,"è¿Ľè¡ĮäºĨ":4308,"åįģåŃĹ":4309,"æŃ¥éª¤":4310,"åı·çłģ":4311,"æĢ»ç»Ł":4312,"agram":4313,"303":4314,"çºªå¿µ":4315,"æĦ¿æĦı":4316,"éŃĤ":4317,"çĬ¹å¤ª":4318,"!âĢĿ":4319,"04":4320,"Google":4321,"Lin":4322,"ire":4323,"ran":4324,"çļĦæĬĢæľ¯":4325,"Ġau":4326,"æī¬":4327,"å¤§çº¦":4328,"æĪĸæĺ¯":4329,"æĮ¯":4330,"æĮĤ":4331,"ĠAD":4332,"ä¸İæĪĳä»¬":4333,"ĠCO":4334,"ç»ıåİĨ":4335,"ong":4336,"éľį":4337,"ĠEm":4338,"âĢĿãĢĤ":4339,"ç´¯":4340,"æĬĢèĥ½":4341,"amp":4342,"ess":4343,"åįģäºĮ":4344,"å¯ĨéĴ¥":4345,"æĢ»æĺ¯":4346,"åįļå®¢":4347,"æİ¨åĬ¨":4348,"çĽĳæµĭ":4349,"å¯»æ±Ĥ":4350,"èī¯å¥½çļĦ":4351,"ç§ģäººæµ´å®¤":4352,"ä½Ľç½Ĺ":4353,"ostel":4354,"æī«æıı":4355,"çĸ¾çĹħ":4356,"ä½Ĩä¸įéĻĲäºİ":4357,"æĺ¥":4358,"åĲ»":4359,"è¯¸":4360,"ä¸ĢæĿ¡":4361,"æĹĹ":4362,"åĩ½":4363,"ç½ļ":4364,"å½»":4365,"æ°Ľ":4366,"æĦī":4367,"æľĢæĸ°çļĦ":4368,"çĲĨè®º":4369,"å°Ĩåľ¨":4370,"çī¹æĢ§":4371,"è¯´éģĵ":4372,"Ġana":4373,"çļĦçħ§":4374,"å¼ıéħĴåºĹ":4375,"éķ¿åº¦":4376,"æ¯Ķäºļ":4377,"å§ĭç»Ī":4378,"æł¹æľ¬":4379,"çļĦä¸ĢåĪĩ":4380,"ç¦ıéŁ³":4381,"è¿·ä½ł":4382,"åį±éĻ©":4383,"?\"":4384,"Sk":4385,"è¹":4386,"Ġire":4387,"æĿĨ":4388,"ä¸įåĨį":4389,"è´·":4390,"æĬ«":4391,"æľĢå¤ļ":4392,"å°±åľ¨":4393,"è¯´çļĦ":4394,"èĢĮè¨Ģ":4395,"éĤ£æł·":4396,"å®ŀè·µ":4397,"æİ¥æĶ¶":4398,"çī©åĵģ":4399,"åĢ¾":4400,"æĥ³åĪ°":4401,"æµģéĩı":4402,"è®©æĤ¨":4403,"æŁľ":4404,"å¤įæ´»":4405,"æĮĩå¯¼":4406,"å©´":4407,"ç¦ģæŃ¢":4408,"Instagram":4409,"echnology":4410,"è¶ĭåĬ¿":4411,"69":4412,"77":4413,"çļĦè®¾è®¡":4414,"çļĦå®¢äºº":4415,"å°ĸ":4416,"éĢĬ":4417,"åı¯æĮģç»Ń":4418,"åĽ¾ä¹¦":4419,"çĦ¦":4420,"Ġitt":4421,"é¢Ħæµĭ":4422,"å·´å¡ŀ":4423,"ç±³åħ°":4424,"è§Ĥå¯Ł":4425,"åĽ½å®¶çļĦ":4426,"åºĬä¸Ĭ":4427,"Ġung":4428,"é»Ħéĩĳ":4429,"æĳĦåĥı":4430,"çļĦçĪ¶":4431,"èį·åħ°":4432,"éĺ¶æ®µ":4433,"åĴĮæľįåĬ¡":4434,"æĺ¯ä¸ª":4435,"ä¼ı":4436,"æĿľ":4437,"æķ¢":4438,"æ³½":4439,"åĩºåİ»":4440,"åĨħåŃĺ":4441,"ä¹Łæľī":4442,"éĥİ":4443,"çŃīçŃī":4444,"Ġfr":4445,"å·´è¥¿":4446,"æİ§åĪ¶åĻ¨":4447,"è¯·æ±ĤçļĦURLhttp":4448,"æī¿è¯º":4449,"aceb":4450,"è¡£æľį":4451,"æį·åħĭ":4452,"ç»ĵæĿŁleft":4453,"é©±åĬ¨åĻ¨":4454,"nternational":4455,"æĩ":4456,"æħ§":4457,"ĠâĢĵ":4458,"çļĦåīį":4459,"çļĦå½±åĵį":4460,"åħµ":4461,"Ġax":4462,"Ġost":4463,"çĶ¨æĿ¥":4464,"åĩĿ":4465,"ç½ķ":4466,"åĳĪ":4467,"éĽĦ":4468,"èĢĮä¸įæĺ¯":4469,"éĥ½ä¸į":4470,"éĩįéĩı":4471,"å¤©ä¸»":4472,"éĶĪ":4473,"å¤ĸåĽ½":4474,"å°ıåŀĭ":4475,"ç¥·":4476,"all":4477,"æĶ¶èĹı":4478,"ä¸ĸçķĮä¸Ĭ":4479,"ä¸ĸçķĮåĲĦ":4480,"åĪĩåī²":4481,"ç§»æ°ĳ":4482,"åĸľçĪ±":4483,"èĪªçıŃ":4484,"éĺ²æŃ¢":4485,"çĨ¨":4486,"éŁ¦":4487,"ä¸°å¯ĮçļĦ":4488,"å®ŀéªĮå®¤":4489,"æ²ŁéĢļ":4490,")ãĢģ":4491,"58":4492,"PHP":4493,"èļ":4494,"çļĦéĩįè¦ģ":4495,"è¯Ĺ":4496,"éĢĥ":4497,"ä¸ªæĢ§":4498,"å¤§éĥ¨åĪĨ":4499,"åĳĢ":4500,"Ġual":4501,"å¹´åīį":4502,"Ġss":4503,"ĠCo":4504,"å°Ĩåħ¶":4505,"æ³ķéĻ¢":4506,"éĢļéģĵ":4507,"é«ĺæķĪ":4508,"åĬłå¼º":4509,"çļĦçĹ":4510,"ĠPr":4511,"éª¨":4512,"ä½ıäºĨ":4513,"ä½ıå®ħ":4514,"å¸¦æľī":4515,"å¿«ä¹Ĳ":4516,"åĶ±":4517,"æ¸ħåįķ":4518,"åıįå¯¹":4519,"åįıåĬ©":4520,"è½®æ¸¡":4521,"ace":4522,"çĹħæ¯Ĵ":4523,"ade":4524,"éľ²èĲ¥":4525,"æĸ¹éĿ¢çļĦ":4526,"Ġult":4527,"é¡¶çº§":4528,"è´Ŀå°Ķ":4529,"Adv":4530,"ç»¿èī²":4531,"Black":4532,"ĠBeach":4533,"çļĦçĭ¬":4534,"è´¡çĮ®":4535,"01":4536,"57":4537,"English":4538,"çļĦçĲĨæĥ³":4539,"ä»¿":4540,"åı¬":4541,"ĠaS":4542,"æĪĳçŁ¥éģĵ":4543,"ä¸įç®¡":4544,"æ³¥":4545,"å¤§å°ı":4546,"è¾Ľ":4547,"åıĳåĩº":4548,"åīª":4549,"éĤĢ":4550,"Ġri":4551,"èĢĮæĺ¯":4552,"æ·¡":4553,"å¾·éĩĮ":4554,"ree":4555,"ĠFl":4556,"Ġord":4557,"Ġorn":4558,"Ġamp":4559,"åĬŀæ³ķ":4560,"è¿ľç¨ĭ":4561,"äºĨè§£æĽ´å¤ļ":4562,"åľ°åĮºçļĦ":4563,"èĩªè¡Įè½¦":4564,"é¥ŃåºĹ":4565,"æĤ£èĢħ":4566,"çļĦçłĶç©¶":4567,"Be":4568,"New":4569,"iver":4570,"un":4571,"ãĢĤ[":4572,"æĪĪ":4573,"åľ¨ä¸Ģ":4574,"æľīåĬ©äºİ":4575,"åŃĻ":4576,"æĢĴ":4577,"ä¸ĬäºĨ":4578,"ä¸ĭä¸Ģ":4579,"ĠCD":4580,"åŃ¦å®¶":4581,"è£Ĥ":4582,"èµĦéĩĳ":4583,"Ġpro":4584,"Ġyn":4585,"æŁ¥è¯¢":4586,"é©¬ä¸Ĭ":4587,"éĽĨä¸Ń":4588,"è®©æĪĳä»¬":4589,"å°¼æĸ¯":4590,"å¿«çļĦ":4591,"æ¼Ĥ":4592,"è´¢äº§":4593,"æķħéļľ":4594,"éĽ¶åĶ®":4595,"åĬ³åĬ¨":4596,"æĽ¿ä»£":4597,"ĠComp":4598,"Instagramçħ§çīĩåĴĮè§Ĩé¢ĳ":4599,"42":4600,"Ag":4601,"IC":4602,"Tex":4603,"po":4604,"ton":4605,"èĿ":4606,"çļĦä»·æł¼":4607,"çļĦçĶŁæ´»":4608,"Ġium":4609,"Ġep":4610,"è¿Ļæ¬¡":4611,"æĬ¼":4612,"ä¸ĭéĿ¢":4613,"åī©":4614,"æĽ´å¥½":4615,"ĠTR":4616,"å£³":4617,"ĠHouse":4618,"Ġport":4619,"ç²ĺ":4620,"æº¶":4621,"æ¸ħæ¥ļ":4622,"ä¸ĬçļĦçĶ¨éĢĶ":4623,"ç²¾ç¥ŀ":4624,"åįıä¼ļ":4625,"åĬŀçĲĨ":4626,"ç¼ĸç¨ĭ":4627,"Ġode":4628,"ç®Ģåįķæııè¿°":4629,"å®¡æŁ¥":4630,"éļľç¢į":4631,"orgä¸ĬçļĦçĶ¨éĢĶ":4632,"lectronics":4633,"41":4634,"68":4635,"El":4636,"ne":4637,"Ġäº§åĵģ":4638,"ä¸įåŃĺåľ¨":4639,"åĨ¬":4640,"çī§":4641,"åĽ½çļĦ":4642,"å¹´ä»£":4643,"åĲĪéĩĳ":4644,"çĿĢå¥¹":4645,"çī©çļĦ":4646,"çĽ¸æľº":4647,"æł¼çļĦ":4648,"Ġ($":4649,"Ġ19":4650,"Ġler":4651,"å¸ĥé²ģ":4652,"æĶ¶è´¹":4653,"roid":4654,"è®©ä½ł":4655,"éĢĤåºĶ":4656,"åİŁå§ĭ":4657,"éĻ¤éĿŀ":4658,"æŀĦæĪĲ":4659,"é¢ĳéģĵ":4660,"ç®Ģä»ĭ":4661,"æĻ®éĢļ":4662,"æľīæķĪçļĦ":4663,"é¥®æĸĻ":4664,"02":4665,"Hip":4666,"QL":4667,"çļĦæµ·":4668,"åľ¨ä»»ä½ķ":4669,"åľ¨ç¾İåĽ½":4670,"Ġoh":4671,"åŃĶ":4672,"åŃķ":4673,"å®¶äºº":4674,"åºĶå¯¹":4675,"æĪ·å¤ĸ":4676,"å½ĵæĤ¨":4677,"ĠThe":4678,"èĤ¥":4679,"æ»¨":4680,"å¾Īå¥½çļĦ":4681,"è¯ģä¹¦":4682,"è®©æĪĳ":4683,"çķĮéĿ¢":4684,"ice":4685,"ä¾¿åĪ©":4686,"æĮīæĳ©":4687,"çĻ½èī²":4688,"æ¬§çĽŁ":4689,"Ġide":4690,"çĳŁ":4691,"æħķ":4692,"æŀ¶æŀĦ":4693,"å®£ä¼ł":4694,"æĹ¨åľ¨":4695,"å§ĵåĲį":4696,"å¯¿åĳ½":4697,"95":4698,"Br":4699,"DO":4700,"ĠçŃī":4701,"Ġç³»ç»Ł":4702,"åľ¨æĤ¨":4703,"Ġiy":4704,"åĨĴ":4705,"æĪĳä»¬æıĲä¾Ľ":4706,"çĲ´":4707,"ĠAG":4708,"ç¨¿":4709,"ç¾ŀ":4710,"çī¹å°Ķ":4711,"éľĩ":4712,"ĠEM":4713,"å¤ĸè§Ĥ":4714,"å»Ĭ":4715,"æł¼åħ°":4716,"æ¶Ľ":4717,"æ·«":4718,"éħįä»¶":4719,"Ġory":4720,"è§ĦèĮĥ":4721,"ä½łä»¬çļĦ":4722,"åĢ¼å¾Ĺ":4723,"ipt":4724,"ited":4725,"çŁ¥è¯Ĩäº§æĿĥ":4726,"æŃ£ç¡®çļĦ":4727,"æľĢè¿ĳçļĦ":4728,"able":4729,"æ¶Īè´¹èĢħ":4730,"åįĵè¶Ĭ":4731,"åĽ°éļ¾":4732,"ä¾¿å®ľçļĦ":4733,"Android":4734,"ä»Ķç»Ĩ":4735,"Ġå·²ç»ıç»ĵæĿŁleft":4736,"å·´å¡ŀç½Ĺ":4737,"acebook":4738,"150":4739,"43":4740,"ä»ĵ":4741,"è¿Ł":4742,"åĪĳ":4743,"æĺ¯ä¸į":4744,"æŀª":4745,"åıĳæĮ¥":4746,"éħĴåºĹä½įäºİ":4747,"æľĢå¥½":4748,"éĿ¢å¯¹":4749,"é«ĺè¾¾":4750,"é«ĺå°Ķå¤«":4751,"ä¹Łè®¸":4752,"åĪ¶å®ļ":4753,"çľĭäºĨ":4754,"éĥ¨ç½²":4755,"å¥½äºĨ":4756,"å¥½åĥı":4757,"è¯·åıĤ":4758,"æĪ¿åľ°äº§":4759,"èĤĿ":4760,"Ġary":4761,"æłĩè®°":4762,"Ġyl":4763,"Ġgl":4764,"æŁ±":4765,"ç©ºæĪ¿":4766,"é£İæĻ¯":4767,"è®¾è®¡çļĦ":4768,"æ¡Īä¾ĭ":4769,"åħįè´¹WiFi":4770,"å¼ºå¤§çļĦ":4771,"è¶³å¤Ł":4772,"çĵľ":4773,"ç®ĢåįķçļĦ":4774,"çī¹åĪ«æĺ¯":4775,"ight":4776,"Trip":4777,"ĠCenter":4778,"è¾ħå¯¼":4779,"ookie":4780,"å¦»åŃĲ":4781,"Texas":4782,"06":4783,"1000":4784,"port":4785,"âĶ":4786,"łéģĵ":4787,"çļĦæ°´":4788,"çļĦåħ¶ä»ĸ":4789,"Ġile":4790,"å·Ŀ":4791,"ä»¥å¤ĸ":4792,"æĭĶ":4793,"èµ¶":4794,"Ġux":4795,"ĠAB":4796,"çĲĨä½įç½®":4797,"åĲĮä¸Ģ":4798,"æĹ¥å¸¸":4799,"Ġere":4800,"ç«Ļåľ¨":4801,"å»ī":4802,"ä»»ä½ķäºº":4803,"å¤ĩä»½":4804,"çŃīçº§":4805,"Ġ16":4806,"Ġ18":4807,"åıĹæ¬¢è¿İ":4808,"å·¥ä½ľäººåĳĺ":4809,"åħĭæĸ¯":4810,"è¯ģæį®":4811,"ç»ĻæĪĳ":4812,"ç»´ä¿®":4813,"åĮħæĭ¬ä½Ĩä¸įéĻĲäºİ":4814,"ä¹¦éĿ¢":4815,"ence":4816,"åģĩæĹ¥":4817,"å±ŀæĢ§":4818,"ä¼Ĺå¤ļ":4819,"html":4820,"è®Ńç»ĥ":4821,"çªĹåı£":4822,"ASP":4823,"å¦ĩå¥³":4824,"çģ«è½¦ç«Ļ":4825,"çļĦçħ§çīĩ":4826,"Ser":4827,"Ġ[":4828,"Ġç½ĳç«Ļ":4829,"çļĦåİŁåĽł":4830,"åľ¨ä½ł":4831,"åĴĮä¸Ģä¸ª":4832,"çĽĹ":4833,"æ³ī":4834,"åħ¬è·¯":4835,"åħ¬æ°ĳ":4836,"æĸ¹çļĦ":4837,"é«ĺçļĦ":4838,"é«ĺåħ´":4839,"orld":4840,"ĠPh":4841,"é¦Ī":4842,"ĠMP":4843,"èµĦæľ¬":4844,"Ġpr":4845,"å·²è¢«":4846,"éĵľ":4847,"è¥¿åĵ¥":4848,"éĹ¨ç¥¨":4849,"æĮĩåĩº":4850,"å¥³åĦ¿":4851,"éĻĦåĬł":4852,"åįļå£«":4853,"åĪĨéĴŁæŃ¥è¡Įè·¯ç¨ĭ":4854,"åĵįåºĶ":4855,"åį°åĪ·":4856,"æĻļä¸Ĭ":4857,"ework":4858,"å·¥ç¨ĭå¸Ī":4859,"è´¢åĬ¡":4860,"åĿļæĮģ":4861,"ramework":4862,"çľŁæŃ£çļĦ":4863,"FileHip":4864,"å®¤å¤ĸæ¸¸æ³³æ±ł":4865,"FileHippo":4866,",âĢľ":4867,"03":4868,"05":4869,"Ac":4870,"Ro":4871,"de":4872,"ype":4873,"Ġå°Ĩ":4874,"ĠaC":4875,"åľ¨ä¸ŃåĽ½":4876,"ä¸ĢéĹ´":4877,"äºĨè¿Ļ":4878,"åıĳåĬ¨":4879,"çĲĨå¿µ":4880,"ĠCor":4881,"çĤİ":4882,"ä¹ĭä¸Ń":4883,"ĠII":4884,"ç±į":4885,"ĠPal":4886,"çĽ¸æ¯Ķ":4887,"å¾Īå¿«":4888,"äº¤æį¢":4889,"æĿĥéĻĲ":4890,"çģ°":4891,"ĠOr":4892,"å¸¦çĿĢ":4893,"ä»Ģä¹Īæĺ¯":4894,"çĲĥåľº":4895,"éŁ³é¢ĳ":4896,"è¿ŀç»Ń":4897,"æķ´åĲĪ":4898,"æİ¨å¹¿":4899,"èħ°":4900,"åħħåĪĨ":4901,"Chin":4902,"åŁºç¡Ģè®¾æĸ½":4903,"æī¹åĩĨ":4904,"åĨľä¸ļ":4905,"èĳ¡èĲĦéħĴ":4906,"èĳ¡èĲĦçīĻ":4907,"èĤ¯å®ļ":4908,"App":4909,"å¢¨è¥¿åĵ¥":4910,"èµĮåľº":4911,"07":4912,"VD":4913,"ber":4914,"net":4915,"ov":4916,"yst":4917,"Ġ20":4918,"å®Ļ":4919,"å®ł":4920,"ä¹Ļ":4921,"æĿ¨":4922,"æĤ¦":4923,"ä¸Ĭå¸Ĥ":4924,"æµ®":4925,"æĥ¯":4926,"å®¶éĩĮ":4927,"åĪĨå¸ĥ":4928,"åĪĨåĪ«":4929,"ä»¶äºĭ":4930,"ä¿¡å¿ĥ":4931,"éĿ¢ä¸´":4932,"æĽ´å¥½çļĦ":4933,"å®¢åİħ":4934,"ä»İè§Ĩé¢ĳ":4935,"èĤĮ":4936,"Ġct":4937,"ĠRO":4938,"Ġ11":4939,"åĲĳæĤ¨":4940,"Ġator":4941,"çģ¾":4942,"è·¯çº¿":4943,"Ġff":4944,"enue":4945,"å®īåħ¨æĢ§":4946,"ĠStation":4947,"æĵ¦":4948,"ç»ĨèĬĤ":4949,"è¿Ļä¸ĢçĤ¹":4950,"ä½ıå®¿åĬłæĹ©é¤Ĳ":4951,"404":4952,"åī§éĻ¢":4953,"Ġuck":4954,"å¹³æĸ¹ç±³":4955,"å±ģèĤ¡":4956,"TexasInst":4957,"âĶĢ":4958,"ystem":4959,");":4960,"Framework":4961,"Word":4962,"âĪ":4963,"Ġä¸İ":4964,"æĺ¯æľĢ":4965,"ä¸įéĶĪ":4966,"æĿ¥äºĨ":4967,"æľºåĴĮ":4968,"æľºåĪ¶":4969,"éħĴåºĹæıĲä¾Ľ":4970,"èĩªåĬ©":4971,"çĶµåĬĽ":4972,"ä¿¡ä»°":4973,"æĸ°è¥¿":4974,"ä¿Ŀéļľ":4975,"Ġany":4976,"éĥ½åľ¨":4977,"çī©çĲĨ":4978,"éĵĿ":4979,"Ġbo":4980,"reen":4981,"æ°Ķä½ĵ":4982,"å®ĮåĸĦ":4983,"åı°æ¹¾":4984,"éĢĤå½ĵ":4985,"æ°ĳä¸»":4986,"ild":4987,"èħĲ":4988,"ä½ľä¸ºä¸Ģä¸ª":4989,"äºĴåĬ¨":4990,"æĭħä»»":4991,"ipedia":4992,"ç¡¬ä»¶":4993,"åĽºå®ļ":4994,"é¡¾å®¢":4995,"ments":4996,"é»ĺè®¤":4997,"NETFramework":4998,"åĿĲèĲ½äºİ":4999,"ruments":5000,"wikipedia":5001,"irect":5002,"TexasInstruments":5003,"Co":5004,"ph":5005,"åµ":5006,"Ġ;":5007,"çļĦæĸĩä»¶":5008,"ä¸Ģè¾¹":5009,"ä¹ĥ":5010,"Ġee":5011,"å¥Ī":5012,"åľ°ä¸Ĭ":5013,"åĪ°åºķ":5014,"è¡ĮæĿİ":5015,"è¾¨":5016,"ä¸ĭåİ»":5017,"å¹´æĿ¥":5018,"åĩºäºİ":5019,"å¥¹è¯´":5020,"è¡¨æ¼Ķ":5021,"éĩįçĤ¹":5022,"æĦŁæŁĵ":5023,"åĪ«çļĦ":5024,"åģļçļĦ":5025,"åħĪçŁ¥":5026,"Ġada":5027,"åľ£çģµ":5028,"åľ£è¯ŀ":5029,"è§Ĥåħī":5030,"ä¾ĭåŃĲ":5031,"åĽ¢ä½ĵ":5032,"Ġoth":5033,"æĢĿæĥ³":5034,"æĺ¯ä¸Ģå®¶":5035,"åĤ¨åŃĺ":5036,"æĵįä½ľç³»ç»Ł":5037,"ç»Ŀå¯¹":5038,"æī©å¤§":5039,"èį¯çī©":5040,"å®£å¸ĥ":5041,"ç§ĳæĬĢæľīéĻĲåħ¬åı¸":5042,"å¹³æĿ¿çĶµè§Ĩ":5043,"ä¸įéĶĪéĴ¢":5044,"53":5045,"ĠæĬĢæľ¯":5046,"ä¸ĺ":5047,"Ġech":5048,"ä»ĸäºº":5049,"ä½łå°±":5050,"å¿Ĩ":5051,"åĬ¨ä½ľ":5052,"ĠAd":5053,"åĬłçĥŃ":5054,"åīįåı°":5055,"ä¸»é¡µ":5056,"ĠTh":5057,"çĽ¸å¯¹":5058,"Ġton":5059,"èī²æĥħ":5060,"è®¤åı¯":5061,"æĮĩæķ°":5062,"è§Ħæł¼":5063,"ä¸¤ç§į":5064,"åŃĹç¬¦":5065,"å¾®æ³¢":5066,"çīĪæľ¬ä¿¡æģ¯":5067,"å©Ĩ":5068,"çĤ¹åĩ»è¿ĻéĩĮ":5069,"é£ŀè¡Į":5070,"æ°¸ä¹ħ":5071,"å®ĩå®Ļ":5072,"å¸ĥæĭīæł¼":5073,"ĠAirport":5074,"30319":5075,"63":5076,"Book":5077,"Col":5078,"Man":5079,"xx":5080,"çļĦè¯ķ":5081,"æľīçĿĢ":5082,"äºĨä»ĸ":5083,"èĢĢ":5084,"çĽĲ":5085,"ä½łåľ¨":5086,"åİ¿":5087,"åĩºç§Ł":5088,"æľ¬èº«":5089,"åģ·":5090,"åĲĪéĢĤ":5091,"çĤ¸":5092,"åĪ¶åº¦":5093,"æĻ¨":5094,"å®ŀçĶ¨":5095,"éĩįå¤į":5096,"æłĩé¢ĺ":5097,"æīĭåĨĮ":5098,"æ¯ıä¸ªäºº":5099,"é©¬æĭī":5100,"ç»´å°Ķ":5101,"å·´å£«":5102,"Ġher":5103,"åħįè´¹çļĦ":5104,"2005":5105,"ages":5106,"çıį":5107,"çĥŃéĹ¨":5108,"æĵİ":5109,"åĮ»éĻ¢":5110,"ä¾Ŀæį®":5111,"ontent":5112,"é¢ĨåŁŁçļĦ":5113,"images":5114,"å®Įæķ´çļĦ":5115,"æ¡Ĩæŀ¶":5116,"æĸ°è¥¿åħ°":5117,"Berry":5118,"Ham":5119,"ect":5120,"oint":5121,"çļĦæĥħåĨµ":5122,"çļĦæĸ¹æ³ķ":5123,"åľ¨éĤ£éĩĮ":5124,"æĺ¯ä¸įæĺ¯":5125,"ä¸Ńåįİ":5126,"ä½łè¯´":5127,"å¤§åį«":5128,"æĪĸä»»ä½ķ":5129,"è¾ĸ":5130,"ĠAm":5131,"ä¸Ģä¸ªäºº":5132,"ĠSc":5133,"è®¾ç«ĭ":5134,"å¥¹ä»¬":5135,"Ġ)Â·":5136,"çļĦçŁ¥":5137,"è°±":5138,"ç¾İæ´²":5139,"çĪµ":5140,"åħ·å¤ĩ":5141,"æ¯Ķä¾ĭ":5142,"æĿ¡çĽ®":5143,"ä¼łéĢģ":5144,"ç®¡çĲĨåĳĺ":5145,"ĠWeb":5146,"è§ģè¯ģ":5147,"æķ´ä½ĵ":5148,"è¯ĦåĪĨ":5149,"2004":5150,"2006":5151,"å¼ºåº¦":5152,"éĩĩè´Ń":5153,"Ġace":5154,"å¢ŀå¼º":5155,"çĻ¾ä¸ĩ":5156,"Ġund":5157,"æ¸¯åı£":5158,"èĴ¸":5159,"ç±»åŀĭçļĦ":5160,"éĺ³åħī":5161,"åĨ²çªģ":5162,"çł´åĿı":5163,"æĴĴåĨ·":5164,"ç¾İä¸½çļĦ":5165,"ISO":5166,"æľīçº¿çĶµè§Ĩ":5167,"æĬ«éľ²":5168,"åµĮ":5169,"%ãĢĤ":5170,"64":5171,"ak":5172,"pr":5173,"qu":5174,"æ§":5175,"Ġ?":5176,"ãĢĲ":5177,"Ġij":5178,"ä¸ĢæĹ¦":5179,"Ġect":5180,"å¥ĭ":5181,"åľ°æĿ¿":5182,"æĪĸæľįåĬ¡":5183,"å¹´åº¦":5184,"åĩºçĶŁ":5185,"ĠAV":5186,"æģĭ":5187,"åıĬæĹ¶":5188,"éģ¥":5189,"Ġron":5190,"éĽķ":5191,"ä¹Łæ²¡æľī":5192,"Ġ(@":5193,"Ġenc":5194,"æ°´æĹı":5195,"åħĭåħ°":5196,"èĥģ":5197,"åĲĦä¸ª":5198,"æ°ĳæĹı":5199,"èĭ±å¯¸":5200,"å¨ĺ":5201,"ĠUN":5202,"æĬ¥éģĵ":5203,"è¯Ħä»·":5204,"Ġous":5205,"èĢ¶è·¯":5206,"åłĨ":5207,"çİ¯ä¿Ŀ":5208,"åĭĩ":5209,"éĻĦè¿ĳçļĦ":5210,"æĬķèµĦèĢħ":5211,"æ¡£æ¡Ī":5212,"éĿĴå¹´":5213,"å·¦åı³":5214,"éĴ»çŁ³":5215,"ä¸¢å¤±":5216,"Steam":5217,"Jav":5218,"RM":5219,"io":5220,"çļĦä¸ľè¥¿":5221,"æĪĴ":5222,"æĸ¼":5223,"Ġiam":5224,"æľīæĹ¶":5225,"ä¸įéĶĻ":5226,"æĥ§":5227,"å±¥":5228,"ä¸İåħ¶ä»ĸ":5229,"çĶµæ°Ķ":5230,"çĶµéĤ®":5231,"ĠCar":5232,"ä»İäºĭ":5233,"è°ĵ":5234,"æİ¥çĿĢ":5235,"Ġert":5236,"éĶ»":5237,"ĠDes":5238,"Ġarl":5239,"æķĻæİĪ":5240,"ç½ĳç«Ļä¸Ĭ":5241,"æĦŁåħ´è¶£":5242,"åĨ³çŃĸ":5243,"çľŁæĺ¯":5244,"isor":5245,"çļĦä¸Ģéĥ¨åĪĨ":5246,"å¼ķæĵİ":5247,"ä»·æł¼ä»İ":5248,"çĵ·":5249,"å¼łè´´":5250,"ç»Īäºİ":5251,"å¨ģèĥģ":5252,"æĻºæħ§":5253,"çº¢èī²":5254,"Ġook":5255,"æĽ¾ç»ı":5256,"æĪĲåĬŁçļĦ":5257,"èĳĹåĲįçļĦ":5258,"ä¿ĿéĻ©ç®±":5259,"é¼ł":5260,"æ¡ĮéĿ¢":5261,"ç¬Ķè®°":5262,"åĿĲèĲ½åľ¨":5263,"å¤ªéĺ³èĥ½":5264,"æĹĭè½¬":5265,"ĠServer":5266,"Advisor":5267,"èĢ¶è·¯æĴĴåĨ·":5268,"az":5269,"çļĦä¸»":5270,"ãĢĳ":5271,"ä»Ĩ":5272,"ä¸Ģç³»åĪĹ":5273,"åį¸":5274,"æīĩ":5275,"äººåľ¨":5276,"æĮº":5277,"åīĬ":5278,"çĶµåİĭ":5279,"Ġ...":5280,"åı¯ä»¥éĢļè¿ĩ":5281,"Ġram":5282,"å®ŀåľ¨":5283,"éĩıçļĦ":5284,"èĬ¯":5285,"èº«è¾¹":5286,"ĠFS":5287,"åĽŀå¤į":5288,"åĪĽæĦı":5289,"æ¸ħæ´Ĺ":5290,"åıįæĺł":5291,"è½»è½»":5292,"åĲ«æľī":5293,"æħĪ":5294,"è·Łè¸ª":5295,"æ£®æŀĹ":5296,"æµªæ¼«":5297,"æı´åĬ©":5298,"åıĮäººéĹ´":5299,"æĹłçº¿ç½ĳç»ľè¿ŀæİ¥":5300,"åİĺç±³":5301,"åĩ½æķ°":5302,"å·´å¡ŀç½ĹéĤ£":5303,"85":5304,"Facebook":5305,"å¤º":5306,"Ġaj":5307,"æľīäºĨ":5308,"ä¼į":5309,"æĭĵ":5310,"æĪĸåħ¶":5311,"éħĴåºĹè·Ŀç¦»":5312,"çĶµåĻ¨":5313,"å¹¶éĿŀ":5314,"éĿ¢æĿ¿":5315,"Ġino":5316,"åĽ¾æłĩ":5317,"å½ĵä¸Ń":5318,"arch":5319,"Ġ100":5320,"Ġbur":5321,"åĶĩ":5322,"è®¾å¤ĩçļĦ":5323,"æ®ĸ":5324,"çıĬ":5325,"ç²¾ç¡®":5326,"æ»¡æĦı":5327,"ower":5328,"æłĩåĩĨçļĦ":5329,"çĽĳç®¡":5330,"Ġull":5331,"éĩĬæĶ¾":5332,"äº§çĶŁçļĦ":5333,"ign":5334,"æ½ľåľ¨":5335,"ä¾µçĬ¯":5336,"BlackBerry":5337,"ivers":5338,"TripAdvisor":5339,"120":5340,"727":5341,"eet":5342,"td":5343,"çļĦé¡µéĿ¢":5344,"ä¸Ģæµģ":5345,"æľīä»»ä½ķ":5346,"æľīè¾ħå¯¼":5347,"Ġev":5348,"å¼¯":5349,"è´ŀ":5350,"ä¸Ĭä¸Ģ":5351,"æĹ¶çļĦ":5352,"æĹ¶æľŁ":5353,"åİ¦":5354,"çİī":5355,"Ġuan":5356,"è¾©":5357,"å¯¹åħ¶":5358,"æ¸łéģĵ":5359,"æĪĲå°±":5360,"ç¨į":5361,"çĶµæ¢¯":5362,"åıĬåħ¶ä»ĸ":5363,"èģĺ":5364,"éĥ¨çļĦ":5365,"æİ¥è¿ĳ":5366,"æŃ¤å¤Ħ":5367,"å§¿":5368,"åĮºçļĦ":5369,"any":5370,"ç»Łä¸Ģ":5371,"åŀĤ":5372,"Ġ15":5373,"æŃ£æĺ¯":5374,"Ġmer":5375,"ç»ĵå©ļ":5376,"ç»´äºļ":5377,"çľŁçĲĨ":5378,"æĮĩç¤º":5379,"æĶ¹éĿ©":5380,"è½¬ç§»":5381,"æ¨¡æĿ¿":5382,"ä¸ĸçķĮçļĦ":5383,"Ġway":5384,"Ġout":5385,"è¶³çĲĥ":5386,"åĲ¬è¯¾":5387,"èıĮ":5388,"å¡ŀå°Ķ":5389,"ä¾ĿçĦ¶":5390,"åĲ¸çĥŁ":5391,"å±ħä½ı":5392,"é¸½":5393,"ç¡¬çĽĺ":5394,"çİ°ä»£åĮĸ":5395,"åħĪè¿ĽçļĦ":5396,"èĢģå¸ĪçļĦè¯ķ":5397,"é¼ĵåĬ±":5398,"å©´åĦ¿":5399,"æľīè¾ħå¯¼èĢģå¸ĪçļĦè¯ķ":5400,"æľīè¾ħå¯¼èĢģå¸ĪçļĦè¯ķåĲ¬è¯¾":5401,"):":5402,"--":5403,"EM":5404,"for":5405,"éī":5406,"ĠæĽ´å¤ļ":5407,"ä¸²":5408,"ä¸Ī":5409,"ä»ģ":5410,"åħĳ":5411,"æľīæľº":5412,"æī°":5413,"å·¾":5414,"ä¸įéľĢè¦ģ":5415,"å¥ı":5416,"åı¯æıĲä¾Ľ":5417,"å¤§éģĵ":5418,"æĹ¶åĪ»":5419,"âĢº":5420,"çľł":5421,"åĪĨç¦»":5422,"ç»ıåħ¸":5423,"æĸĩåŃĹ":5424,"å¥½å¤Ħ":5425,"äºĭä¸ļ":5426,"ore":5427,"çĽ¸äºĴ":5428,"Ġtr":5429,"èºº":5430,"Ġbl":5431,"ĠGu":5432,"ass":5433,"ç¡®å®ŀ":5434,"é©¬æĿ¥":5435,"åĪ«äºº":5436,"Ġna":5437,"åıĺæĪĲ":5438,"æĬĢæľ¯çļĦ":5439,"æīĵéĢł":5440,"é¡¹çĽ®çļĦ":5441,"æ·±åħ¥":5442,"åıĮæĸ¹":5443,"æ±½è½¦ç§Łèµģ":5444,"Ġable":5445,"è§Ĵèī²":5446,"onth":5447,"æĽ¼è°·":5448,"èĦ¸ä¸Ĭ":5449,"éĢıè¿ĩ":5450,"éĢıæĺİ":5451,"æĻºèĥ½æīĭæľº":5452,"å®¾é¦Ĩ":5453,"åı¯çĶ¨æĢ§":5454,"å¹¸ç¦ı":5455,"é½Ĳåħ¨çļĦ":5456,"éĤĢè¯·":5457,"%,":5458,"800":5459,"ain":5460,"fo":5461,"Ġä¸º":5462,"Ġæ¸¡è½®":5463,"åľ¨æĪĳä»¬":5464,"Ġek":5465,"ä¿¯":5466,"æıŃ":5467,"çĶŁæĢģ":5468,"å¦Ĥä¸ĭ":5469,"ä¸İæĤ¨":5470,"çĶµç¼Ĩ":5471,"æĢ§è´¨":5472,"æĢ§åĪ«":5473,"æĸ¯é¡¿":5474,"å®¢è¿Ĳ":5475,"éĥ½èĥ½":5476,"å°Ķæľ¬":5477,"ĠPre":5478,"é©»":5479,"ĠBar":5480,"Ġpe":5481,"çĥ¦":5482,"è§Ĩä¸º":5483,"æĤ¨çļĦä¸ªäººä¿¡æģ¯":5484,"åŀĭåı·":5485,"Ġbe":5486,"ä¼łæĴŃ":5487,"çĸ«":5488,"Ġisc":5489,"50727":5490,"åį³æĹ¶":5491,"é¦ĸæ¬¡":5492,"åĬŀäºĭ":5493,"åĳ¨æľŁ":5494,"Ġley":5495,"æİĴæĶ¾":5496,"Ġign":5497,"çĮ«":5498,"ä¼Ĭæĸ¯":5499,"åľŁåľ°":5500,"å±ħæ°ĳ":5501,"é£ŀæľº":5502,"å¸Ĳåı·":5503,"èĵĿèī²":5504,"å¿ĺè®°":5505,"èĽĭçĻ½":5506,"æ±¡æŁĵ":5507,"åħĦå¼Ł":5508,"éľ²èĲ¥åľ°":5509,"æ¼Ĥäº®":5510,"Booking":5511,"600":5512,"Qu":5513,"¹æŀľ":5514,"ä»²":5515,"çĶľ":5516,"åľ¨ä»ĸçļĦ":5517,"æīŃ":5518,"çĽĴ":5519,"æĭĨ":5520,"ä¾¯":5521,"æ³Ħ":5522,"å¯¹æŃ¤":5523,"çĶŁçļĦ":5524,"è¿ĩäºĨ":5525,"éĩĮäºļ":5526,"æĪĲæŀľ":5527,"ĠSP":5528,"æ³ķçļĦ":5529,"åı¯ä»¥ä½¿çĶ¨":5530,"åĬłå¯Ĩ":5531,"çī¹å¾ģ":5532,"ĠInternational":5533,"ä»»æĦı":5534,"ä¸»çļĦ":5535,"ä¸»ç®¡":5536,"æİ¥å¾ħ":5537,"ç§įç±»":5538,"ç¡ħ":5539,"ĠMA":5540,"âĢĿ,":5541,"è¿ĺæ²¡æľī":5542,"èĭ¹æŀľ":5543,"ard":5544,"çŃīå¾ħ":5545,"æµ·å¤ĸ":5546,"åŀĭçļĦ":5547,"éªĹ":5548,"æ¯ĶåĪ©":5549,"Ġma":5550,"Ġman":5551,"åıĺæĽ´":5552,"çłģå¤´":5553,"éĶĢåķĨ":5554,"çķĻä¸ĭ":5555,"äºĨä¸Ģä¸ĭ":5556,"ĠéħĴåºĹä½įäºİ":5557,"å±Ģéĥ¨":5558,"ä¾Ŀèµĸ":5559,"USB":5560,"æĦ¿æľĽ":5561,"è´¢æĶ¿":5562,"éĽ¶ä»¶":5563,"Admin":5564,"ä¼łç»ŁçļĦ":5565,"æĳĦå½±":5566,"Reg":5567,"NETçīĪæľ¬":5568,"æķıæĦŁ":5569,"å°¤åħ¶æĺ¯":5570,"sitein":5571,"iscamp":5572,"éī´":5573,"onthiscamp":5574,"onthiscampsitein":5575,"Con":5576,"My":5577,"png":5578,"çļĦéľĢæ±Ĥ":5579,"åĩĳ":5580,"å¿ł":5581,"æĤ¨éľĢè¦ģ":5582,"ä¼ļåľ¨":5583,"æĪĸåľ¨":5584,"åĩºç§Łè½¦":5585,"ĠSC":5586,"ç³ķ":5587,"åĿİ":5588,"éĢļçĶ¨":5589,"åĪ¶åĵģ":5590,"åĻ¨åĴĮ":5591,"è¡¨æł¼":5592,"å°Ķé¡¿":5593,"orn":5594,"å§ĳ":5595,"ç¥ĸ":5596,"è¿ĺè¦ģ":5597,"å¹³è¡¡":5598,"èİİ":5599,"Ġons":5600,"ä¸ĵçĶ¨":5601,"ç»ĻæĪĳä»¬":5602,"é¢Ħè®¡":5603,"çĸ¼":5604,"çĭĹ":5605,"ĠWest":5606,"Ġase":5607,"è®¢è´Ń":5608,"å½¢çĬ¶":5609,"out":5610,"è´§çī©":5611,"ä¸Ĭå¸ĿçļĦ":5612,"ĠQu":5613,"é¡¾éĹ®":5614,"è½¬æį¢åĻ¨":5615,"çļĩå®¶":5616,"å¾®æ³¢çĤī":5617,"79":5618,"ĠæŁ¥çľĭ":5619,"ĸåŃĲ":5620,"è¿ģ":5621,"åĪĺ":5622,"åĲĵ":5623,"ç»ª":5624,"æĺ¯æĪĳ":5625,"æĿī":5626,"ä¸įèµ·":5627,"çĽĪ":5628,"å¿§":5629,"èµİ":5630,"åħ¬çº¦":5631,"æĪĸä»¥":5632,"ĠSemiconductor":5633,"éĿ¢åĮħ":5634,"éĿ¢åĲĳ":5635,"åĪ©çİĩ":5636,"Ġres":5637,"èĢħåĴĮ":5638,"Ġcon":5639,"æł·åĵģ":5640,"æĺ¾èĳĹ":5641,"äº§åĵģåĲįç§°":5642,"æŃ£å¦Ĥ":5643,"ç»ĻäºĨ":5644,"ç»ĻäºĪ":5645,"è®©å¥¹":5646,"åĽŀåºĶ":5647,"åĳĬçŁ¥":5648,"æ¨ª":5649,"åĶĲ":5650,"çĭł":5651,"äº«çĶ¨":5652,"æĲ¬":5653,"çıº":5654,"ount":5655,"Ġold":5656,"æ³¢åħ°":5657,"ä»Ĭå¹´":5658,"åıĭå¥½":5659,"ç¢°":5660,"Ġome":5661,"æĹłè®ºæĺ¯":5662,"ä¼¤å®³":5663,"éĿ©åĳ½":5664,"istr":5665,"å¢¨å°Ķæľ¬":5666,"illa":5667,"ç«ŁçĦ¶":5668,"å¹¿æ³ĽçļĦ":5669,"çļĦçĥŃéĹ¨":5670,"åŁºéĩĳä¼ļ":5671,"NETFrameworkçīĪæľ¬":5672,"çļĦçŁ¥è¯Ĩ":5673,"52":5674,"56":5675,"72":5676,"Car":5677,"ff":5678,"sl":5679,"ĠæľįåĬ¡":5680,"çļĦåĽ½å®¶":5681,"åľ¨äºİ":5682,"å°¿":5683,"ä¸Ģåı°":5684,"ä¼Ĳ":5685,"åľ°æłĩ":5686,"åħ¬å¸ĥ":5687,"åħ¬ä¼Ĺ":5688,"ä¸ļä½Ļ":5689,"åĪ©æ¶¦":5690,"äºĭé¡¹":5691,"å½ĵä½ł":5692,"ĠTO":5693,"èĤ©":5694,"Ġcl":5695,"èģĶç»ľ":5696,"å»ºéĢł":5697,"èĥĨ":5698,"æ¯ıéĹ´":5699,"Ġner":5700,"Ġith":5701,"çľŁç©º":5702,"æ¨¡åħ·":5703,"èĻ«":5704,"èĻİ":5705,"çħ§æĺİ":5706,"åıįé¦Ī":5707,"åħĥä»¶":5708,"ĠStud":5709,"éº½":5710,"çĳŀåħ¸":5711,"æ±ĩçİĩ":5712,"å®ŀéĻħä¸Ĭ":5713,"åı¯éĿłæĢ§":5714,"ĠDev":5715,"åģ¥èº«ä¸Ńå¿ĥ":5716,"çıºæ¢ħ":5717,"61":5718,"Gl":5719,"cn":5720,"lic":5721,"çļĦå¤ļ":5722,"çļĦè¦ģæ±Ĥ":5723,"åĪĬ":5724,"å°ĺ":5725,"ä¸ĢåĲį":5726,"åĴĮä»ĸ":5727,"åĴĮä½ł":5728,"åĴĮä½¿çĶ¨":5729,"ä¸ŃæīĢ":5730,"è¿Ļå®¶éħĴåºĹ":5731,"æĤ²":5732,"å¤§éħĴåºĹ":5733,"å¤§éĻĨ":5734,"å¦Ĩ":5735,"æĥĳ":5736,"ä¸ĭéĻį":5737,"ä¸ĭåįĪ":5738,"èĩªèº«":5739,"åĩºçİ°åľ¨":5740,"çĶµè·¯":5741,"æķ°åŃ¦":5742,"å¹¶ä¸įæĺ¯":5743,"è¯´çĿĢ":5744,"çľĭæĿ¥":5745,"åĻª":5746,"Ġance":5747,"çļĦçĸ":5748,"ä¸»æľº":5749,"åľºåĲĪ":5750,"å°Ķå¾·":5751,"ĠPar":5752,"Ġari":5753,"æł·åŃĲ":5754,"ç´«":5755,"Ġys":5756,"æ¶µ":5757,"Ġena":5758,"ĠGr":5759,"è·¯å¾Ħ":5760,"å²©":5761,"Ġda":5762,"ä¼ĺèī¯":5763,"æīĵç®Ĺ":5764,"å¯Ĩå°ģ":5765,"èĬ±åºĹ":5766,"å®¢æĪ·æľįåĬ¡":5767,"éĻĦä»¶":5768,"åĭĥ":5769,"è¶ĬåįĹ":5770,"Ġott":5771,"Ġrop":5772,"æĿ¡æ¬¾åĴĮ":5773,"æĿĤå¿Ĺ":5774,"åĪļæīį":5775,"åĢŁåĬ©":5776,"è°·æŃĮ":5777,"å¿ħè¦ģçļĦ":5778,"çĽ¸åĲĮçļĦ":5779,"åĩŃåĢŁ":5780,"æĤīå°¼":5781,"çĦĬæİ¥":5782,"çļĦçĬ¶":5783,"è´·æ¬¾":5784,"åĽ¾ä¹¦é¦Ĩ":5785,"ä¸Īå¤«":5786,"62":5787,"OS":5788,"SQL":5789,"ix":5790,"è²":5791,"çļĦåİĨåı²":5792,"Ġact":5793,"åľ¨æĤ¨çļĦ":5794,"ä¹Ķ":5795,"çºº":5796,"æĬ¬":5797,"åĽ½çİĭ":5798,"è¿ĩçļĦ":5799,"æĸ¯å¡Ķ":5800,"Ġ.,":5801,"çİ°è±¡":5802,"çī¹æĭī":5803,"æĻ°":5804,"æĻĵ":5805,"ç¬¬åįģ":5806,"éĥ½åı¯ä»¥":5807,"å°Ķæĸ¯":5808,"æĹ¥åĨħ":5809,"çĽ¸åıį":5810,"Ġthe":5811,"Ġme":5812,"Ġmin":5813,"è¯ģåĪ¸":5814,"çº¦æĿŁ":5815,"ĠNew":5816,"ä¼ĺåħĪ":5817,"åŁİåł¡":5818,"è°ĥèĬĤ":5819,"ä»ħä»ħ":5820,"è¶ħçº§":5821,"éĤ®ç®±":5822,"çĮĽ":5823,"é¸Ł":5824,"Ġown":5825,"å·®å¼Ĥ":5826,"çĩ¥":5827,"ailable":5828,"æ©¡":5829,"æīĢéľĢçļĦ":5830,"æĹģè¾¹":5831,"åľ°éĵģç«Ļ":5832,"å®łçī©":5833,"âĪ¶":5834,"é©¬æĿ¥è¥¿äºļ":5835,"ä»²è£ģ":5836,"!ãĢį":5837,"51":5838,"Int":5839,"VM":5840,"ey":5841,"lin":5842,"çļĦåıĳå±ķ":5843,"åĲĽ":5844,"åľ¨è¯¥":5845,"æľīæīĢ":5846,"æľīåı¯èĥ½":5847,"ä¸įçĶ¨":5848,"ä¸ºä½ł":5849,"ä¸ºæŃ¤":5850,"æĤł":5851,"èµł":5852,"éħ·":5853,"åĵŃ":5854,"èĩªå®ļä¹ī":5855,"ä½¿åħ¶":5856,"å°±è¦ģ":5857,"å°±èĥ½":5858,"å°ĨæĿ¥":5859,"åĪ©çļĦ":5860,"ä¿Ŀå¯Ĩ":5861,"åº¦åĴĮ":5862,"å¤©left":5863,"Ġerv":5864,"éĶ¡":5865,"è¢Ń":5866,"ä¿¡æģ¯çļĦ":5867,"çº¿è·¯":5868,"è§Ĩè§ī":5869,"ĠFor":5870,"å¯¼èĪª":5871,"åİŁæĿ¥":5872,"äºĮåįģ":5873,"éĹ®é¢ĺçļĦ":5874,"é¥¼":5875,"æĬķåħ¥":5876,"ç¼ĸçłģ":5877,"å¼ķå¯¼":5878,"çŁ©":5879,"çŁ¶":5880,"ĠÃ¼":5881,"ç»Īç«¯":5882,"æĢģåº¦":5883,"å¹²åĩĢ":5884,"ç¢Ĺ":5885,"æĻ®éģį":5886,"çĽĳçĿ£":5887,"ä¼Ĺäºº":5888,"ä¹łæĥ¯":5889,"åĺĽ":5890,"ith":5891,"å¥ĸåĬ±":5892,"èģĮä½į":5893,"èī¯å¥½":5894,"irl":5895,"èĳĹåĲį":5896,"Microe":5897,"ĠApp":5898,"STMicroe":5899,"ä½©æĸ¯":5900,"éĺ»æŃ¢":5901,"é¸¡å·´":5902,"æ¼ıæ´ŀ":5903,"è¯ĬæĸŃ":5904,"ĠSuites":5905,"Ġburg":5906,").":5907,"76":5908,"Vis":5909,"bl":5910,"ç°":5911,"ĠâĢĶ":5912,"åıł":5913,"æľīå¾Īå¤ļ":5914,"äººæīį":5915,"ä¸įæĥ³":5916,"æ°ı":5917,"æĮª":5918,"æ´¥":5919,"ç®Ń":5920,"å®¶æĹı":5921,"æĪĲäºº":5922,"åīĳ":5923,"æľĢå°ı":5924,"æ³ķåħ°":5925,"å¼ĢäºĨ":5926,"é«ĺæĢ§èĥ½":5927,"åĲĮæŃ¥":5928,"å¿ĥèĦı":5929,"éĥ½è¦ģ":5930,"ĠEn":5931,"æĥħå½¢":5932,"å¤©çļĦ":5933,"ä»ĸä»¬åľ¨":5934,"ĠBr":5935,"æīĭåĬ¨":5936,"çĪ¬":5937,"å¸ĥå°Ķ":5938,"è¿ĲçĶ¨":5939,"å¤ĦçļĦ":5940,"Ġise":5941,"æĢ»éĥ¨":5942,"2003":5943,"å®īåħ¨çļĦ":5944,"è¾¹ç¼ĺ":5945,"èµ°åĪ°":5946,"åıĳå±ķçļĦ":5947,"æİ¨åĩº":5948,"å¹²çĩ¥":5949,"ç¢ĳ":5950,"æľīåħ³çļĦ":5951,"æ£ĢéªĮ":5952,"èĪªè¡Į":5953,"æ¼Ķç¤º":5954,"èĢ¶ç¨£åŁºçĿ£":5955,"åĸľæ¬¢çļĦ":5956,"uest":5957,"éŃħ":5958,"available":5959,"å·¨å¤§":5960,"å·¨å¤§çļĦ":5961,"å£ģçº¸":5962,"æĭįæĳĦ":5963,"çĽĽé¡¿":5964,"çļĦç©ºéĹ´":5965,"æĲºå¸¦":5966,"çº¤ç»´":5967,"åĳĪçİ°":5968,"ç¬Ķè®°æľ¬":5969,"CENTURY":5970,"SC":5971,"SD":5972,"hotel":5973,"åı¹":5974,"åľ¨æĪĳä»¬çļĦ":5975,"ä¸Ģä¼ļ":5976,"æĺ¯ä½ł":5977,"éĢĨ":5978,"åľ°äºļ":5979,"æĢľ":5980,"æĬĳ":5981,"ä¸Ĭä¸ĭ":5982,"ä¸ĭéĿ¢çļĦ":5983,"åĩºå¸Ń":5984,"æĪĲäºĨ":5985,"æģ°":5986,"è¿Ľç¨ĭ":5987,"ä»İæĿ¥":5988,"åĽ¾è¡¨":5989,"çī©ä¸ļ":5990,"å½ĵäºĭ":5991,"éĴ¨":5992,"å»·":5993,"ĠMon":5994,"ç©´":5995,"åŁºåľ°":5996,"ĠHO":5997,"Ġ14":5998,"å¾Īå¤§":5999,"åįķçĭ¬":6000,"å¸ĥè¾¾":6001,"ĠGard":6002,"Ġical":6003,"é¢Ħç®Ĺ":6004,"åĽŀæĶ¶":6005,"ä¹Ĳè¶£":6006,"ä¼ĺçĤ¹":6007,"å¿«æį·":6008,"é¤Ĳé¦Ĩ":6009,"çĭ±":6010,"æĬ¤çĲĨ":6011,"åįİçĽĽé¡¿":6012,"æĢ»è£ģ":6013,"è§ĤçĤ¹":6014,"åįıä½ľ":6015,"åįıè°ĥ":6016,"æĭħå¿ĥ":6017,"Ġake":6018,"æŁĲä¸ª":6019,"éĵģè·¯":6020,"æ´ĽæĿī":6021,"èĪĴæľį":6022,"éĺħè¯»åħ³äºİ":6023,"ä¸¹éº¦":6024,"ä¼Łå¤§çļĦ":6025,"å¤§éĩıçļĦ":6026,"åı¥è¯Ŀ":6027,"èµ¢å¾Ĺ":6028,"ĠAvenue":6029,"STMicroelectronics":6030,".,":6031,"89":6032,"Fran":6033,"GB":6034,"Op":6035,"Technology":6036,"iP":6037,"æĨ":6038,"ä»Ļ":6039,"æľµ":6040,"ä¸Ģä½ĵ":6041,"æĺ¯æĪĳä»¬":6042,"æĪĳåı¯ä»¥":6043,"äºĨä»ĸçļĦ":6044,"ä¸įåľ¨":6045,"æĤ¨æīĢ":6046,"åĵ²":6047,"æĪĳä»¬å¯¹":6048,"æıĲéĨĴ":6049,"ä¸ĭä¸Ģä¸ª":6050,"æĮ¤":6051,"èĩªä¸»":6052,"æģ¨":6053,"åĪĨè¾¨":6054,"å¹¶å°Ĩ":6055,"å¹¶åĲĮæĦı":6056,"æĽ´æį¢":6057,"åĬłéĢŁ":6058,"ĠIA":6059,"ä¿Ŀåģ¥":6060,"Ġink":6061,"Ġins":6062,"çļĦç´":6063,"Ġcom":6064,"Ġara":6065,"åĲįä¸º":6066,"å¢ĵ":6067,"æµ·æ´ĭ":6068,"æĿ¡çº¦":6069,"å¸ĥå±Ģ":6070,"è¿Ĳä½ľ":6071,"æ¯ıæ¬¡":6072,"Ġict":6073,"èįĴ":6074,"è½¬åıĺ":6075,"æŀĦå»º":6076,"Ġeth":6077,"çĪ±å°Ķ":6078,"å¼ºè°ĥ":6079,"ager":6080,"èĬĤçĽ®":6081,"æľªæĿ¥çļĦ":6082,"æ¸ħæĻ°":6083,"è¿Ļæł·åģļ":6084,"åĨħå®¹çļĦ":6085,"old":6086,"ĠÃ¡":6087,"æĹ©æľŁ":6088,"è¿ŀæİ¥åĪ°":6089,"è¿ŀæİ¥åĻ¨":6090,"å¾®è½¯":6091,"éļ¾ä»¥":6092,"è§Ĵåº¦":6093,"è¿ªæĭľ":6094,"è®¸åı¯è¯ģ":6095,"ä¿ĥéĶĢ":6096,"å¾ªçİ¯":6097,"INDO":6098,"åĮ¹éħį":6099,"Linux":6100,"ä¸ªæĢ§åĮĸ":6101,"æ´ĽæĿīçŁ¶":6102,"Cont":6103,"EC":6104,"PS":6105,"Tw":6106,"Tor":6107,"ge":6108,"Ġ00":6109,"çļĦåŁºç¡Ģ":6110,"åĲ¨":6111,"Ġao":6112,"åĬ²":6113,"åľ¨å¥¹":6114,"è®¼":6115,"åĴĮåħįè´¹":6116,"ä¹ı":6117,"æĺ¯æĮĩ":6118,"æĺ¯åĽłä¸º":6119,"ä¸įå¥½":6120,"å¯º":6121,"çºµ":6122,"çº·":6123,"ä½łçŁ¥éģĵ":6124,"èĩĤ":6125,"åİĮ":6126,"åĵ¦":6127,"æľºç¥¨":6128,"èĩªæĪĳ":6129,"erv":6130,"å¹¶ä»İ":6131,"ĠCH":6132,"ĠCas":6133,"åĪ©æĸ¯":6134,"é«ĺæ¸©":6135,"æıĲä¾Ľå¸¦":6136,"åĬłåĪ©":6137,"çľĭèµ·æĿ¥":6138,"Ġ)ãĢģ":6139,"éĤ£æĹ¶":6140,"ä¸»å¸Ń":6141,"èĪĮ":6142,"æĹłæķĪ":6143,"çĽ®çļĦæĺ¯":6144,"æ°´çĸĹ":6145,"éĹ¨å¾Ĵ":6146,"ä¸ĵæ³¨":6147,"ç»Ļä»ĸ":6148,"ç»´æĮģ":6149,"è½¬è®©":6150,"æĳĺ":6151,"å¹¿æĴŃ":6152,"Ġ30":6153,"æĲŀ":6154,"å¼ºçĥĪ":6155,"Ġount":6156,"é¦ĸéĢī":6157,"çĶŁäº§çº¿":6158,"outh":6159,"æ·±åº¦":6160,"å¤ĦçĲĨåĻ¨":6161,"æ±½è½¦æĹħé¦Ĩ":6162,"éģŃåıĹ":6163,"æ¯ķä¸ļ":6164,"åĲ¹é£İ":6165,"ĠDrive":6166,"èļĢ":6167,"!\"":6168,"HC":6169,"çļĦç»ĵæŀľ":6170,"çļĦè§Ħå®ļ":6171,"Ġih":6172,"æĪĳä¼ļ":6173,"è¡°":6174,"ä»¥ç¡®ä¿Ŀ":6175,"æĭ¨":6176,"ä¸ĬéĿ¢":6177,"æµĵ":6178,"ä¼ļçļĦ":6179,"éĹ´çļĦ":6180,"æľĢåĪĿ":6181,"çĶµæµģ":6182,"è¿ĽäºĨ":6183,"å¿ĥçĲĨ":6184,"Ġ).":6185,"çļĦç±":6186,"éĤ£ä¸Ģ":6187,"æĹ¥åŃĲ":6188,"äºĭåħĪ":6189,"çķħ":6190,"æĪ¿å±ĭ":6191,"æłĩè¯Ĩ":6192,"éĵ¸":6193,"æľŁéĻĲ":6194,"æľŁå¾ħ":6195,"æķĻåŃ¦":6196,"æ¬¡æķ°":6197,"Ġels":6198,"æĶ¶åıĸ":6199,"èĩ³äºİ":6200,"ç²Ĺ":6201,"åĨ³äºİ":6202,"rol":6203,"Ġesh":6204,"è®©äºº":6205,"è®©ä»ĸä»¬":6206,"ä¸Ńå¿ĥçļĦ":6207,"åıĸåĨ³äºİ":6208,"å¯¼åħ¥":6209,"çĸ¯":6210,"Ġham":6211,"å¥³å£«":6212,"ä½łçļĦåĸľçĪ±":6213,"åºĶçĶ¨äºİ":6214,"å¯Ĩåº¦":6215,"å¯ĨåĪĩ":6216,"Ġve":6217,"å°ĳå¹´":6218,"èĢģåħ¬":6219,"çĥŃæ°´":6220,"èħ¾":6221,"Ġoto":6222,"é¾Ļæ¶Ľ":6223,"Ġella":6224,"åĲ¯çĶ¨":6225,"æ¯Ľå·¾":6226,"æĢĢçĸĳ":6227,"ä¸Ģå®ļè¦ģ":6228,"Super":6229,"ĠCentre":6230,"æ¯«æĹł":6231,"å¤įæĿĤçļĦ":6232,"ç¥Ńåı¸":6233,"ĠResort":6234,"åĪºæ¿Ģ":6235,"ä½Ľç½Ĺä¼¦":6236,"æ°ĽåĽ´":6237,"iversity":6238,"åĪĨè¾¨çİĩ":6239,"Bro":6240,"HY":6241,"SE":6242,"SP":6243,"San":6244,"css":6245,"ĠåºĶçĶ¨ç¨ĭåºı":6246,"çļĦå®¢æĪ·":6247,"ä»ĩ":6248,"äºķ":6249,"å®´":6250,"è¯±":6251,"ä¸Ģé¡¹":6252,"æīĳ":6253,"ä¸įäºĨ":6254,"ä¸įåı¯èĥ½":6255,"åĩ¤":6256,"åı¯çĶ¨äºİ":6257,"éĹ¹":6258,"åľ°ä½į":6259,"ä½łå°Ĩ":6260,"ä½łæĥ³":6261,"æĬĽ":6262,"ä¸Ĭåİ»":6263,"èµ¤":6264,"èµĭ":6265,"åĳµ":6266,"éħĴåºĹé¢Ħè®¢":6267,"åĬ¨çĶ»":6268,"æĪĲéķ¿":6269,"æĪĲçĨŁ":6270,"æ¬º":6271,"éĺģ":6272,"åĪĨåŃĲ":6273,"çŃĴ":6274,"ĠCol":6275,"åħ¨ä¸ĸçķĮ":6276,"ç»ıéĶĢåķĨ":6277,"æıĲä¾ĽåķĨ":6278,"éĽ¾":6279,"ä¿Ŀç½Ĺ":6280,"å¥½å¥½":6281,"è¯·èģĶç³»":6282,"ç¾İå®¹":6283,"ĠPC":6284,"èĤ´":6285,"è£¸":6286,"ç®¡éģĵ":6287,"çłĸ":6288,"è¯¥åħ¬åı¸":6289,"æīĭæĮĩ":6290,"æĤ¨çļĦä¿¡æģ¯":6291,"éĩĳå±±":6292,"æĿ¡ä¾ĭ":6293,"é©¬å°Ķ":6294,"è¿ĳä¼¼":6295,"ä¼łéĢĴ":6296,"ä¸ŃåĽ½çļĦ":6297,"èį¡":6298,"ä¸¤äºº":6299,"èĭ±å°º":6300,"å¼ºå¤§":6301,"å¼ºåĪ¶":6302,"èĲ¥ä¸ļ":6303,"ç²¾åĵģ":6304,"èħķ":6305,"åĲ¬åĪ°":6306,"å¾Ģè¿Ķ":6307,"æ·±åĪ»":6308,"æ¬§åħĥ":6309,"åĮ»åŃ¦":6310,"è´Łè½½":6311,"è´Łæĭħ":6312,"ĠéħĴåºĹè·Ŀç¦»":6313,"Ġuss":6314,"åĨĽéĺŁ":6315,"ĠInc":6316,"ä¸´åºĬ":6317,"æ¶²æĻ¶":6318,"ĠChin":6319,"åŁ¹åħ»":6320,"æĹ§éĩĳå±±":6321,"ä¼°è®¡":6322,"ä¸Ģå®ļä¼ļ":6323,"ä»£çĲĨäºº":6324,"æľºåĻ¨äºº":6325,"ĠApartments":6326,"é¢Ŀå¤ĸçļĦ":6327,"èĪ¹ç¥¨ä»·æł¼":6328,"æĳĦåĥıå¤´":6329,"åħĳæį¢":6330,"ä¼Ĭæĸ¯åħ°":6331,"çĪ±å°Ķåħ°":6332,"ä½Ľç½Ĺä¼¦èĲ¨":6333,"71":6334,"AL":6335,"Cal":6336,"Gu":6337,"Par":6338,"sk":6339,"Ġ50":6340,"Ġå¹¿åĳĬ":6341,"ĠæľįåĬ¡åĻ¨":6342,"ĪçīĻ":6343,"çļĦåĽ½éĻħ":6344,"æĺĨ":6345,"åĴĮæĪĳ":6346,"æĪĳè¿ĺ":6347,"éĢ¼":6348,"äººæķ°":6349,"å¥´":6350,"åĮĪçīĻ":6351,"æĭ¼":6352,"æµ¸":6353,"åħ¬åĳĬ":6354,"èĥ½éĩı":6355,"æĪĳä»¬æľī":6356,"æĥľ":6357,"ĠSan":6358,"å¹¶æıĲä¾Ľ":6359,"å®ļä½į":6360,"ĠIV":6361,"å¤©ä½¿":6362,"å®īéĿĻ":6363,"ĠHostel":6364,"æ»ĭ":6365,"å·¥ä½ľçļĦ":6366,"æĬĢå·§":6367,"Ġmen":6368,"è£ħå¤ĩ":6369,"å¸¦æĿ¥çļĦ":6370,"èĥİ":6371,"æĦŁåıĹ":6372,"éĹ¨åı£":6373,"åĲĦèĩª":6374,"æĶ¾å¼ĥ":6375,"è®©ä»ĸ":6376,"é¢Ħéĺ²":6377,"æŁĦ":6378,"éĺ¿å§Ĩ":6379,"æĬĬå®ĥ":6380,"æĴŀ":6381,"è®¿å®¢":6382,"å¤±åİ»":6383,"å¥¥åľ°":6384,"éĻĦè¿ĳçļĦéħĴåºĹ":6385,"åĲ¦åĪĻ":6386,"æĢİä¹Īæł·":6387,"Ġaya":6388,"è¯īè®¼":6389,"é»ĳèī²":6390,"éļĲèĹı":6391,"Ġair":6392,"ç§¯åĪĨ":6393,"çĪ¶æ¯į":6394,"è¡¥åħħ":6395,"United":6396,"æī¿æĭħä»»ä½ķ":6397,"å½¼æŃ¤":6398,"ode":6399,"å°Ĭéĩį":6400,"ĠServ":6401,"äºĭå®ŀä¸Ĭ":6402,"ookies":6403,"æĴ¤éĶĢ":6404,"æ§½":6405,"å¸ĥè¾¾ä½©æĸ¯":6406,"INDOW":6407,"73":6408,"Dr":6409,"iPh":6410,"press":6411,"up":6412,"èķ":6413,"Ġä¸ŃçļĦ":6414,"çļĦC":6415,"å·¡":6416,"ä¸įå¯¹":6417,"åĨ»":6418,"æĤĶ":6419,"åĽ½å¤ĸ":6420,"å¿½":6421,"æŃ§":6422,"æŃī":6423,"æĪĳä»¬è¿ĺ":6424,"å¯¹æĪĳ":6425,"ä¸İæŃ¤":6426,"ĠSqu":6427,"è·ĥ":6428,"åĲĪæ³ķ":6429,"é«ĺæ½®":6430,"çİ°éĩĳ":6431,"åĬłæĸ¯":6432,"è¿ĽæĿ¥":6433,"ä¹Łå°±æĺ¯":6434,"Ġank":6435,"å®ŀä½ĵ":6436,"ç¾İæĻ¯":6437,"æĹ¥èµ·":6438,"èĤº":6439,"ç®¡è¾ĸ":6440,"è¢«ç§°ä¸º":6441,"èµĦæł¼":6442,"çłĤ":6443,"æĺİäº®":6444,"çĪ½":6445,"Ġbr":6446,"Ġbox":6447,"ĠOL":6448,"æ¯ıæĹ¥":6449,"ä¸ĵä¸º":6450,"Ġelle":6451,"Ġget":6452,"æµģåĬ¨":6453,"æ£ī":6454,"çĶ¨æĪ·çļĦ":6455,"Ġwe":6456,"Ġamb":6457,"ä¼ģä¸ļçļĦ":6458,"ĠState":6459,"å¦Ĥä½ķä½¿çĶ¨":6460,"Ġoll":6461,"èĢĥè¯ķ":6462,"éļ¾éģĵ":6463,"åºĵåŃĺ":6464,"Ġiang":6465,"çļ®èĤ¤":6466,"ç¤¼çī©":6467,"è¿½æ±Ĥ":6468,"èŃ¦åĳĬ":6469,"ĠENT":6470,"Ġney":6471,"éģĹäº§":6472,"ç§ĺå¯Ĩ":6473,"ç£ģçĽĺ":6474,"åĨłåĨĽ":6475,"å½»åºķ":6476,"ç¥·åĳĬ":6477,"åµĮåħ¥":6478,"Em":6479,"MC":6480,"Pre":6481,"RO":6482,"XHam":6483,"use":6484,"çļĦåħ¬å¯ĵ":6485,"çļĦå®¶åºŃ":6486,"å®ı":6487,"Ġien":6488,"æĺ¯æľī":6489,"Ġox":6490,"å¸½":6491,"ä¸įä½ı":6492,"è¿ĻæĹ¶":6493,"æµħ":6494,"æīĢè°ĵ":6495,"åĩºæĿ¥çļĦ":6496,"ĠAnt":6497,"éĤª":6498,"åĲĪå¹¶":6499,"åĲĪçī©":6500,"è¿Ľåİ»":6501,"ç¾İåĳ³":6502,"çķª":6503,"Ġerr":6504,"å¤ĸæ±ĩ":6505,"ĠTC":6506,"å°ıå¿ĥ":6507,"å§»":6508,"ĠMark":6509,"å£¶":6510,"èĬŃ":6511,"ĠHome":6512,"éĢīä¸¾":6513,"Ġ13":6514,"ç¦»åŃĲ":6515,"omb":6516,"å¾·è¯Ń":6517,"ash":6518,"Ġalk":6519,"å²Ń":6520,"Ġital":6521,"åģļä»Ģä¹Ī":6522,"é¤Ĳé¥®":6523,"çĪ±å¥½":6524,"è¯ķåĽ¾":6525,"æ¸ħéĻ¤":6526,"é¦ĸå¸Ń":6527,"å¤ªå¹³":6528,"çļĦä¸Ģç§į":6529,"åĲ¬è§ģ":6530,"ç¿¼":6531,"èģĶç³»æĸ¹å¼ı":6532,"ç»Ħç»ĩçļĦ":6533,"ç«¯åı£":6534,"Ġstr":6535,"Ġays":6536,"å®ĿçŁ³":6537,"ä¼ļè®®å®¤":6538,"æ¸©åº¦ä¼łæĦŁåĻ¨":6539,"éĶĻè¯¯çļĦ":6540,"æĽ²çº¿":6541,"æ½ľæ°´":6542,"çŀ°":6543,"åĩºåı£åķĨ":6544,"éħįå¤ĩäºĨ":6545,"ĠManager":6546,"ä¿¯çŀ°":6547,"XHamst":6548,"DVD":6549,"EUR":6550,"For":6551,"HD":6552,"Home":6553,"Press":6554,"Red":6555,"ax":6556,"br":6557,"oad":6558,"ww":6559,"Ġ*":6560,"Ġä¼ļ":6561,"Ġä½¿çĶ¨":6562,"çļĦä¸į":6563,"ä¸Ģå¹´":6564,"ä¸Ģä»½":6565,"æľīå¤ļ":6566,"æĺ¯çļĦ":6567,"éĢ»":6568,"çī²":6569,"ä»¥ä»»ä½ķ":6570,"ä¸ŃæĸŃ":6571,"è¿Ļé¡¹":6572,"è¿ĻæĦıåĳ³çĿĢ":6573,"åĮĻ":6574,"æĪĸä½¿çĶ¨":6575,"æĪĸè®¸":6576,"æĪĳä»¬ä¹Ł":6577,"æľĢä¾¿å®ľçļĦ":6578,"ä¹ĭå¤Ħ":6579,"å¿ĥä¸Ń":6580,"one":6581,"å®ŀä¾ĭ":6582,"åľºæĻ¯":6583,"èĬĿ":6584,"Ġarr":6585,"ç»Łæ²»":6586,"çĶ±æŃ¤":6587,"æĥ³è±¡":6588,"ĠLin":6589,"åıĹçĽĬ":6590,"æ²¡æľīä»»ä½ķ":6591,"æķĻå¸Ī":6592,"åĲĦåĽ½":6593,"æĶ¶çĽĬ":6594,"Ġdu":6595,"åıĸä»£":6596,"Ġht":6597,"èĭ±éĩĮ":6598,"èĭ±çī¹å°Ķ":6599,"è°ĥçĶ¨":6600,"é¢ĳçİĩ":6601,"æĸĩä»¶å¤¹":6602,"æĬķè¯ī":6603,"åĳ¨è¾¹":6604,"æİ¨è¿Ľ":6605,"èħº":6606,"çļĦåľ°çĲĨä½įç½®":6607,"åĵ¥ä¼¦":6608,"çīĪæľ¬çļĦ":6609,"å¨ģå°¼æĸ¯":6610,"Ġapp":6611,"ury":6612,"ural":6613,"å¸ĿåĽ½":6614,"æĤ¨åı¯ä»¥åľ¨":6615,"é»ĳæļĹ":6616,"orth":6617,"åľŁèĢ³":6618,"çĨĬ":6619,"æĳ©è¥¿":6620,"åº¦åģĩéħĴåºĹ":6621,"å®¡åĪ¤":6622,"ç¬¬äºĮä¸ª":6623,"èĳĹä½ľ":6624,"èİ«æĸ¯ç§ĳ":6625,"å»¶éķ¿":6626,"åı¯éĿłçļĦ":6627,"åĳ¼åĲ¸":6628,"éģµå¾ª":6629,"å¤ıåŃ£":6630,"ä¼ĳæģ¯åĮº":6631,"å®Įç¾İçļĦ":6632,"é¢ĨåħĪçļĦ":6633,"åıĳåĬ¨æľº":6634,"å±¥è¡Į":6635,"åĮĪçīĻåĪ©":6636,"åľŁèĢ³åħ¶":6637,"82":6638,"AV":6639,"Ed":6640,"En":6641,"Er":6642,"Gen":6643,"Jo":6644,"MP":6645,"Sw":6646,"cookies":6647,"ure":6648,"Â®":6649,"åħ½":6650,"ç»ĳ":6651,"ä¸ĢåĲĮ":6652,"ä»ĸå°±":6653,"è¿Ļå°Ĩ":6654,"ä¸ºæĤ¨çļĦ":6655,"åľ°å¸¦":6656,"æĢĸ":6657,"æĬ¹":6658,"å¤§åİ¦":6659,"æĤ¨ä½¿çĶ¨":6660,"è¡Įç¨ĭ":6661,"å¯¹æ¯Ķ":6662,"æįĲ":6663,"æ±ģ":6664,"ĠSk":6665,"æķ°çłģ":6666,"åķ¦":6667,"çī¹å®ļçļĦ":6668,"åĲİéĿ¢":6669,"è½¦ç«Ļ":6670,"Ġero":6671,"å¤ĸäº¤":6672,"ç©·":6673,"Ġye":6674,"è¯¥éħĴåºĹçļĦ":6675,"å¾Īå®¹æĺĵ":6676,"çĥ¯":6677,"æĿĥçļĦ":6678,"åħ¶ä»ĸäºº":6679,"éªļ":6680,"éĩĳé¢Ŀ":6681,"åħĭç½Ĺ":6682,"ĠGro":6683,"ç½ĳç«ĻæĪĸ":6684,"æ¯ıåĳ¨":6685,"åı£æ°Ķ":6686,"Ġits":6687,"åı¯èĥ½æĢ§":6688,"ä¼ĺè¶Ĭ":6689,"ich":6690,"ä¾¿æį·":6691,"ĠView":6692,"2001":6693,"åįļå½©":6694,"åĮĹéĥ¨":6695,"å¤±è´¥":6696,"å¾Ģå¾Ģ":6697,"æ´Ĺæµ´":6698,"æŃ»äºĨ":6699,"å±Ĥæ¬¡":6700,"çĮİ":6701,"çİ¯å¢ĥä¸Ń":6702,"çŃ¾ç½²":6703,"æ¿Ģæ´»":6704,"ä»ªåĻ¨":6705,"çİ©å®¶":6706,"æģ¶æĦı":6707,"è°ĪåĪ¤":6708,"ublic":6709,"è¥¿çıŃçīĻè¯Ń":6710,"çĬ¯ç½ª":6711,"éĺ¶çº§":6712,"æ¡ĳæĭ¿":6713,"çĩĥæĸĻ":6714,"SMAC":6715,"æģĲæĢĸ":6716,"çļĦç¡¬":6717,"æĮ¯åĬ¨":6718,"ä½ıå®¿åĬłæĹ©é¤ĲæĹħé¦Ĩ":6719,"éĶ»çĤ¼":6720,"åĬŀäºĭå¤Ħ":6721,"ä¾¯é¾Ļæ¶Ľ":6722,"æ¶µçĽĸ":6723,"çļĦç±»":6724,"INDOWSMAC":6725,"93":6726,"IB":6727,"TC":6728,"XX":6729,"map":6730,"Ġåı¯ä»¥":6731,"ĥåľ":6732,"çļĦä¸Ńå¿ĥ":6733,"çļĦç¬¬ä¸Ģ":6734,"åıī":6735,"åĲĬ":6736,"åľ¨åħ¶":6737,"åľ¨å¥¹çļĦ":6738,"æĹº":6739,"æĺ¯è¦ģ":6740,"æĺ¯éĿŀå¸¸":6741,"æĿŃ":6742,"ä¸įå°ĳ":6743,"åŃŁ":6744,"åı¯éĢļè¿ĩ":6745,"ä½łèĥ½":6746,"Ġua":6747,"è¾ī":6748,"åıĳè¡Į":6749,"çŃĽ":6750,"çĲĨäºĭ":6751,"å°Ĩè¢«":6752,"å°ĨæĤ¨çļĦ":6753,"åķ¤":6754,"æĽ´ä¸º":6755,"è¿ĽæŃ¥":6756,"éĥģ":6757,"çľĭåĪ°äºĨ":6758,"Ġane":6759,"åĻ¨ä»¶":6760,"ĠED":6761,"å£¤":6762,"ĠBay":6763,"ç¼´":6764,"æķ°æį®çļĦ":6765,"åŀĥåľ":6766,"æīĭç»Ń":6767,"å»ºäºİ":6768,"åħĭæĭī":6769,"è£ħä¿®":6770,"Ġfl":6771,"åĽŀæĿ¥":6772,"åĽŀæĬ¥":6773,"ä¼ĺéĽħ":6774,"éĺ¿å¯Ĩ":6775,"éĻ¤æŃ¤":6776,"å½¢è±¡":6777,"Ġview":6778,"Ġware":6779,"Ġwith":6780,"èĬĤçĤ¹":6781,"ä¿®è®¢":6782,"èĢģå©Ĩ":6783,"éĩĩéĽĨ":6784,"æ´»åĬ¨çļĦ":6785,"åıĮæīĭ":6786,"å¸ĤåľºçļĦ":6787,"åº§ä½į":6788,"æĢİä¹ĪåĬŀ":6789,"åħ´å¥ĭ":6790,"æ²Ļæ»©":6791,"aspxçīĪæľ¬ä¿¡æģ¯":6792,"Ġower":6793,"Ġove":6794,"èŀįåĲĪ":6795,"åĨ²åĩ»":6796,"æĹłçº¿ä¸Ĭç½ĳ":6797,"å©ļå§»":6798,"ä¹ĺåĿĲ":6799,"è´Ńçī©ä¸Ńå¿ĥ":6800,"èį£èĢĢ":6801,"çļĦçģ«":6802,"æħ¢æħ¢":6803,"éģĩåĪ°":6804,"è¿Īéĺ¿å¯Ĩ":6805,"æļĤåģľ":6806,"æİĮæı¡":6807,"çļĦç¡®":6808,"è¿·ä½łåĲ§":6809,"æľĢè¿ĳçļĦæľºåľº":6810,"éŃħåĬĽ":6811,"å¥¥åľ°åĪ©":6812,"å¤ªå¹³æ´ĭ":6813,"åŀĥåľ¾":6814,"Ge":6815,"JP":6816,"RF":6817,"¯æķĳ":6818,"çļĦåħ¬åı¸":6819,"çļĦå£°éŁ³":6820,"çĶĺ":6821,"ĠaK":6822,"äºĨåĩł":6823,"çĶ¨ä½ľ":6824,"è¡į":6825,"å¥¢":6826,"ä»¥æ»¡è¶³":6827,"è´«":6828,"ç§ĭ":6829,"æĭ¯æķĳ":6830,"åĽ½æ°ĳ":6831,"ä¸Ĭåįĩ":6832,"ä¼ļè®¡":6833,"ä¼ļè¢«":6834,"åĳĨ":6835,"çĲ³":6836,"å·¥äºº":6837,"ĠAc":6838,"æĸ°é²ľ":6839,"é«ĺåĵģè´¨":6840,"åĬłå¿«":6841,"åĬłå·ŀ":6842,"åĨħç½®":6843,"èī³":6844,"Ġani":6845,"éĩįè§Ĩ":6846,"æĹ¥å¿Ĺ":6847,"ç¡ķ":6848,"ç¥Ī":6849,"è¿ĺåľ¨":6850,"äºļåİĨ":6851,"åĲįåįķ":6852,"ĠBook":6853,"ĠHe":6854,"æľĪä»½":6855,"èİī":6856,"åįķä¸Ģ":6857,"Ġater":6858,"èº«åŃĲ":6859,"é©¬éĩĮ":6860,"ç»ĻæĤ¨":6861,"å¤´åıĳ":6862,"åħīåŃ¦":6863,"éĢłæĪĲçļĦ":6864,"åį¡æĭī":6865,"åĶ¤":6866,"ese":6867,"éĢīæĭ©çļĦ":6868,"å½±çīĩ":6869,"Ġ32":6870,"æ¢ģ":6871,"å®¢æĪ·ç«¯":6872,"åĽ½å®¶åħ¬åĽŃ":6873,"åłª":6874,"æİ§åĪ¶ç³»ç»Ł":6875,"çĽ¸åħ³ä¿¡æģ¯":6876,"æ¶ĪéĻ¤":6877,"æī¿åıĹ":6878,"åģĩæľŁ":6879,"èģĶç³»äºº":6880,"å¥¥æĸ¯":6881,"çĽĳè§Ĩ":6882,"ç´łè´ŀ":6883,"ãĢĭ(":6884,"æĭħä¿Ŀ":6885,"ç´§æĢ¥":6886,"Ġavig":6887,"æŁĲç§į":6888,"åĪĽå»ºä¸Ģä¸ª":6889,"çŃĶæ¡Ī":6890,"Chr":6891,"ä¹ħçļĦ":6892,"Ġations":6893,"æķ°åŃĹåĮĸ":6894,"ĠAND":6895,"è¸ı":6896,"æ¯«ç±³":6897,"çīĪæĿĥæīĢæľī":6898,"æļĤæĹ¶":6899,"æľīè¶£çļĦ":6900,"è¯·åıĤéĺħ":6901,"ountry":6902,"æĮªå¨ģ":6903,"æ´Ĺæµ´çĶ¨åĵģ":6904,"He":6905,"RE":6906,"Res":6907,"Sc":6908,"act":6909,"Â©":6910,"Ġ#":6911,"ä¸§":6912,"çļĦåħ¨":6913,"çļĦè®¾æĸ½":6914,"ä½£":6915,"çĶ¸":6916,"åľ¨L":6917,"åľ¨æľ¬":6918,"åĴĲ":6919,"åĴĮæĬĢæľ¯":6920,"æľīè®¸å¤ļ":6921,"æĪĳåĴĮ":6922,"äºĨèµ·æĿ¥":6923,"å¾¡":6924,"å¾½":6925,"ä¸Ńæľī":6926,"åı¯ä¾Ľ":6927,"ä¿©":6928,"çĽĨ":6929,"åľ°éĿ¢":6930,"çºł":6931,"ä¸Ĭä¼ł":6932,"é¢ģ":6933,"æľ¬ä¹¦":6934,"åĪĨåıĳ":6935,"ä¿¡ä»»":6936,"æľįè£ħ":6937,"åŃ¦æľ¯":6938,"åĪ¶çļĦ":6939,"ç¬¬ä¸ĥ":6940,"è°ĭ":6941,"ä¸»åĬ¨":6942,"ä¸»ä»»":6943,"æİ¥åħ¥":6944,"éĩįå¤§":6945,"å¤©åłĤ":6946,"éģĵå¾·":6947,"éĶ¦":6948,"åħ¥åı£":6949,"ĠBu":6950,"ĠHill":6951,"èµ·äºĨ":6952,"Ġona":6953,"åįķäºº":6954,"Ġmark":6955,"ĠOn":6956,"é©¬æĸ¯":6957,"ä¸īè§Ĵ":6958,"å®¹éĩı":6959,"æĶ¾å¤§":6960,"æĪĳä»¬çļĦæľįåĬ¡":6961,"é¢ĦæľŁ":6962,"åģļäºĨ":6963,"åħ±æľī":6964,"æĢ»ä½ĵ":6965,"è§Ĥèµı":6966,"çĥŃå¸¦":6967,"åįıå®ļ":6968,"ĠStr":6969,"åį°è±¡":6970,"äºĨä¸ĢäºĽ":6971,"æııè¿°è¿ĳä¼¼":6972,"åħ¶ä¸ŃåĮħæĭ¬":6973,"ä¸¥æł¼":6974,"éĨĩ":6975,"åĳĬè¯īä½ł":6976,"çĭ¬ç«ĭçļĦ":6977,"ä¹Įåħĭåħ°":6978,"åī¯æľ¬":6979,"èľľ":6980,"å¡«åĨĻ":6981,"æĦıè¯ĨåĪ°":6982,"çĶ¨é¤ĲåĮº":6983,"æ¯ıæĻļè¯¥éħĴåºĹçļĦ":6984,"çĽ¸åºĶçļĦ":6985,"stars":6986,"æĽ´å¥½åľ°":6987,"å±Ģéĥ¨æĢ§":6988,"çļĦçĬ¶æĢģ":6989,"è²Į":6990,"HYIP":6991,"éĺ¿å§Ĩæĸ¯çī¹":6992,"æııè¿°è¿ĳä¼¼ç¿»è¯ĳ":6993,"æ¯ıæĻļè¯¥éħĴåºĹçļĦæııè¿°è¿ĳä¼¼ç¿»è¯ĳ":6994,"67":6995,"Au":6996,"Il":6997,"SO":6998,"cel":6999,"por":7000,"ãĥ":7001,"ĠâĢĿ":7002,"Ġè®¤è¯ģ":7003,"çļĦéĤ£":7004,"åıĻ":7005,"åľ¨è¿ĩåİ»":7006,"åºŀ":7007,"ä¸Ģåıª":7008,"æľīçĶ¨çļĦ":7009,"æĪĳåıĪ":7010,"æī¶":7011,"å¸ĺ":7012,"ä¸įè¶³":7013,"å¥ĳ":7014,"åı¯çĶ¨çļĦ":7015,"ä¸ºå®¢æĪ·":7016,"åľ°è¯´":7017,"ä½łèĩªå·±çļĦ":7018,"ä½łå¿ħé¡»":7019,"å¤§å¤§":7020,"å¤§ä½¿":7021,"æĤ¨å¯¹":7022,"å¤ļå¹´":7023,"åıĳè¨Ģ":7024,"æ¯¯":7025,"ĠSE":7026,"ĠSI":7027,"é«ĺæ¸ħ":7028,"åĬłä¸Ĭ":7029,"åĲĮæł·çļĦ":7030,"ĠIG":7031,"ä»İæľª":7032,"ĠTP":7033,"Ġarm":7034,"ä½Ĩåľ¨":7035,"Ġpt":7036,"Ġple":7037,"ç¼Ķ":7038,"åŀ«":7039,"Ġenn":7040,"æĶ¾ç½®":7041,"ç®¡çĲĨç³»ç»Ł":7042,"åħ±äº§":7043,"æºĲä»£çłģ":7044,"æ¡Īä»¶":7045,"è±Ĩ":7046,"è®°å¾Ĺ":7047,"çıĢ":7048,"è¾ĵéĢģ":7049,"ç²¾éĢī":7050,"è¾¹çķĮ":7051,"Ġages":7052,"ä»ĬæĹ¥":7053,"çŁ³æ²¹":7054,"åĨĽäºĭ":7055,"æħ°":7056,"å°½åı¯èĥ½":7057,"åħħçĶµ":7058,"Ġiver":7059,"å¥ĸéĩĳ":7060,"éĶ®çĽĺ":7061,"åİĤå®¶":7062,"å®ĺåĳĺ":7063,"è¯¢éĹ®":7064,"å°¼äºļå·ŀ":7065,"äºĪä»¥":7066,"è¿·äººçļĦ":7067,"å²ģçļĦ":7068,"åĪļåĪļ":7069,"æ¾³éĹ¨":7070,"ä¸ĥæľĪ":7071,"çĶµåŃĲéĤ®ä»¶åľ°åĿĢ":7072,"ĠING":7073,"è·³è½¬":7074,"æī¿æĭħè´£ä»»":7075,"ä¸ģåł¡":7076,"äº¿ç¾İåħĥ":7077,"çĨŁæĤī":7078,"è½¨éģĵ":7079,"è¿ĩæ»¤åĻ¨":7080,"æĩĤ":7081,"ĠCorpor":7082,"Open":7083,"åĲ¹é£İæľº":7084,"æĿŃå·ŀ":7085,"éĺ¿å§Ĩæĸ¯çī¹ä¸¹":7086,"84":7087,":(":7088,"Des":7089,"Net":7090,"air":7091,"js":7092,"new":7093,"Ġè®¾å¤ĩ":7094,"ĠçīĪæľ¬":7095,"Ġ80":7096,"çļĦåĴĮ":7097,"çļĦç½ĳç«Ļ":7098,"çļĦèµĦæĸĻ":7099,"çļĦæĹħæ¸¸":7100,"çļĦè¡Įä¸º":7101,"çļĦè´¹çĶ¨":7102,"å®ª":7103,"æĺ¨":7104,"åľ¨è¿Ļç§į":7105,"ä¸Ģçľ¼":7106,"å¹¼":7107,"Ġool":7108,"äºĨåĲĹ":7109,"äººçī©":7110,"ä¸įåıĹ":7111,"å¥Ķ":7112,"è¿Ļåº§":7113,"è´¯":7114,"ä¸ºä½ķ":7115,"ä½łä¹Ł":7116,"å¤§åı·":7117,"æĤ¨åı¯èĥ½":7118,"æĤ¨è®¿éĹ®":7119,"å½¹":7120,"å¯¹åºĶ":7121,"åħ¶ä½Ļ":7122,"æĪĲç»©":7123,"ç¨Ģ":7124,"ĠSystem":7125,"æľĢåıĹæ¬¢è¿İ":7126,"ert":7127,"ĠCE":7128,"ĠCont":7129,"å®ļæľŁ":7130,"å®ļåĲĳ":7131,"çİ°æľīçļĦ":7132,"å¥¹å°±":7133,"ä½¿çĶ¨æĿ¡æ¬¾":7134,"è°¨":7135,"éĥ½æ²¡æľī":7136,"ĠEd":7137,"å¼ıçļĦ":7138,"åĮĸå·¥":7139,"Ġeral":7140,"è¿ĺèĥ½":7141,"ĠRA":7142,"å·²åľ¨":7143,"ĠLive":7144,"äº¤äºĴ":7145,"è§ĨåĽ¾":7146,"çģĮ":7147,"ĠFree":7148,"æķĻç»ĥ":7149,"ä»¥åıĬåħ¶ä»ĸ":7150,"Ġala":7151,"ä»Ģä¹ĪæĹ¶åĢĻ":7152,"åŃĺæ¬¾":7153,"éħįåĲĪ":7154,"è¿ĻäºĽä¿¡æģ¯":7155,"Ġition":7156,"é¢Ħå®ļ":7157,"ĠNo":7158,"åģļå¥½":7159,"æĽ´å¤ļåħ³äºİ":7160,"è½¬åŀĭ":7161,"é£İæļ´":7162,"Ġ25":7163,"è®°å¿Ĩ":7164,"æĴ°":7165,"æĻ¯è§Ĥ":7166,"é¥±":7167,"ç²¾åº¦":7168,"oud":7169,"ç®ĢåĮĸ":7170,"ç®Ģç§°":7171,"èħ¹":7172,"åĤ»":7173,"å¹²ä»Ģä¹Ī":7174,"éļıåĲİ":7175,"ç¦ıå¾·":7176,"çĳ°":7177,"äºĶåįģ":7178,"å®¢äººæıĲä¾Ľ":7179,"åŁİå¸ĤçļĦ":7180,"Ġember":7181,"çĨĶ":7182,"å®ĥä»¬çļĦ":7183,"Ġateg":7184,"å®¡æł¸":7185,"è®¨ä¼ļ":7186,"åĳĬè¯īæĪĳ":7187,"Ġform":7188,"æıĴåħ¥":7189,"èŃ¦å¯Ł":7190,"é¢Ĩå¯¼äºº":7191,"ä¸ªæľĪåīį":7192,"ä¿Ħç½Ĺæĸ¯èģĶéĤ¦":7193,"ç§ĺä¹¦":7194,"ä¼ĳæģ¯å®¤":7195,"ĠExpress":7196,"è¾ħåĬ©":7197,"çģµæ´»æĢ§":7198,"ideos":7199,"å½¼å¾Ĺåł¡":7200,"ĠCompany":7201,"åĬŀçĲĨåħ¥ä½ı":7202,"åĨ¬åŃ£":7203,"é½Ĳåħ¨çļĦåİ¨æĪ¿":7204,"å½ĵäºĭäºº":7205,"æī¿æĭħä»»ä½ķè´£ä»»":7206,"åķ¤éħĴ":7207,"98":7208,"Cookie":7209,"EP":7210,"Game":7211,"Han":7212,"Mon":7213,"Post":7214,"West":7215,"ral":7216,"ware":7217,"âĸ":7218,"ĠåĪ°":7219,"çļĦå®īåħ¨":7220,"çļĦåħ¨éĥ¨":7221,"åĲŀ":7222,"Ġient":7223,"åĴĮä¸į":7224,"æľīåĪ©":7225,"æī®":7226,"æķ²":7227,"ä¸Ńä¸ľ":7228,"ä»ĸä¹Ł":7229,"æłĪ":7230,"ç½¢":7231,"ä¸ĬåįĪ":7232,"éħĭ":7233,"æĤ¨å¿ħé¡»":7234,"çİ«":7235,"æĪĳä»¬åı¯èĥ½ä¼ļ":7236,"å¦¥":7237,"å¯¹æĸ¹":7238,"æĪĲåĪĨ":7239,"ĠCM":7240,"ç³Ĭ":7241,"å¾Ĺä»¥":7242,"Ġrit":7243,"ä¹ĭæĹħ":7244,"åĲİç»Ń":7245,"æĸĩåŃ¦":7246,"æĦıå¿Ĺ":7247,"çļĦç¦":7248,"çĿĢä»ĸ":7249,"æĹ¥èĩ³":7250,"åĬĽåĴĮ":7251,"ory":7252,"éĶ¥":7253,"èĤ¿":7254,"ĠBC":7255,"æīĭæ®µ":7256,"å¾Īéļ¾":7257,"Ġbour":7258,"æĹħç¨ĭ":7259,"ĠGA":7260,"åĲĦç±»":7261,"Ġeld":7262,"èĩ³åħ³":7263,"æĶ¯æı´":7264,"è½¬åĮĸ":7265,"ç®¡çĲĨåĴĮ":7266,"å¨ĩ":7267,"Ġado":7268,"Ġwork":7269,"çĥŃæĥħ":7270,"æ¶Īå¤±":7271,"çķĻåľ¨":7272,"å°ıæĹ¶åīįåı°":7273,"ç´§åĩĳ":7274,"èĲ¨æĸ¯":7275,"æīĺç®¡":7276,"Ġipp":7277,"åıĳçĶŁäºĨ":7278,"çŃĶåºĶ":7279,"Ġange":7280,"åŁºçĿ£å¾Ĵ":7281,"æ¶²ä½ĵ":7282,"æ¶²åİĭ":7283,"èĵĦ":7284,"Ġistr":7285,"ç§ĳåŃ¦å®¶":7286,"åĿļåĽº":7287,"ç½Ĺé©¬å°¼äºļ":7288,"Art":7289,"ä¹³æĪ¿":7290,"ä¸įå¾Ĺä¸į":7291,"åĪ·æĸ°":7292,"çĿ¡çľł":7293,"å«©":7294,"å´ĩ":7295,"åĹ¯":7296,"Ġound":7297,"éĢĲæ¸Ĳ":7298,"ä¹¡æĿĳ":7299,"ĠEmail":7300,"æĦīå¿«çļĦ":7301,"ä¸ĸçķĮåĲĦåľ°":7302,"æ°´æĹıé¦Ĩ":7303,"æ¯ĶåĪ©æĹ¶":7304,"æ©¡èĥ¶":7305,"åĬłåĪ©ç¦ı":7306,"As":7307,"BC":7308,"Free":7309,"Hot":7310,"South":7311,"aul":7312,"fr":7313,"que":7314,"©åĴĲ":7315,"Ġ2016":7316,"çļĦåı¯":7317,"çļĦä¸ĸçķĮ":7318,"çļĦè´¨éĩı":7319,"åĲ©åĴĲ":7320,"è¯Ī":7321,"æĺ¯ä¸ºäºĨ":7322,"æĪĳå·²ç»ı":7323,"åįµ":7324,"Ġoft":7325,"äºĨæĪĳ":7326,"ç½©":7327,"ä½łæīĢ":7328,"æĤ¬":7329,"æŃĩ":7330,"æ³Ĭ":7331,"åİĦ":7332,"æĪĸåħ¶å®ĥ":7333,"æĪĳä»¬éľĢè¦ģ":7334,"å¦®":7335,"å±Ī":7336,"çĶŁæĹ¥":7337,"çĶŁæķĪ":7338,"è®¾å®ļ":7339,"éģ®":7340,"æ³ķè¯Ń":7341,"æĸ¯åĽ¾":7342,"æĸ¯æ´Ľ":7343,"ç¾½":7344,"åīįçļĦ":7345,"åīįè¿°":7346,"çļĦçŁ":7347,"è°Ĳ":7348,"ä¸»å¼ł":7349,"è¯·åľ¨":7350,"ç¾İçļĦ":7351,"æĥħç»ª":7352,"æŃ¤æĹ¶":7353,"ĠTH":7354,"æĹłéĻĲ":7355,"Ġche":7356,"ĠRd":7357,"ĠRed":7358,"ç¼¤":7359,"2019":7360,"Ġya":7361,"ĠLim":7362,"çĥ«":7363,"åħĭç¦ı":7364,"ĠOP":7365,"åĸĢ":7366,"æ¯ıä¸Ģ":7367,"æĹ¶éĹ´çļĦ":7368,"å®¹çº³":7369,"atural":7370,"åı¯èĥ½æĺ¯":7371,"å°¼è¥¿äºļ":7372,"å¿«éĢĴ":7373,"è®¾è®¡å¸Ī":7374,"åİŁçĲĨ":7375,"äºĮæ°§åĮĸ":7376,"æĬĬä»ĸ":7377,"æĺĵäºİ":7378,"æī¾ä¸įåĪ°":7379,"é¦ĸéĥ½":7380,"åįĹéĥ¨":7381,"åįĹéĿŀ":7382,"æĬķéĢī":7383,"æĬķç¥¨":7384,"ç®Ģä½ĵ":7385,"åįļè§Ī":7386,"è´§è¿Ĳ":7387,"èħĶ":7388,"å¼ķçĶ¨":7389,"ĠÃŃ":7390,"Ġions":7391,"æĻļé¤Ĳ":7392,"ç´§ç´§":7393,"Ġave":7394,"æľīæķĪåľ°":7395,"ä»ªè¡¨":7396,"æ¦Ĥè¿°":7397,"çļĦæľĢå¤§":7398,"ĠReal":7399,"å±ĭé¡¶":7400,"ç¨İåĬ¡":7401,"èĦļæľ¬":7402,"è¿½è¸ª":7403,"åį±æľº":7404,"æŃ¦è£ħ":7405,"æ¤ħåŃĲ":7406,"æľªç»ıæİĪæĿĥ":7407,"äº¤åıĭä¸ļ":7408,"MBT":7409,"åįģåŃĹæŀ¶":7410,"Apple":7411,"VMware":7412,"iPhone":7413,"éĢ»è¾ĳ":7414,"700":7415,"Cas":7416,"ES":7417,"GP":7418,"Sy":7419,"Win":7420,"sp":7421,"Ġå¯¹":7422,"ĠåıĬ":7423,"çļĦä¼ģä¸ļ":7424,"çļĦæľºä¼ļ":7425,"åĲŁ":7426,"åľ¨å¤§":7427,"åľ¨æĸ°":7428,"Ġift":7429,"å°¸":7430,"åĴĮå¤§":7431,"åĴĮæ±½è½¦":7432,"æĺ¯è°ģ":7433,"æĪĳå¯¹":7434,"æĪĳæĢİä¹Ī":7435,"æĪĳä¸įçŁ¥éģĵ":7436,"äººçĶŁ":7437,"åĩ°":7438,"è´¾":7439,"æĬļ":7440,"åħ¬åħ¬":7441,"æĿ¥çľĭ":7442,"æĦĪ":7443,"å¤ļæł·":7444,"åıĳçĶµ":7445,"æĮĸ":7446,"æ±Ĺ":7447,"åħ¶ä¸ŃçļĦ":7448,"å¦ĤåĲĮ":7449,"çŃ¹":7450,"åĿĬ":7451,"åħ¨éĿ¢çļĦ":7452,"åĲĪæĪĲ":7453,"ĠIF":7454,"ĠION":7455,"ä¹Łè¦ģ":7456,"ä¹Łèĥ½":7457,"åŃ¦ä¼ļ":7458,"äºĭæķħ":7459,"ĠPoint":7460,"èĪ±":7461,"Ġera":7462,"ĠTS":7463,"ĠMuse":7464,"è£Ļ":7465,"ä½Ĩä»ĸ":7466,"æīĢæľīè¿ĻäºĽ":7467,"æ¶¯":7468,"æ´»æĢ§":7469,"å±ķå¼Ģ":7470,"æĺ¾ç¤ºåĻ¨":7471,"Ġli":7472,"ĠOff":7473,"è·¯ä¸Ĭ":7474,"æ¯ıæľĪ":7475,"è®®ä¼ļ":7476,"å®¹åĻ¨":7477,"æĶ¶è´Ń":7478,"Ġfi":7479,"åħīçº¤":7480,"éĢĤéħį":7481,"éĩįè¦ģçļĦæĺ¯":7482,"åĪĽä½ľ":7483,"ä¹ĲåĽŃ":7484,"åģļæ³ķ":7485,"ä¸¤åĽ½":7486,"æĬĬå¥¹":7487,"ä¹¦æ¡Į":7488,"çĪ±ä¸ģåł¡":7489,"æĬ¥çº¸":7490,"Ġka":7491,"ç²¾å¯Ĩ":7492,"ç§»éĻ¤":7493,"ç¼ĸåı·":7494,"Ġles":7495,"åĬŁèĥ½çļĦ":7496,"å¥¥åħ°":7497,"æľºåľºæİ¥":7498,"å®¢äººåı¯ä»¥":7499,"éĺ²æĬ¤":7500,"åĵªä¸ª":7501,"å¿Ĺæĺİ":7502,"è®¾æľīä¸Ģä¸ª":7503,"onto":7504,"åı¤èĢģ":7505,"è§Ħå®ļçļĦ":7506,"ingto":7507,"Ġover":7508,"è¡Ĺéģĵ":7509,"æĹħè¡ĮèĢħ":7510,"å¼Ĥå¸¸":7511,"éĨī":7512,"é¥®é£Ł":7513,"åĪ¤æĸŃ":7514,"æļ´åĬĽ":7515,"åĩĨç¡®çļĦ":7516,"æŃ¦åĻ¨":7517,"èĪªç©ºåħ¬åı¸":7518,"èµ«å°Ķ":7519,"èĥ¡å¿Ĺæĺİ":7520,"æħķå°¼":7521,"åĨĴéĻ©":7522,"WordPress":7523,"irectingto":7524,"Java":7525,"sland":7526,"æĿ¡æ¬¾åĴĮæĿ¡ä»¶":7527,"æ³ķåħ°åħĭç¦ı":7528,"çİ«çĳ°":7529,"CC":7530,"Fre":7531,"Hostel":7532,"It":7533,"ha":7534,"Ġä¸į":7535,"Ġç½ĳç»ľ":7536,"ĠåħĪçĶŁ":7537,"çļĦçĶ¨æĪ·":7538,"çļĦåĲĮæĹ¶":7539,"çļĦè§£åĨ³æĸ¹æ¡Ī":7540,"çļĦä¸ĵä¸ļ":7541,"æĺı":7542,"åĲĲ":7543,"åľ¨åħ¨çĲĥ":7544,"è®¶":7545,"åĴ¬":7546,"åºĻ":7547,"ä¸Ģåº§":7548,"åĴĮä»ĸçļĦ":7549,"æĺ¯å¯¹":7550,"æĺ¯å¦Ĥä½ķ":7551,"ä¼½":7552,"æĪĳæľī":7553,"å¯Ĵ":7554,"ä¸ªéħĴåºĹåľ¨":7555,"å¼¥":7556,"è¿Ļç±»":7557,"è¿Ļè¯Ŀ":7558,"åı¯éĢī":7559,"æłĭ":7560,"ç½Ĳ":7561,"æĬĸ":7562,"éĻª":7563,"ä¾£":7564,"æµĨ":7565,"æĪĳä»¬åı¯èĥ½":7566,"é¢ĸ":7567,"è¾±":7568,"å¯¹ä¸įèµ·":7569,"æ¸´":7570,"ä¸ĭäºĨ":7571,"æ±¤":7572,"åĩºèī²çļĦ":7573,"éĩĮè¾¾":7574,"ĠSM":7575,"ä¿¡èµĸ":7576,"ç½ĳåĿĢ":7577,"åŃĲåħ¬åı¸":7578,"å°Ĩäºİ":7579,"æĽ´å¤§":7580,"åĲĪçº¦":7581,"è¯´å®Į":7582,"èīĩ":7583,"çļĦçª":7584,"çĿĢæĪĳ":7585,"ĠPD":7586,"å½ĵæĪĳ":7587,"å½ĵæĪĳä»¬":7588,"Ġerry":7589,"èĤł":7590,"è¿ĺä¸į":7591,"äºļä¼¯":7592,"è¢«è®¤ä¸º":7593,"çĽ®åħī":7594,"èµ·çļĦ":7595,"æĺİçļĦ":7596,"å±ķçİ°":7597,"è¾¾æĪĲ":7598,"åĸĬ":7599,"é©¬å¾·éĩĮ":7600,"ç»Ļä»ĸä»¬":7601,"Ġnot":7602,"Ġder":7603,"åį¡æĸ¯":7604,"å¿ħéľĢ":7605,"æĮĩæłĩ":7606,"çĽ´å¾Ħ":7607,"ä¸¤æ¬¡":7608,"ĠWe":7609,"Ġvil":7610,"åĽłä¸ºä»ĸ":7611,"åĽłä¸ºå®ĥ":7612,"ä½İäºİ":7613,"åį³å°Ĩ":7614,"Ġams":7615,"ç®Ĺæ³ķ":7616,"æĪĺæĸĹ":7617,"æ¸©æļĸ":7618,"è¶ħè¶Ĭ":7619,"acle":7620,"åĤ²":7621,"äº²èĩª":7622,"å¥¥å°Ķ":7623,"ä¸»è¦ģçļĦ":7624,"è¿Ļä¸ĢåĪĩ":7625,"Ġree":7626,"Ind":7627,"æ¦ľ":7628,"ä»¥ä¸ĭçļĦ":7629,"çĶ·åŃ©":7630,"éĽħåħ¸":7631,"çºªå½ķ":7632,"æ³¨æĦıåĪ°":7633,"å®¶åºŃå¼ıéħĴåºĹ":7634,"è§¦æĳ¸":7635,"èį£èªī":7636,"å½¢å¼ıçļĦ":7637,"çĸĳéĹ®":7638,"ç¼ºä¹ı":7639,"obe":7640,"ĠBlog":7641,"åį«çĶŁéĹ´":7642,"æ·±åľ³å¸Ĥ":7643,"Oracle":7644,"starhotel":7645,"è¹Ī":7646,"é¼łæłĩ":7647,"åĩ¤åĩ°":7648,"åĵ¥ä¼¦æ¯Ķäºļ":7649,"æĬķéĢīä½łçļĦåĸľçĪ±":7650,"æħķå°¼é»ĳ":7651,"Ġville":7652,"AB":7653,"At":7654,"Cop":7655,"Eu":7656,"GH":7657,"Gr":7658,"Green":7659,"Im":7660,"Lab":7661,"On":7662,"Sa":7663,"Wh":7664,"fl":7665,"ke":7666,"Ġæķ°æį®":7667,"Ġæ²¡æľī":7668,"çļĦè®¾å¤ĩ":7669,"åľĭ":7670,"è¿¦":7671,"åľ¨ä¸į":7672,"åľ¨ä»ĸä»¬":7673,"åľ¨è¿ĻäºĽ":7674,"ä¸Ģæ®µ":7675,"åįī":7676,"éĢĹ":7677,"äºĨåĲ§":7678,"äººå·¥":7679,"ä¸įè®º":7680,"åŃ¤":7681,"ä¸ŃåŃ¦":7682,"ä½łæľī":7683,"ä½łåºĶè¯¥":7684,"æ³ª":7685,"å¤§æ¦Ĥ":7686,"åĪ°æĿ¥":7687,"åĪ°æĤ¨çļĦ":7688,"æĤ¨åı¯":7689,"åİī":7690,"âĢĻ":7691,"æĪĳä»¬ä¸į":7692,"é¢¤":7693,"å±¿":7694,"ä¸ĭæĿ¥çļĦ":7695,"æľºåħ³":7696,"ä½¿æĪĳä»¬":7697,"å®¶å±ħ":7698,"éĹ´æİ¥":7699,"ĠSD":7700,"æķ°çĻ¾":7701,"ä¿¡å¾Ĵ":7702,"å¹¶ä¸İ":7703,"å°±ä¸ļ":7704,"ĠCENTURY":7705,"ç³Ł":7706,"åħ¨æĸ°çļĦ":7707,"ä¹ĭåľ°":7708,"ĠINE":7709,"ä¹Łçº³":7710,"ä»»åĳ½":7711,"ä½¿çĶ¨æĤ¨çļĦ":7712,"å½ĵä»Ĭ":7713,"èĪ°":7714,"ĠTA":7715,"ç§įæ¤į":7716,"è¢ĸ":7717,"å®ĥåı¯ä»¥":7718,"ä¿¡æģ¯åĴĮ":7719,"åŁºåĽł":7720,"ĠHol":7721,"Ġpo":7722,"Ġyt":7723,"çº¿çļĦ":7724,"åİ»å¹´":7725,"æ¶¨":7726,"çĥĺ":7727,"çĪ·":7728,"Ġence":7729,"ç«ĭåĪ»":7730,"Ġela":7731,"Ġfer":7732,"ç»´ä¹Łçº³":7733,"åį¡å°Ķ":7734,"æķĪçĽĬ":7735,"è½¬åĲĳ":7736,"é£İæīĩ":7737,"å¹¿ä¸ľ":7738,"ĠWork":7739,"äºĮæīĭ":7740,"åºĶçĶ¨çļĦ":7741,"Ġ21":7742,"Ġeto":7743,"è®¢éĺħ":7744,"ç¥ŀç»ı":7745,"2002":7746,"æĴĳ":7747,"å®¢æĪ·çļĦ":7748,"æľªèĥ½":7749,"Ġild":7750,"åĪĩæį¢":7751,"é¦ĸå°Ķ":7752,"Ġzz":7753,"æ¶ĪèĢĹ":7754,"å®¢æĪ¿åĿĩ":7755,"æ³¢çī¹":7756,"Ġlex":7757,"ĠÃ³":7758,"åĸľçĪ±çļĦ":7759,"å®¿èĪį":7760,"æĻ®åĲī":7761,"ä»ĺè´¹":7762,"å¤«äºº":7763,"iday":7764,"ç¬¬ä¸ĢçĻ¾":7765,"çĮľ":7766,"çĶ·æĢ§":7767,"ä¸ĵä¸ļçļĦ":7768,"ä¾ĽåºĶéĵ¾":7769,"çĤ¹åĩ»æŃ¤å¤Ħ":7770,"æĿ¡ä»¶ä¸ĭ":7771,"åŁºçĿ£æķĻ":7772,"ä¸´æĹ¶":7773,"åŁĥå°Ķ":7774,"è°¢è°¢":7775,"èĨĢ":7776,"æ¦Ĥè§Ī":7777,"çİ©åħ·":7778,"çļĦå¤§å°ı":7779,"æĥĬè®¶":7780,"æıĲäº¤çļĦ":7781,"åįĪé¤Ĳ":7782,"é¸¡å°¾":7783,"ä¼Łå¤§":7784,"çĪ¸çĪ¸":7785,"æ²¿çĿĢ":7786,"åĲĪçĲĨçļĦ":7787,"åºĨç¥Ŀ":7788,"Ġzhou":7789,"å®½æķŀçļĦ":7790,"çĬ¹å¤ªäºº":7791,"ĠDesign":7792,"form":7793,"istrant":7794,"çººç»ĩ":7795,"ç°§":7796,"ĠSquare":7797,"XHamster":7798,"äºļåİĨå±±":7799,"é¸¡å°¾éħĴ":7800,"92":7801,"Ab":7802,"CRM":7803,"OR":7804,"Pol":7805,"Rue":7806,"TR":7807,"cl":7808,"ies":7809,"ĠÄ":7810,"Ġæĺ¯ä¸Ģä¸ª":7811,"çļĦéĢīæĭ©":7812,"çļĦæĦŁè§ī":7813,"åľ¨åĨħçļĦ":7814,"ä¸ĢæĹł":7815,"åĴĮç®¡çĲĨ":7816,"åĴĮä¼ĳéĹ²":7817,"å¹½":7818,"äººå®¶":7819,"ä»¥æŃ¤":7820,"ä¸ŃéĢīæĭ©":7821,"è¿Ļä¸¤ä¸ª":7822,"çĽ¯":7823,"åľ°çĲĨ":7824,"ä½łæĢİä¹Ī":7825,"èµļ":7826,"åĪ°ä¸Ģä¸ª":7827,"æĪĳä»¬è¦ģ":7828,"æĪĳä»¬æīĢ":7829,"é¢Ī":7830,"å¯¹æīĭ":7831,"æ´ª":7832,"è¿ĩæľŁ":7833,"æľ¬æĿ¥":7834,"äº§éĩı":7835,"è·Į":7836,"åŃĲéĩĮ":7837,"ç»ıçºª":7838,"åĲĪè§Ħ":7839,"é«ĺè´¨éĩı":7840,"åĲĮäºĭ":7841,"ä¹ĭä¸ĭ":7842,"åŃ¦ä½į":7843,"éĥ¨éķ¿":7844,"ç¾İæľ¯":7845,"ĠTub":7846,"ĠTown":7847,"é¦¨":7848,"æĹłç¼Ŀ":7849,"ĠME":7850,"è¿ĺä¼ļ":7851,"å¸ĤåĮº":7852,"Ġarn":7853,"è§£çŃĶ":7854,"ĠBD":7855,"éĹ®éģĵ":7856,"Ġyr":7857,"æīĭæľ¯":7858,"çĥ¹":7859,"è¥¿æ´ĭ":7860,"Ġene":7861,"æĮģæľī":7862,"Ġba":7863,"ĠGH":7864,"æķĻå¯¼":7865,"é¢ĦæĬ¥":7866,"åĽŀå®¶":7867,"åĽŀåİ»":7868,"æ£ĭ":7869,"éĩįè¦ģä¿¡æģ¯":7870,"å¤įåĲĪ":7871,"çĲĥåĳĺ":7872,"è®ºæĸĩ":7873,"ict":7874,"çĭ®":7875,"åįģäºĶ":7876,"æīĵåĩ»":7877,"çĶ¨æĪ·åĲį":7878,"èĻ¹":7879,"è§Ĥä¼Ĺ":7880,"æ¼ł":7881,"Ġame":7882,"å¤ªå¤ļ":7883,"åĳ½åĲį":7884,"åĩłå¹´":7885,"çĶŁäº§çļĦ":7886,"æŁ¥çľĭæīĢæľī":7887,"çłĶè®¨ä¼ļ":7888,"è¦ģæ±ĤçļĦ":7889,"çĶµåŃĲåķĨåĬ¡":7890,"åĽ´ç»ķ":7891,"èĥ½å¤Łåľ¨":7892,"ĠXP":7893,"æŀģç«¯":7894,"æ´Ĺç¢Ĺ":7895,"åı¦ä¸Ģç§į":7896,"ãĢĭ,":7897,"åĨĻä½ľ":7898,"æ¦»":7899,"Ġime":7900,"ç´§å¼ł":7901,"å¯Įæľī":7902,"è®¸å¤ļäºº":7903,"åªļ":7904,"æĲľç´¢ç»ĵæŀľ":7905,"Ġerson":7906,"Ġester":7907,"Adobe":7908,"Ġford":7909,"è´µçļĦ":7910,"æıĴä»¶":7911,"å»¶ä¼¸":7912,"å»¶è¿Ł":7913,"ĠéĻĦè¿ĳçļĦ":7914,"å¼¹æĢ§":7915,"å¨±ä¹Ĳè®¾æĸ½":7916,"ä»¥èī²åĪĹäºº":7917,"Ġext":7918,"èĸª":7919,"åĩĨç¡®æĢ§":7920,"æ£ĴçļĦ":7921,"æĭĽèģĺ":7922,"çĹĽèĭ¦":7923,"çĥ¤ç®±":7924,"åį«æĺŁçĶµè§Ĩ":7925,"æĬĵä½ı":7926,"çħ¤":7927,"ä½Ľç½ĹéĩĮè¾¾":7928,"çļĦçĪ¶äº²":7929,"çļĦåīįæıĲ":7930,"èĴ¸æ±½":7931,"æĪĴæĮĩ":7932,"ä»Ĩäºº":7933,"èººåľ¨":7934,"æĹ¥åĨħçĵ¦":7935,"å¤§åı·åºĬ":7936,"Bu":7937,"CN":7938,"City":7939,"Min":7940,"Sm":7941,"Sant":7942,"Villa":7943,"Ġå¤§":7944,"Ġä¸ŃåĽ½":7945,"çļĦçĶŁäº§":7946,"çļĦåĦ¿åŃĲ":7947,"åıĶ":7948,"æĸľ":7949,"åĴĮåĽ½éĻħ":7950,"åĴĮç¤¾ä¼ļ":7951,"æĺ¯ä»İ":7952,"Ġele":7953,"æĪĳèĥ½":7954,"åĨĪ":7955,"ä¸ŃçŃī":7956,"ä¿Ĺ":7957,"åľ°ä¸ĭ":7958,"ä½łéľĢè¦ģ":7959,"æĤŁ":7960,"æĤ¨ä¼ļ":7961,"æĪĳä»¬å°±":7962,"å¯¹ä»ĸä»¬":7963,"æīĢè¿°":7964,"åıĳçĶµæľº":7965,"æģ¼":7966,"åĪĨä¸º":7967,"å¹¶ä¸º":7968,"åŃĲåĴĮ":7969,"åħ³å¿ĥ":7970,"åĬłä»¥":7971,"åĬłåĭĴ":7972,"ĠIsland":7973,"èī°":7974,"Ġinc":7975,"æĦıå¤ĸ":7976,"çļĦçı":7977,"è¡¨æĥħ":7978,"ç¾İå¥½çļĦ":7979,"ĠEP":7980,"æĹ¥åľ¨":7981,"å½ĵå±Ģ":7982,"åĽłèĢĮ":7983,"ans":7984,"è¿ĺæ²¡":7985,"éļ¶":7986,"å¸ĤçļĦ":7987,"æķ°æį®ä¿ĿæĬ¤":7988,"æ¶ħ":7989,"æµ·åĨĽ":7990,"èī²å½©":7991,"æľŁæľĽ":7992,"åĲĳä½ł":7993,"èĦĬ":7994,"æ¯ĶçļĦ":7995,"åĪĹè½¦":7996,"è®©æĤ¨åľ¨":7997,"æĪĳä»¬çļĦäº§åĵģ":7998,"æ£ķ":7999,"æŁ¯":8000,"æĬĢæľ¯åĴĮ":8001,"å·´åİĺ":8002,"åģļåĪ°":8003,"æĬ¥ä»·":8004,"è¯Ħçº§":8005,"è®°ä½ı":8006,"ä¸ľæĸ¹":8007,"ä¸ľäº¬":8008,"ä¿®æŃ£":8009,"çļĦäººä»¬":8010,"åĩłå¤©":8011,"ĠStat":8012,"èĩ´çļĦ":8013,"å±±èĦī":8014,"åıĭå¥½çļĦ":8015,"Ġject":8016,"Ġred":8017,"å®īè£ħåľ¨":8018,"èĤ¡ä¸ľ":8019,"è¡Įä¸ļçļĦ":8020,"èīºæľ¯å®¶":8021,"åĨ·åį´":8022,"img":8023,"Ġike":8024,"æĹħèĪįavailable":8025,"æĦŁè§īåĪ°":8026,"äººæ°ĳåħ±åĴĮåĽ½":8027,"é£İæł¼çļĦ":8028,"åħ«æľĪ":8029,"ç»ĥä¹ł":8030,"èĴĻçī¹":8031,"Phot":8032,"æ¸Ĳæ¸Ĳ":8033,"owna":8034,"åĪĨéĴŁçļĦæŃ¥è¡Įè·¯ç¨ĭ":8035,"line":8036,"ç¬Ķè®°æľ¬çĶµèĦĳ":8037,"éĻ¤æŃ¤ä¹ĭå¤ĸ":8038,"è¡įçĶŁ":8039,"äºĮæ°§åĮĸç¢³":8040,"IM":8041,"PP":8042,"RA":8043,"Sil":8044,"TS":8045,"cr":8046,"iOS":8047,"log":8048,"Ġ\\":8049,"çļĦåĬŁèĥ½":8050,"çļĦçĽ®æłĩ":8051,"å¤¸":8052,"åĲģ":8053,"åľ¨ä¸Ń":8054,"åľ¨éĤ£":8055,"åľ¨ä½łçļĦ":8056,"æĪĳä¸Ģ":8057,"åĩĮ":8058,"æĭ³":8059,"æĢ¡":8060,"æĬ¢":8061,"å¤§éĹ¨":8062,"æİ©":8063,"æİĺ":8064,"ç«Ń":8065,"ä½ľä¸ļ":8066,"æ°¢":8067,"å¯¹æĤ¨":8068,"å¤ļåĪ©äºļ":8069,"çĶŁæ¶¯":8070,"Ġsand":8071,"ä½¿åĳ½":8072,"éĺĶ":8073,"æľ¬ä½ľåĵģ":8074,"ĠSil":8075,"åĪĨå¼Ģ":8076,"ĠCC":8077,"æĸ°åħ´":8078,"æĸ¯æŀĹ":8079,"æĽ´å¿«":8080,"çĤ®":8081,"åĬłè½½":8082,"ä½ĵç§¯":8083,"éĥ½å¾Ī":8084,"å¤©ç©º":8085,"åĮĸå¦Ĩ":8086,"éĶĲ":8087,"æ±Ĥä½ł":8088,"Ġars":8089,"ĠBro":8090,"å»ºæ¨¡":8091,"ĠGreen":8092,"ĠFin":8093,"ĠFran":8094,"è¯ģå®ŀ":8095,"Ġico":8096,"etur":8097,"Ġgr":8098,"Ġorg":8099,"å¯¼ä½ĵ":8100,"Ġ22":8101,"åĽłä¸ºä½ł":8102,"èĬ±åįī":8103,"Ġama":8104,"eld":8105,"ç´¢èµĶ":8106,"æĬķæ³¨":8107,"å¾ĭå®¾":8108,"æ¸©åĴĮ":8109,"èµ°è·¯":8110,"çĻ½ç´łè´ŀ":8111,"å®¢æĪ¿éĥ½":8112,"çļĦä¸Ģå¤©":8113,"å¼ķåħ¥":8114,"çĻ¾å§ĵ":8115,"å¥Ĺä»¶":8116,"æĢĿç»´":8117,"Ġose":8118,"Ġosh":8119,"åĲĮæĹ¶ä¹Ł":8120,"æħĮ":8121,"è¾ĥä½İ":8122,"çº¢åįģåŃĹ":8123,"ĠInst":8124,"éĽħåĲĦ":8125,"å®Ŀå®Ŀ":8126,"åľŁå£¤":8127,"éĵģèīº":8128,"ç¬¦åı·":8129,"åı¤åħ¸":8130,"æĺ¯åĲ¦æľī":8131,"èĨı":8132,"åŃ£èĬĤ":8133,"éĴ¢çĲ´":8134,"èıľèĤ´":8135,"éĿĴå°ĳå¹´":8136,"éĩİçĶŁ":8137,"å½Ĵæ¡£":8138,"å³¡":8139,"ä»£çĲĨåķĨ":8140,"Sun":8141,"Prof":8142,"å®ģéĿĻ":8143,"èľĤ":8144,"èı²å¾ĭå®¾":8145,"ç¨³å®ļæĢ§":8146,"çĥ§çĥ¤":8147,"æīĵåį°æľº":8148,"éĴ¥åĮĻ":8149,"éĻ¶çĵ·":8150,"å¹³éĿ¢è®¾è®¡":8151,"åħ¼å®¹æĢ§":8152,"ç©ºæĪ¿æĥħåĨµ":8153,"èĤĮèĤī":8154,"âĶĢâĶĢ":8155,"Intel":8156,"cript":8157,"110":8158,"87":8159,"AT":8160,"Bar":8161,"Cent":8162,"Cert":8163,"Hol":8164,"Jul":8165,"North":8166,"Sal":8167,"web":8168,"zi":8169,"ĠæĿ¥":8170,"Ġå·²":8171,"Ġè§Ĩé¢ĳ":8172,"çļĦè¯´":8173,"çļĦæĿĲæĸĻ":8174,"çļĦèĥ½åĬĽ":8175,"çļĦåŃ¦çĶŁ":8176,"çļĦä½ľçĶ¨":8177,"åľ¨éħĴåºĹ":8178,"åĽĬ":8179,"ä¸Ģä»£":8180,"ä¸Ģè·¯":8181,"åĴĮå¯Ĩçłģ":8182,"æĪĳè§īå¾Ĺ":8183,"äºĨä¸ĭæĿ¥":8184,"ä»¥ä¸ĬçļĦ":8185,"ä¸Ńæĸ¹":8186,"è¿Ļä¹Ł":8187,"åĮĢ":8188,"åľ°çľĭçĿĢ":8189,"çº±":8190,"æĢ¨":8191,"ä¸Ĭä¸»":8192,"è¦ģåľ¨":8193,"æĪĸä¸İ":8194,"Ġunt":8195,"çľī":8196,"è¾ŀ":8197,"å¤ļå®¶":8198,"å¤ļæ¬¡":8199,"åıĳæĺİ":8200,"æľ¬ç«Ļ":8201,"ĠSch":8202,"æľĢéĢĤåĲĪ":8203,"eric":8204,"å¼Ģå¿ĥ":8205,"å¾ĹåĪ°äºĨ":8206,"æĻĭ":8207,"èĢĮä¸į":8208,"ä½¿çĶ¨å¯¿åĳ½":8209,"éĥ¨ä»½":8210,"è¯·æĤ¨":8211,"éĩįå®ļåĲĳ":8212,"çī©æĸĻ":8213,"å¤©ä¸Ĭ":8214,"æŃ¤æ¬¡":8215,"èĪĶ":8216,"ĠTE":8217,"æĹłç©ºæĪ¿":8218,"ç§įæĹı":8219,"èĤĽ":8220,"ĠMC":8221,"ĠMat":8222,"è¿ĺæıĲä¾Ľ":8223,"ĠDown":8224,"Ġarc":8225,"èµ·èº«":8226,"èµ·å±ħ":8227,"ĠLA":8228,"çŁ¥åĲį":8229,"æ»´":8230,"Ġ17":8231,"å¾Īå¤§çļĦ":8232,"äº§åĵģåĴĮ":8233,"æ°´ä¸Ĭ":8234,"éķ¿æĹ¶éĹ´":8235,"Ġatic":8236,"ä½ıæīĢ":8237,"èº«å¿ĥ":8238,"åĸĺ":8239,"æķĻè®Ń":8240,"æķĻå¾Ĵ":8241,"ç³»ç»Łä¸Ń":8242,"ä¸ĵéķ¿":8243,"é©¬åħĭ":8244,"éĿŀæ³ķ":8245,"ä¼łæŁĵ":8246,"åĩĨåĪĻ":8247,"å²Ĺ":8248,"æĪĳä»¬çļĦç½ĳç«Ļ":8249,"æĮĩä»¤":8250,"ç®¡çĲĨå±Ģ":8251,"èĭ±æł¼åħ°":8252,"æ¨¡çī¹":8253,"Ġasse":8254,"è®¾å¤ĩä¸Ĭ":8255,"éĻ¤å¤ĸ":8256,"èĬ±è´¹":8257,"æĲĤ":8258,"Ġames":8259,"éĻĦå±ŀ":8260,"åĮĹç¾İ":8261,"çļĦä¸ĢäºĽ":8262,"åĭ¤":8263,"æĹ©æĻ¨":8264,"åĽĽä¸ª":8265,"æİĴéĻ¤":8266,"è¯»åıĸ":8267,"çŁ³å¤´":8268,"å¼ĢåıĳçļĦ":8269,"å¼Ģåıĳäººåĳĺ":8270,"èµĽäºļ":8271,"éļ¾å¿ĺ":8272,"çģµéŃĤ":8273,"ç´§å¯Ĩ":8274,"æ¼Ķåĩº":8275,"æľĢä½³çļĦ":8276,"èĢ¶ç¨£çļĦ":8277,"åĲ¸æĶ¶":8278,"èĹī":8279,"è´¢å¯Į":8280,"çĶ³è¯·äºº":8281,"èĭıé»İ":8282,"All":8283,"çł´ç¢İ":8284,"å©ļç¤¼":8285,"nterpr":8286,"éĿĴå²Ľ":8287,"å®ĹæĹ¨":8288,"1994":8289,"æĪĲåĳĺåĽ½":8290,"çī¹æ®ĬçļĦ":8291,"é©±åĬ¨ç¨ĭåºı":8292,"ä¹ĿæľĪ":8293,"æıĲä¾ĽäºĨä¸Ģä¸ª":8294,"æĬ½è±¡":8295,"èĪŀè¹Ī":8296,"çļĦçĻ½":8297,"ç¼ºéĻ·":8298,"æľĿé²ľ":8299,"ĠCloud":8300,"Dec":8301,"ç»ĺåĪ¶":8302,"éĽĩåĳĺ":8303,"çļĦä½ıå®¿åľ°æĸ¹":8304,"çļĦçģµéŃĤ":8305,"äºĭåĬ¡æīĢ":8306,"ĠUniversity":8307,"é½¿è½®":8308,"åı¬å¼Ģ":8309,"éĢĤå½ĵçļĦ":8310,"èħĲèļĢ":8311,"Colomb":8312,"Registrant":8313,"ĠGarden":8314,"ä¸ĵæ³¨äºİ":8315,"æ¸©åº¦ä¼łæĦŁåĻ¨MBT":8316,"æĴ°åĨĻ":8317,"Hanzi":8318,"èĭıé»İä¸ĸ":8319,"3000":8320,":+":8321,"Ak":8322,"Ant":8323,"CS":8324,"Del":8325,"Inter":8326,"Lis":8327,"Sam":8328,"We":8329,"][":8330,"ject":8331,"mb":8332,"ns":8333,"pro":8334,"ĠæĹħèĪį":8335,"ĹéĤ»":8336,"çļĦå®¶":8337,"çļĦå¥½":8338,"åıĽ":8339,"åľ¨åĵªéĩĮ":8340,"åĴ±":8341,"åĴĮé«ĺ":8342,"æľīä¸ĢäºĽ":8343,"ä¼ª":8344,"æĪĳæīĢ":8345,"æĪĳéĥ½":8346,"æĪĳå¾Ī":8347,"Ġoi":8348,"äºĨæĪĳä»¬":8349,"äººä½ĵ":8350,"äººéģĵ":8351,"ä¸įåģľ":8352,"ä¸įæķ¢":8353,"è¡¬":8354,"åı¯è§Ĩ":8355,"æłĸ":8356,"åľ°ä¸Ń":8357,"åľ°å¤Ħ":8358,"å¤§çĲĨ":8359,"æĪĸéĢļè¿ĩ":8360,"æĪĳä»¬æĺ¯":8361,"æĪĳä»¬å¸ĮæľĽ":8362,"å¯¹æĪĳä»¬":8363,"æ²Ī":8364,"æľºåºĬ":8365,"æ¯ĹéĤ»":8366,"ä½¿å¾Ĵ":8367,"æĪĲå¹´":8368,"æĪĲåŀĭ":8369,"ĠSA":8370,"ĠSal":8371,"ç»ıæĸĩ":8372,"Ġral":8373,"å®¢æľį":8374,"ĠIR":8375,"ä¹Łæ²¡":8376,"ç¬¬äºĶ":8377,"åı¸æľº":8378,"å¥½è¯Ħ":8379,"ç¤ºä¾ĭ":8380,"è¯·çĤ¹åĩ»è¿ĻéĩĮ":8381,"è¶Ł":8382,"ĠEF":8383,"åĢ¡":8384,"ĠPL":8385,"çķı":8386,"éĶĭ":8387,"å¤ĸå£³":8388,"ĠTechnology":8389,"å°ıç»Ħ":8390,"ä»ĸä»¬æĺ¯":8391,"åĮºåĪ«":8392,"Ġck":8393,"æ¡ĥ":8394,"ĠRC":8395,"ĠDA":8396,"æł¼æŀĹ":8397,"æł·å¼ı":8398,"æĺ¾çĦ¶":8399,"å·²çŁ¥":8400,"æĭīåħĭ":8401,"çº¿æ¸¡è½®":8402,"Ġ()":8403,"ĠLtd":8404,"å¾Īå°ĳ":8405,"æµ·æ»¨":8406,"èİ²":8407,"Ġenz":8408,"å¸¸å¸¸":8409,"Ġla":8410,"Ġlist":8411,"éªĤ":8412,"åħĭåĬĽ":8413,"åħĭæĸ¯åĿ¦":8414,"æ²¡æľīäºº":8415,"åĲĦæł·çļĦ":8416,"Ġalt":8417,"åħīçº¿":8418,"è¿Ľè¡ĮçļĦ":8419,"Ġese":8420,"æĪĳä»¬çļĦå®¢æĪ·":8421,"åıĺéĩı":8422,"ç»´å¤ļåĪ©äºļ":8423,"å·´å°Ķ":8424,"çĸ²":8425,"Ġhouse":8426,"æĶ¹éĢł":8427,"è®¾è®¡åĴĮ":8428,"åįģå¹´":8429,"è§ģåĪ°":8430,"éĢīæĭ©äºĨ":8431,"ä¾¿æĺ¯":8432,"éľĢè¦ģçļĦ":8433,"Ġings":8434,"....":8435,"æĢ»æķ°":8436,"æĲħ":8437,"Ġily":8438,"els":8439,"åĨįçĶŁ":8440,"è®¾æĸ½åĮħæĭ¬":8441,"å¸Įå°Ķé¡¿":8442,"Ġ40":8443,"ä¸ĩè±ª":8444,"å²Ľå±¿":8445,"Ġomain":8446,"èİ·å¾ĹäºĨ":8447,"æŀģåħ¶":8448,"Ġidge":8449,"å¾®ç¬ĳ":8450,"çİĭåĽ½":8451,"Ġster":8452,"çīĮçĶŁäº§":8453,"ä¾ĿéĿł":8454,"æ¼Ķè®²":8455,"æĤ¨åı¯ä»¥ä»İ":8456,"ä¼ļè®®ä¸Ńå¿ĥ":8457,"ç»§æī¿":8458,"åıĳçĶŁçļĦ":8459,"èĥĮåĮħ":8460,"Ġated":8461,"æ°¸æģĴ":8462,"åĪĿå§ĭ":8463,"ĠReg":8464,"æ´ģåĩĢ":8465,"å¼¹ç°§":8466,"é¢Ĩå¯¼èĢħ":8467,"Spa":8468,"æ¶¦æ»ĳ":8469,"Dev":8470,"èµŀåĬ©":8471,"åĩºçīĪç¤¾":8472,"nternet":8473,"æĭīæĸ¯ç»´":8474,"æ¯ķç«Ł":8475,"èĶ½":8476,"çĺ¤":8477,"Ġfrom":8478,"çļĦçĹħ":8479,"Server":8480,"çĶµéĤ®åľ°åĿĢ":8481,"èĬ¯çīĩ":8482,"è¿ģç§»":8483,"Toronto":8484,"æ°´çĸĹä¸Ńå¿ĥ":8485,"Ġå¹¿åĳĬW":8486,"ĠMuseum":8487,"360":8488,"83":8489,"Ang":8490,"Ben":8491,"DL":8492,"GL":8493,"Gold":8494,"Mark":8495,"SH":8496,"SI":8497,"Tech":8498,"her":8499,"jak":8500,"oc":8501,"{}":8502,"ĠåºĶçĶ¨":8503,"çļĦç»ıæµİ":8504,"çļĦçĽ®çļĦ":8505,"çļĦæł·åŃĲ":8506,"ãĢĤ(":8507,"æĸĳ":8508,"åĴĮäº¤åıĭä¸ļ":8509,"äºĨå¥¹":8510,"äºĨå¾Īå¤ļ":8511,"äººç¾¤":8512,"åı¯æł¹æį®":8513,"åı¯æī©å±ķ":8514,"æĭ·":8515,"å¿½çĦ¶":8516,"å¤§æĪĺ":8517,"éħ¬":8518,"åħ¬ä¸»":8519,"å½°":8520,"æĪĸä¸į":8521,"æĪĸç»ĪæŃ¢":8522,"è¡ĮäºĨ":8523,"æĦ¤":8524,"å¯¹ä»ĸè¯´":8525,"åŁĭ":8526,"æ¸Ĺ":8527,"ĠAb":8528,"ä½¿æĤ¨çļĦ":8529,"æľĢçĪ±":8530,"çĶµç£ģ":8531,"éģ£":8532,"æĽ´å¤§çļĦ":8533,"å¾Ĺå¾Ī":8534,"æıĲä¾Ľç»Ļ":8535,"ä¹ĭåĨħ":8536,"çī¹çļĦ":8537,"ĠIO":8538,"ä¹Łè¢«":8539,"åĲİæŀľ":8540,"æĦıçļĦ":8541,"ä½įçļĦ":8542,"å®ŀä¸ļ":8543,"éĩįå»º":8544,"æĹ¥åİĨ":8545,"ĠPer":8546,"ĠTim":8547,"è¢į":8548,"ĠMy":8549,"åĮºåĴĮ":8550,"ino":8551,"è¿ĺåĮħæĭ¬":8552,"tem":8553,"èĲ§":8554,"ä»»ä½ķåħ¶ä»ĸ":8555,"ç¼ł":8556,"æķ°æį®åĴĮ":8557,"æ¶Į":8558,"æ´»çĿĢ":8559,"å¹³å®ī":8560,"èº²":8561,"åħ¶ä»ĸçĶ¨æĪ·":8562,"å¾·æĭī":8563,"å¸ĥç½Ĺ":8564,"ĠGame":8565,"åĸĤ":8566,"è·¯çĶ±":8567,"ç§ĳçłĶ":8568,"ascript":8569,"èĥĢ":8570,"æĦŁåıĹåĪ°":8571,"ä¸ĵé¢ĺ":8572,"æ°ĶçļĦ":8573,"åŃĺæĶ¾":8574,"åħįè´£":8575,"ä¼łçľŁ":8576,"æĶ¾å¿ĥ":8577,"åıĺåĮĸçļĦ":8578,"ĠNet":8579,"æĬĢæľ¯æĶ¯æĮģ":8580,"æĮĩå®ļçļĦ":8581,"çĸĨ":8582,"çĽ´è§Ĥ":8583,"æķĪåºĶ":8584,"èĭ±éĽĦ":8585,"åįģæľĪ":8586,"è®¾å¤ĩåĴĮ":8587,"Ġington":8588,"ç±³å°Ķ":8589,"å¼ºè¿«":8590,"comç¼¤":8591,"èĲ¥åħ»":8592,"elop":8593,"Ġache":8594,"å¸®åĬ©æĪĳä»¬":8595,"åĿĩåĮĢ":8596,"ĠÃ¶":8597,"ç¿ģ":8598,"åĤ¬":8599,"çľ¼åīį":8600,"å¿ħé¡»åľ¨":8601,"åĵ¥åĵ¥":8602,"å®³æĢķ":8603,"ä¼ĬæľĹ":8604,"è·ŁçĿĢ":8605,"åİĨåı²çļĦ":8606,"Ġaint":8607,"å¿«éĢŁæŁ¥çľĭ":8608,"åħŃæľĪ":8609,"åİĤåķĨ":8610,"å¥ĩæĢª":8611,"ç¬¬äºĮåįģ":8612,"éĢĢåĩº":8613,"é±¼çļĦ":8614,"Ġ\"ãĢĤ":8615,"èĪĴéĢĤçļĦ":8616,"è·³èĪŀ":8617,"è´Łè´£äºº":8618,"åħ³éĶ®åŃĹ":8619,"æĬ±æŃī":8620,"æĬ½çĥŁ":8621,"å¤ıå¤©":8622,"å¼ŁåħĦ":8623,"å¹´è½»äºº":8624,"ç»ĺçĶ»":8625,"ĠArt":8626,"æģĲæĥ§":8627,"ä¼ĺç§ĢçļĦ":8628,"æ®ĭçĸ¾":8629,"å¤©æ°Ķé¢ĦæĬ¥":8630,"erryto":8631,"åĢºåĬ¡":8632,"é¢Ĺç²Ĵ":8633,"å¯ĨéĴ¥çĶŁæĪĲ":8634,"çļĦçĪ¶æ¯į":8635,"ä»ĵåºĵ":8636,"Cojak":8637,"å§ĳå¨ĺ":8638,"ĠStudio":8639,"ä¸Ģä¼ļåĦ¿":8640,"çļĦåŁºç¡Ģä¸Ĭ":8641,"ä½łèĩªå·±çļĦè¯Ńè¨Ģ":8642,"Ġfield":8643,"èµ«å°Ķè¾Ľ":8644,"å·´åİĺå²Ľ":8645,"æĭīæĸ¯ç»´åĬłæĸ¯":8646,"Ġå¹¿åĳĬWINDOWSMAC":8647,"comç¼¤å®¢":8648,"AU":8649,"GN":8650,"Ks":8651,"Ne":8652,"PL":8653,"Pal":8654,"System":8655,"ied":8656,"ty":8657,"ter":8658,"yal":8659,"Â£":8660,"ÃĹ":8661,"Ġè¯´":8662,"Ġåħįè´¹":8663,"Ġä½įäºİ":8664,"Ġé¤Ĳåİħ":8665,"Ġ2012":8666,"ĠåķĨåºĹ":8667,"çļĦæĶ¯æĮģ":8668,"çļĦæ´»åĬ¨":8669,"çļĦæł¸å¿ĥ":8670,"åĲ´":8671,"ĠaB":8672,"Ġaéĩįè¦ģè¯¦æĥħ":8673,"åľ¨ä½¿çĶ¨":8674,"ä¸ĢæľĪ":8675,"ä¸Ģéĥ¨åĪĨ":8676,"ä¸Ģéĺµ":8677,"åĴĮåħ¶å®ĥ":8678,"æľīåĵªäºĽ":8679,"åįĳ":8680,"äººåĬĽ":8681,"ä¸įè§ģ":8682,"è¿Ļäºĭ":8683,"ä¸ºæĪĳ":8684,"ä½łåĴĮ":8685,"éĻĢ":8686,"æĤ¯":8687,"ä¾į":8688,"å¤§è¡Ĺ":8689,"æµĻ":8690,"æĤ¨æĺ¯":8691,"æĹ¶éĴŁ":8692,"âĢĺ":8693,"ä¼ļè¯Ŀ":8694,"åĵĢ":8695,"èĥ½åľ¨":8696,"æĪĳä»¬ä¸º":8697,"è¡ĮæĺŁ":8698,"æĥ©":8699,"è¾Ĳ":8700,"æıĲåĩºçļĦ":8701,"å¯¹ä»ĸ":8702,"å¤ļè¾¾":8703,"ä¸ĭæ¦»":8704,"æįī":8705,"åĩºä¸Ģ":8706,"Ġsch":8707,"éĺĲ":8708,"åī¥":8709,"åĵģå°Ŀ":8710,"å°±æľī":8711,"æĸ¯çļĦ":8712,"æĽ´æĺ¯":8713,"å¾Ĺæķĳ":8714,"åĨħåľ¨":8715,"ä¹Łåľ¨":8716,"ä¹Łå¾Ī":8717,"è¯´ä¸į":8718,"åīįéĿ¢":8719,"éĤ£ä½ł":8720,"çĿĢå¥¹çļĦ":8721,"åľºåľ°":8722,"ĠEl":8723,"ĠEnglish":8724,"çķĶ":8725,"çķľ":8726,"æĪ¿ä»·":8727,"å¤ĸéĿ¢":8728,"ĠTV":8729,"ĠTor":8730,"lev":8731,"å®īå¾·":8732,"å®īåįĵ":8733,"èĤļ":8734,"ĠMont":8735,"åħ¥å¢ĥ":8736,"ĠRI":8737,"ĠBo":8738,"Ġps":8739,"Ġtd":8740,"Ġyle":8741,"æľ¯è¯Ń":8742,"æĿĥåĬĽ":8743,"åħĭéĩĮæĸ¯":8744,"éĹ¨æĪ·":8745,"æĹ¶éĹ´è¡¨":8746,"ä¸ĵå±ŀ":8747,"é©¬èĢ³":8748,"Ġald":8749,"æ°Ķæ°Ľ":8750,"è®¤çľŁ":8751,"åħįçĸ«":8752,"èĩ³ä»Ĭ":8753,"æ³¨å¡ĳ":8754,"Ġgo":8755,"Ġgar":8756,"æµģè¡Į":8757,"çº§åĪ«":8758,"Ġdel":8759,"åį¡å¡Ķ":8760,"åĪĽå§ĭ":8761,"Ġhotel":8762,"ick":8763,"ĠWh":8764,"éĢŁçİĩ":8765,"ç¥ŀåľ£":8766,"æĢ»ä¼ļ":8767,"åĥıç´ł":8768,"Ġadel":8769,"Ġwar":8770,"å®īåħ¨åĴĮ":8771,"é¥ª":8772,"èµ°åĲĳ":8773,"èĳ¬":8774,"å®¢æĪ¿æľįåĬ¡":8775,"åıĮåºĬ":8776,"ç¥¨ä»·":8777,"160":8778,"å¥¥æŀĹ":8779,"æĢĿèĢĥ":8780,"çĳľ":8781,"åı¦æľī":8782,"çĹħçļĦ":8783,"Ġents":8784,"çłĶç©¶æīĢ":8785,"å®ŀçİ°äºĨ":8786,"çĶ·åŃĲ":8787,"æ¿ĢåĬ¨":8788,"ç¤¾ä¼ļä¸»ä¹ī":8789,"é¸£":8790,"Ġtop":8791,"èŀįèµĦ":8792,"ĠChan":8793,"ä»ªå¼ı":8794,"ç¤¼åĵģ":8795,"éĢĢæĪ¿":8796,"å®½åº¦":8797,"è¯¦ç»ĨçļĦ":8798,"åĨľåľº":8799,"ç¼©çŁŃ":8800,"Ġobal":8801,"åĴĸåķ¡åİħ":8802,"Product":8803,"åį°åº¦å°¼è¥¿äºļ":8804,"åľĨéĶ¥":8805,"å¢Ļå£ģ":8806,"æĪĲç«ĭäºİ":8807,"ĠSearch":8808,"æıĲä¾Ľåħįè´¹WiFi":8809,"ĠCams":8810,"é¹°":8811,"çĦĬæľº":8812,"æ¶Ĥå±Ĥ":8813,"æįķèİ·":8814,"æĲŃéħį":8815,"äº¤åıĭåĴĮäº¤åıĭä¸ļ":8816,"çıłå®Ŀ":8817,"æĦīå¿«":8818,"Skype":8819,"çĨ¨æĸĹ":8820,"çļĦçĭ¬ç«ĭ":8821,"å¸ĥé²ģåħĭ":8822,"æĦ¿æľĽæ¸ħåįķ":8823,"çĸ¯çĭĤ":8824,"èħķè¡¨":8825,"ĠMarket":8826,"ãĥ»":8827,"ç®Ģä½ĵä¸Ńæĸĩ":8828,"å¥¥åħ°å¤ļ":8829,"èĥ¡å¿Ĺæĺİå¸Ĥ":8830,"Labels":8831,"çļĦåīįæıĲä¸ĭ":8832,"130":8833,"86":8834,"900":8835,"CP":8836,"Can":8837,"DM":8838,"MA":8839,"Pet":8840,"Tag":8841,"You":8842,"au":8843,"aur":8844,"ij":8845,"the":8846,"²æŁĵ":8847,"çĢ":8848,"è©":8849,"Ġç«ĻçĤ¹":8850,"çļĦåĪĨæŀĲ":8851,"çļĦå»ºçŃĳ":8852,"çļĦèº«ä½ĵ":8853,"åľ¨C":8854,"åľ¨æĪĳçļĦ":8855,"ç»³":8856,"ä¸ĢåĿĹ":8857,"Ġoch":8858,"å¸§":8859,"ä¸įå¿ħ":8860,"åŃ½":8861,"å¾Į":8862,"ä»ĸè¢«":8863,"è¿Ļå°±":8864,"åı¯ä½¿çĶ¨":8865,"ä¸ºåŁºç¡Ģ":8866,"æĭ¾":8867,"å¤§ä¼Ĺ":8868,"èĩŃ":8869,"åĳ»":8870,"æĪĳä»¬å·²ç»ı":8871,"æ¸²æŁĵ":8872,"åıĳå°Ħ":8873,"çĶŁåŃĺ":8874,"éħĴåºĹæĺ¯":8875,"Ġser":8876,"Ġsen":8877,"æģķ":8878,"å¹¶éĢļè¿ĩ":8879,"å°±ç®Ĺ":8880,"å°±è¿Ļæł·":8881,"ĠCap":8882,"ĠCour":8883,"å°Ĩæĺ¯":8884,"åħ¨æĸ°":8885,"æĽ´å®¹æĺĵ":8886,"å¼ĢåĲ¯":8887,"æıĲä¾Ľä¸Ģä¸ª":8888,"æıĲä¾ĽæľįåĬ¡":8889,"Ġript":8890,"çĤŃ":8891,"åĬłæĭī":8892,"åĲĮæĢ§":8893,"ä¹ĭä¸Ĭ":8894,"çī¹ä»·":8895,"éĥĳ":8896,"åĪ¶åĬ¨":8897,"æĻķ":8898,"Ġ)(":8899,"ç¬¬åħŃ":8900,"éĤ£æĺ¯":8901,"è°İ":8902,"staur":8903,"æİ¥ä¸ĭæĿ¥":8904,"éĥ½æŁıæŀĹ":8905,"å°Ķçī¹":8906,"æĹ¥çļĦ":8907,"ĠPort":8908,"ĠPHP":8909,"ĠTD":8910,"æĹłéļľç¢į":8911,"ĠML":8912,"Ġcam":8913,"æ¡¶":8914,"è£Ķ":8915,"èµĦè´¨":8916,"èµĦåĬ©":8917,"ĠHTML":8918,"ä½ĨæĪĳ":8919,"ä½Ĩå®ĥ":8920,"æĥ³åľ¨":8921,"ä»»ä½ķç¬¬ä¸īæĸ¹":8922,"Ġyéĩįè¦ģè¯¦æĥħ":8923,"èµ·éĩį":8924,"æ´»è·ĥ":8925,"æĤ¨çļĦèµĦæĸĻ":8926,"èİŀ":8927,"è¥¿æĸ¹":8928,"æ°´æŀľ":8929,"æĺ¾ç¤ºå±ı":8930,"èĦĨ":8931,"æ¸¸æ³³":8932,"éĩĳéĴ±":8933,"ĠGrand":8934,"è·¯æĺĵ":8935,"Ġali":8936,"åħįåıĹ":8937,"ç²®":8938,"ç²¹":8939,"åľ°åĽ¾ä¸Ĭ":8940,"æĶ¾åħ¥":8941,"å¤´ä¸Ĭ":8942,"æĶ¯æĴĳ":8943,"å¤įåħ´":8944,"åħ°åį¡":8945,"ç®¡çĲĨäººåĳĺ":8946,"åįİæ²Ļ":8947,"ä¾¿æĲº":8948,"çĶ¨æĪ·åı¯ä»¥":8949,"ĠVM":8950,"ĠVill":8951,"Ġ24":8952,"Ġva":8953,"è·Ŀç¦»éħĴåºĹ":8954,"æĻ¯èī²":8955,"å°ĳæķ°":8956,"èĢģäººåĴĮ":8957,"Ġede":8958,"æĬķå½±":8959,"ç½ĳç»ľè¿ŀæİ¥":8960,"å¾ĭæ³ķ":8961,"Ġago":8962,"ise":8963,"æŁ¥çľĭæĽ´å¤ļ":8964,"ĠÃ±":8965,"acce":8966,"åĸľæĤ¦":8967,"å¹²é¢Ħ":8968,"å¹²æī°":8969,"è¿ľç¦»":8970,"Ġida":8971,"çĶŁæ´»çļĦ":8972,"è¯ºæĸ¯":8973,"å®¢äººåı¯ä»¥åľ¨":8974,"çĻ»éĻĨ":8975,"å¨ģå°Ķ":8976,"Ġury":8977,"Ġaper":8978,"åĪ¶éĢłä¸ļ":8979,"ä¾Ŀçħ§":8980,"å®Ŀè´Ŀ":8981,"Ġira":8982,"Ġates":8983,"éľĢæ±ĤçļĦ":8984,"ç§»åĬ¨è®¾å¤ĩ":8985,"åŃ©åŃĲçļĦ":8986,"åŃ©åŃĲä»¬":8987,"æģ©åħ¸":8988,"çī¹åĪ«çļĦ":8989,"èĭıèģĶ":8990,"index":8991,"çŁŃä¿¡":8992,"éĺħè¯»æĽ´å¤ļ":8993,"State":8994,"èģļéĽĨ":8995,"æ¬¢è¿İæĿ¥åĪ°":8996,"æ½ľåĬĽ":8997,"è¿Ŀæ³ķ":8998,"è¡¥åģ¿":8999,"æµªè´¹":9000,"IPåľ°åĿĢ":9001,"Ġube":9002,"éļĶç¦»":9003,"ç¯ĩçĤ¹è¯Ħ":9004,"æ¢¦æĥ³":9005,"å¹´è½»çļĦ":9006,"æ©±":9007,"Ġline":9008,"ç±»ä¼¼çļĦ":9009,"Flor":9010,"æŁĶè½¯":9011,"åĳ¨åĽ´çļĦ":9012,"åĪĨéĴŁçļĦè½¦ç¨ĭ":9013,"ç¤¾äº¤åªĴä½ĵ":9014,"äºĨè¿Ļç¯ĩçĤ¹è¯Ħ":9015,"åĽŀå¤įäºĨè¿Ļç¯ĩçĤ¹è¯Ħ":9016,"å§¿åĬ¿":9017,"å®¢è¿ĲåĴĮæ±½è½¦":9018,"åħĭç½Ĺåľ°äºļ":9019,"çļĦç±»åŀĭ":9020,"ç¡ķå£«":9021,"åıĻåĪ©äºļ":9022,"hai":9023,"eturns":9024,"ç©ºæĪ¿æĥħåĨµåĪ°è¾¾":9025,"nterprise":9026,"æłĸæģ¯":9027,"ijing":9028,"accept":9029,"å®¢è¿ĲåĴĮæ±½è½¦è½®æ¸¡":9030,"eturnsaccept":9031,">>":9032,"Dat":9033,"ER":9034,"Gre":9035,"Jun":9036,"Met":9037,"Val":9038,"],":9039,"cent":9040,"dat":9041,"fm":9042,"ger":9043,"mile":9044,"world":9045,"zure":9046,"Ġä»İ":9047,"Ġåŀĭ":9048,"Ġè®¾è®¡":9049,"Ġä¸ĬçļĦ":9050,"Ġ2017":9051,"Ġæİ¥åı£":9052,"ä¸¶":9053,"çļĦåĪĨ":9054,"çļĦä¸ļåĬ¡":9055,"çļĦæĽ´å¤ļä¿¡æģ¯":9056,"å®Ľ":9057,"ĠaL":9058,"Ġais":9059,"Ġaus":9060,"åľ¨å¾·åĽ½":9061,"åĴĴ":9062,"ä¸Ģä»¶":9063,"åĴĮå®īåħ¨":9064,"æĹ·":9065,"æĺ¯ä¸º":9066,"ä¸įåºĶ":9067,"ä»ĸè¿ĺ":9068,"è¿Ļä½į":9069,"è¿Ļåľº":9070,"è¿Ļæ¬¾":9071,"åı¯çĪ±çļĦ":9072,"ä¸ºåħ¶":9073,"åľ°æ¯¯":9074,"ä½łå¥½":9075,"å¤§æ¥¼":9076,"æĤ¨å·²":9077,"æĤ¨æĺ¯åĲ¦":9078,"æĹ¶åħī":9079,"è¡Įé©¶":9080,"ä½ľçļĦ":9081,"æıĲåıĸ":9082,"æīĢæıĲä¾ĽçļĦ":9083,"æĮ¡":9084,"æĮ£":9085,"è¿ĩæ¸¡":9086,"èĩªä»İ":9087,"ĠAt":9088,"ä¸İä»ĸ":9089,"æľ¬æĸĩ":9090,"æľ¬è´¨":9091,"åħ¨èº«":9092,"å¼Ģä¸ļ":9093,"Ġrol":9094,"ä¹Łå°±":9095,"ä¹Łä¸įæĺ¯":9096,"èĢĮåľ¨":9097,"èĢĮè®¾è®¡":9098,"éĤ£ç§į":9099,"ä½ĵçİ°":9100,"éĥ¨éĺŁ":9101,"ä¸»æĦı":9102,"å®ŀæĥł":9103,"çĤ¹å¤´":9104,"ç¾İå¦Ļ":9105,"æĹ¥çĽĬ":9106,"æĥħçļĦ":9107,"å½ĵä»ĸ":9108,"å½ĵä»£":9109,"ä»ĸä»¬å°Ĩ":9110,"èĤĸ":9111,"info":9112,"è¿ĺåı¯":9113,"çĽ¸ä¼¼":9114,"è£¹":9115,"ĠDP":9116,"ĠDu":9117,"è§£æĶ¾":9118,"ĠBed":9119,"æķ°æį®ä¸Ńå¿ĥ":9120,"æĭīå¤ļ":9121,"æĺİå¤©":9122,"åıĹå®³":9123,"å¹³çŃī":9124,"åĲĳåīį":9125,"omain":9126,"å¸¸è§Ħ":9127,"åħĭèİ±":9128,"å¦ĤæŀľæĤ¨çļĦ":9129,"ĠGmb":9130,"å¸¦é¢Ĩ":9131,"æ¬¡åľ¨çº¿":9132,"Ġicon":9133,"Ġices":9134,"ä¸īåįģ":9135,"çº¦å®ļ":9136,"åĨ³è®®":9137,"è¯ŃéŁ³":9138,"Ġesc":9139,"æ£ļ":9140,"Ġdes":9141,"åį¡ç½Ĺ":9142,"ç©ºä¸Ń":9143,"å¯¼æ¼Ķ":9144,"Ġison":9145,"çĽ´æĴŃ":9146,"æ°ĳä¼Ĺ":9147,"åħ±çĶ¨":9148,"ĠUL":9149,"æŀĦæŀ¶":9150,"åŃĹæ¯į":9151,"èĻ½":9152,"åĽłä¸ºä»ĸä»¬":9153,"Ġweb":9154,"ä¸ľèİŀ":9155,"æľªæī¾åĪ°":9156,"enix":9157,"ä½İä»·":9158,"åıįèĢĮ":9159,"128":9160,"ç²¾å¿ĥ":9161,"æİ§åĪ¶åı°":9162,"èµ°åĩº":9163,"èµ°åİ»":9164,"Ġolog":9165,"åĳ¨æľ«":9166,"çªĥ":9167,"ç¿Ķ":9168,"å¤«å¦ĩ":9169,"å¥Ĺè£ħ":9170,"è¯»èĢħ":9171,"æĪĲä¸ºäºĨ":9172,"èµĽè½¦":9173,"Ġreak":9174,"æ¦Ħ":9175,"åºŃéĻ¢":9176,"æ²Ļçī¹":9177,"æĲľå¯»":9178,"æł¡åĩĨ":9179,"èĲ¨æĭī":9180,"ä¾Ŀæ³ķ":9181,"Ġello":9182,"é¡¶éĥ¨":9183,"ç½ªæģ¶":9184,"åªĴä»ĭ":9185,"çİ°ä»£åĮĸçļĦ":9186,"åįĬå¯¼ä½ĵ":9187,"èĪ¬çļĦ":9188,"å½©èī²":9189,"ĠÂ»":9190,"çĶµè¯Ŀåı·çłģ":9191,"igh":9192,"æ¾³æ´²":9193,"çļĦæľĢæĸ°":9194,"é»Ħèī²":9195,"Ġific":9196,"æĥĬäººçļĦ":9197,"Ġther":9198,"æľĢåĲİä¸Ģ":9199,"ä»·åĢ¼çļĦ":9200,"åĳ¼åĲģ":9201,"Blog":9202,"Ġendant":9203,"Ġource":9204,"ĠCentral":9205,"æ±īåł¡":9206,"æļ´éľ²":9207,"anghai":9208,"çľŁå®ŀçļĦ":9209,"ç¥ĤçļĦ":9210,"æļĹç¤º":9211,"åģ¥èº«æĪ¿":9212,"åı¦ä¸Ģæĸ¹éĿ¢":9213,"èµĮåįļ":9214,"éŃĶé¬¼":9215,"åħ³èģĶåħ¬åı¸":9216,"ife":9217,"ĠAnd":9218,"ç»ĦæĪĲéĥ¨åĪĨ":9219,"æķĮäºº":9220,"åı¯æĮģç»Ńåıĳå±ķ":9221,"å»īä»·":9222,"ä¸Ńåįİäººæ°ĳåħ±åĴĮåĽ½":9223,"æ¼Ĥäº®çļĦ":9224,"èµĭäºĪ":9225,"éĢĤéħįåĻ¨":9226,"æľºåľºæİ¥éĢģ":9227,"åľ°ä¸Ńæµ·":9228,"èµ«å°Ķè¾ĽåŁº":9229,"é©¬èĢ³ä»ĸ":9230,"åĳ»åĲŁ":9231,"èĢģäººåĴĮå¹´è½»":9232,"miles":9233,",ãĢĮ":9234,"94":9235,";(":9236,"Act":9237,"Internet":9238,"Log":9239,"PN":9240,"Power":9241,"Sch":9242,"SAP":9243,"cookie":9244,"ie":9245,"Ġå¹¶":9246,"ĠæłĩåĩĨ":9247,"Ġè§£åĨ³æĸ¹æ¡Ī":9248,"çļĦéķ¿":9249,"çļĦåľ£":9250,"çļĦä¸įåĲĮ":9251,"çļĦåħ³ç³»":9252,"çļĦåĨ³å®ļ":9253,"Ġaut":9254,"åľ¨P":9255,"åľ¨åĨħ":9256,"ä¸Ģæĸ¹":9257,"åĴĮæĸ°":9258,"æľīçĶ¨":9259,"æľīæ²¡æľī":9260,"æĺ¯ä»¥":9261,"æĺ¯å¾Ī":9262,"æĪĳå¿ħ":9263,"äºĨåĩºæĿ¥":9264,"ä¸įçŁ¥":9265,"ä¸ŃæľĢ":9266,"ä»ĸå¦Ī":9267,"è¿Ļå¼ł":9268,"åı¯æĢķ":9269,"ä¸ºæĪĳä»¬":9270,"åľ°çĲĨä½įç½®":9271,"æĭĺ":9272,"ä½łèĩªå·±":9273,"éħ¯":9274,"åĪ°æĪĳ":9275,"åħ¬å¹³":9276,"æĪĳä»¬ä¸įä¼ļ":9277,"å±ł":9278,"è¾Ī":9279,"å¯¹å¥¹":9280,"å¤ļäºĨ":9281,"æīĢå¾Ĺ":9282,"æīĢè¯´":9283,"æīĢç¤º":9284,"æ±ª":9285,"ä½¿æĪĳ":9286,"ern":9287,"çĿģ":9288,"å°±ä¸į":9289,"æĸ°åŀĭ":9290,"å°ĨåĨĽ":9291,"åħ¨ä½ĵ":9292,"ç»ıçĶ±":9293,"å¼Ģè½¦":9294,"é«ĺç«¯":9295,"åĬłåĵ¥":9296,"ä¹ĭéģ¥":9297,"è¿Ľå±ķ":9298,"ä¹Łåı¯":9299,"å¿ĥæĥħ":9300,"åŃ¦èĢħ":9301,"åŃ¦åĳĺ":9302,"ä½ķæĹ¶":9303,"çľĭæ³ķ":9304,"Ġini":9305,"èĢĮéĿŀ":9306,"èģª":9307,"Ġano":9308,"001":9309,"çļĦç£":9310,"ä½¿çĶ¨åįıè®®":9311,"éĥ½å¸Ĥ":9312,"ĠEr":9313,"äºĭå®ľ":9314,"éĶ¯":9315,"ĠTour":9316,"å°ıäºİ":9317,"è¢ľ":9318,"ĠMin":9319,"èĬĴ":9320,"Ġpost":9321,"ç¼ħ":9322,"æīĭå·¥":9323,"æµ·ä¸Ĭ":9324,"æµ·æĻ¯":9325,"åıĹä¼¤":9326,"Ġony":9327,"åĲĳæĪĳä»¬":9328,"å¦ĤæŀľæĪĳä»¬":9329,"ĠFi":9330,"å¸¦åĪ°":9331,"æĹ¶éĹ´åĴĮ":9332,"åĲĦæĸ¹":9333,"ä¸ĵè¾ĳ":9334,"etail":9335,"Ġny":9336,"Ġors":9337,"Ġito":9338,"Ġhan":9339,"çĽ´èĩ³":9340,"æĳĬ":9341,"çĭ¼":9342,"Ġasc":9343,"åħĪåīį":9344,"è±«":9345,"æĢ»çĲĨ":9346,"æĢ»çĽĳ":9347,"åħįè´¹åģľè½¦":9348,"Ġkh":9349,"ä¸ľåĮĹ":9350,"åĽ¢ç»ĵ":9351,"æĻ¯èĩ´":9352,"èĢģåŁİ":9353,"èĢģæĿ¿":9354,"ç²¾å½©":9355,"oulev":9356,"çº³åħ¥":9357,"å¢ĥåĨħ":9358,"æīįæĺ¯":9359,"å¼ķåıĳ":9360,"å¸ĤåľºèĲ¥éĶĢ":9361,"éĺŁä¼į":9362,"çķĻè¨Ģ":9363,"æ²»çĲĨ":9364,"Ġjob":9365,"èĪªå¤©":9366,"æĪĲä¸ºä¸Ģä¸ª":9367,"ä¼¦å¤ļ":9368,"äºĶæľĪ":9369,"éĺ²çģ«":9370,"åį´æĺ¯":9371,"å°½æĥħ":9372,"ä¸¾è¡ĮçļĦ":9373,"åħ¸éĽħ":9374,"ä¼¯çī¹":9375,"æ¼Ķåĳĺ":9376,"Ġaven":9377,"Ġement":9378,"æĦıå¤§åĪ©è¯Ń":9379,"åĳ³éģĵ":9380,"èģĮèĥ½":9381,"Ġaiw":9382,"æ½ĺ":9383,"æĲľç´¢å¼ķæĵİ":9384,"Ġque":9385,"æĳ©æīĺ":9386,"ç½ªåŃ½":9387,"ç¼ĸè¾ĳåĻ¨":9388,"èµĦæºĲçļĦ":9389,"ç¬¬äºĮå¤©":9390,"æ£®åł¡":9391,"æŃ£åľ¨å¯»æī¾":9392,"çļ®éĿ©":9393,"è¡Ģæ¶²":9394,"æ·»åĬłåĪ°":9395,"éļĲç§ģæĿĥ":9396,"æī¹è¯Ħ":9397,"åĨľæ°ĳ":9398,"èĵĿçīĻ":9399,"ä¸ĢçĽ´åľ¨":9400,"ç¦ģçĶ¨":9401,"ç¦ģçĥŁ":9402,"1999":9403,"éº¦åħĭ":9404,"ĠShop":9405,"çŀ¬":9406,"èªĵ":9407,"éĺ´éģĵ":9408,"æľĢé«ĺçļĦ":9409,"Ġåħ¬å¯ĵè·Ŀç¦»":9410,"é¡ºåĪ©":9411,"èľ¡":9412,"å§Ĳå§Ĳ":9413,"obile":9414,"åģıå¥½":9415,"çĹĩçĬ¶":9416,"æ¹¿åº¦":9417,"ç¨ĭåº¦ä¸Ĭ":9418,"shop":9419,"ĠCamp":9420,"æ¬²æľĽ":9421,"çļĦç²¾ç¥ŀ":9422,"ç»©æķĪ":9423,"ä¸ĸçķĮåĲĦåľ°çļĦ":9424,"é¥ŃåºĹæĹħé¦Ĩ":9425,"æĿ¨æĺİ":9426,"åľ£è¯ŀèĬĤ":9427,"çĽĪåĪ©":9428,"åĵ²åŃ¦":9429,"ä¹Łå°±æĺ¯è¯´":9430,"èĬĿåĬłåĵ¥":9431,"çĲĨäºĭä¼ļ":9432,"å¥¢åįİ":9433,"ĠCorporation":9434,"æī®æ¼Ķ":9435,"èĩ³åħ³éĩįè¦ģ":9436,"Hostelworld":9437,"GHz":9438,"å¤§çĲĨçŁ³":9439,"æĭ·è´Ŀ":9440,"æµĻæ±Ł":9441,"staurant":9442,"\")":9443,"750":9444,"CAD":9445,"DC":9446,"EN":9447,"Kel":9448,"No":9449,"York":9450,"box":9451,"ca":9452,"rix":9453,"zh":9454,"ĠÅ":9455,"Ġæľī":9456,"Ġä»¥":9457,"Ġä»¥åıĬ":9458,"ĠåĲĹ":9459,"ĠæĹħé¦Ĩ":9460,"Ġå¸ĲæĪ·":9461,"Ġèĭ±æĸĩ":9462,"çļĦåıĳ":9463,"çļĦæĽ´å¤ļ":9464,"çļĦæłĩåĩĨ":9465,"çļĦåŁİå¸Ĥ":9466,"çļĦæ³ķå¾ĭ":9467,"çļĦåı¯èĥ½æĢ§":9468,"åħĨ":9469,"ä¸Ģåľº":9470,"ä¸Ģè¾Ĩ":9471,"ä¹ĸ":9472,"æĪĳå°Ĩ":9473,"æĪĳè®¤ä¸º":9474,"æīĶ":9475,"çĶ¨æ°´":9476,"ä¸įå®ī":9477,"ä¸įå¹¸":9478,"çī¢":9479,"ä¸Ńä½¿çĶ¨":9480,"åĩī":9481,"åı¯è§ģ":9482,"ä¸ºæŃ¢":9483,"åľ°å°Ĩ":9484,"ä½łäºĨ":9485,"å¤§æķĻåłĤ":9486,"éħµ":9487,"èĩ£":9488,"æĤ¨ä¸İ":9489,"ä¼ļæľī":9490,"å¦¨":9491,"æ°®":9492,"æıĲåıĬ":9493,"å¯¹ä½ł":9494,"å¯¹å¤ĸ":9495,"å¯¹å¾ħ":9496,"å¤ļä¹ħ":9497,"æľºéģĩ":9498,"çĶŁéķ¿":9499,"Ġsa":9500,"å®¶éķ¿":9501,"æĪĲåĥı":9502,"ä¸İæĪĳ":9503,"ĠSL":9504,"çĶµåı°":9505,"çĶµéĺ»":9506,"ä¿¡çļĦ":9507,"åħ¨å¹´":9508,"æĸ¯åŁº":9509,"æĸ¯å¾·":9510,"å¼Ģåı£":9511,"éĢļå¾Ģ":9512,"åı¯ä»¥å°Ĩ":9513,"é«ĺåİĭ":9514,"Ġrum":9515,"åĨħè¯Ĩ":9516,"ä¹ĭæĹ¥èµ·":9517,"ä¹Łå°Ĩ":9518,"è¯´äºĨ":9519,"åĪ¶èį¯":9520,"çļĦçĮ":9521,"éľľ":9522,"è¯·è¾ĵåħ¥":9523,"æĹ¥èĲ½":9524,"å¤©åĨħ":9525,"å°ıåİ¨æĪ¿":9526,"ä»ĸä»¬å°±":9527,"éĴĵ":9528,"èĤª":9529,"èĤ¾":9530,"ĠMI":9531,"å®ĥåľ¨":9532,"æ²¡æĥ³åĪ°":9533,"è¢«è§Ĩä¸º":9534,"æĭīç½ķ":9535,"æĺİæĺŁ":9536,"æīĭéĩĮ":9537,"çĥĤ":9538,"æ´»åĬĽ":9539,"å±ķä¼ļ":9540,"å·¥ä½ľå®¤":9541,"Ġld":9542,"Ġmy":9543,"ĠOC":9544,"éĢļè¿ĩä½¿çĶ¨":9545,"ç§ĳå°Ķ":9546,"ç³»ç»ŁåĴĮ":9547,"ç«ĭåľº":9548,"ç»Ļå¥¹":9549,"ä¸īç§į":9550,"ä»Ģä¹Īäºĭ":9551,"Ġft":9552,"æ³¨å°Ħ":9553,"æ³¨éĩĬ":9554,"Ġgu":9555,"è¯Ńæ³ķ":9556,"éĽĨä½ĵ":9557,"è®©æĤ¨çļĦ":9558,"æŁ´":9559,"åį¡çº³":9560,"å°¼åħĭ":9561,"æĸ½å·¥":9562,"ä¸¤å¹´":9563,"ä¾¿äºİ":9564,"æĬ¥è¡¨":9565,"å½¢æĢģ":9566,"æĢ»ç»ĵ":9567,"åħįè´¹æĹłçº¿ç½ĳç»ľè¿ŀæİ¥":9568,"çħ§é¡¾":9569,"Ġader":9570,"åľ£é©¬":9571,"Ġwoo":9572,"ä¸ªäººåĴĮ":9573,"åł¤":9574,"ä¿®çĤ¼":9575,"çİ¯ç»ķ":9576,"126":9577,"ä½łä»¬è¦ģ":9578,"çĶŁäº§åķĨ":9579,"æĿĲè´¨":9580,"åĳ¨å¹´":9581,"æ³¢ç½Ĺ":9582,"åģĩè®¾":9583,"åºĬåĴĮ":9584,"çŃĸåĪĴ":9585,"ç¿ł":9586,"ĠJo":9587,"Ġream":9588,"è¡£æŁľ":9589,"140":9590,"éĺ²å¾¡":9591,"æħİ":9592,"å¡ŀæµ¦":9593,"ç¬¬ä¸īèĢħ":9594,"èĤ¡ç¥¨":9595,"çĶ·äººçļĦ":9596,"åħ¸åŀĭ":9597,"è·Łéļı":9598,"èģĮåĳĺ":9599,"åıĳçĶŁåľ¨":9600,"åĵĪåĪ©":9601,"æĳ©æ´Ľ":9602,"æĳ©æĵ¦":9603,"éĶĢåĶ®é¢Ŀ":9604,"æ¾¡":9605,"åĲīå°Ķ":9606,"æķħæĦı":9607,"éĢĶå¾Ħ":9608,"èĨ¨":9609,"éĩĩçĶ¨äºĨ":9610,"çİ©ç¬ĳ":9611,"Alt":9612,"å¦Ĥæŀľä½łæĥ³":9613,"åıĳéĢģåĪ°":9614,"èĢ¶åĴĮåįİçļĦ":9615,"ç»ĵæĿŁåĲİ":9616,"çģ¯åħī":9617,"ç¯®":9618,"å¤ľéĹ´":9619,"åıĤä¸İèĢħ":9620,"æĬĺåıł":9621,"ç²īæľ«":9622,"è®¡ç®Ĺæľºä¸Ĭ":9623,"aster":9624,"ç¦»å¼ĢäºĨ":9625,"è±ªåįİéħĴåºĹ":9626,"åį¢æ£®åł¡":9627,"oda":9628,"éķľå¤´":9629,"Ġåħ¬å¯ĵä½įäºİ":9630,"Ġures":9631,"æ¯«åįĩ":9632,"åĪĢåħ·":9633,"Ġafe":9634,"åĬ¨çī©åĽŃ":9635,"Ġbert":9636,"è¿ĲèĲ¥åķĨ":9637,"çģµæ´»çļĦ":9638,"æ´Ĺè¡£æľº":9639,"é¹¿":9640,"å¹³æĸ¹èĭ±å°º":9641,"Ġetter":9642,"ç³ĸå°¿":9643,"å¼ķèµ·çļĦ":9644,"èĶ¬":9645,"çļĦç¼º":9646,"Comp":9647,"çĪĨçĤ¸":9648,"èĳ£äºĭä¼ļ":9649,"å¯¹è¯Ŀæ¡Ĩ":9650,"èĦĤèĤª":9651,"ç©Ĩæĸ¯æŀĹ":9652,"å¸¸è§ģçļĦ":9653,"åĢ¾åĲĳ":9654,"çļĦçĹĽ":9655,"Agoda":9656,"çªĹåı£ä¸Ń":9657,"ä¹Ļçĥ¯":9658,"åĲĪéĢĤçļĦ":9659,"èĽĭçĻ½è´¨":9660,"ĠDevelop":9661,"iPad":9662,"ĠCasino":9663,"SEO":9664,"æ¶²æĻ¶çĶµè§Ĩ":9665,"ĠAnton":9666,"Sweet":9667,"åħ±äº§åħļ":9668,"åĬłåĪ©ç¦ıå°¼äºļå·ŀ":9669,"Euro":9670,"ä¸ĢæĹłäºĮ":9671,"erican":9672,"å¿«éĢŁæŁ¥çľĭæĦ¿æľĽæ¸ħåįķ":9673,"æĥ©ç½ļ":9674,"Kelowna":9675,"Ġwood":9676,"å¡ŀæµ¦è·¯":9677,"!!":9678,",,":9679,"91":9680,"::":9681,"Bas":9682,"II":9683,"LM":9684,"Mo":9685,"Mat":9686,"Mag":9687,"NS":9688,"Semiconductor":9689,"âĨ":9690,"âĹ":9691,"é³":9692,"é¥¿":9693,"çļĦåİŁ":9694,"çļĦçİ¯å¢ĥ":9695,"çļĦè¿ĩç¨ĭ":9696,"çļĦæĢ§èĥ½":9697,"çļĦç½ĳé¡µ":9698,"åľ¨äºĨ":9699,"åľ¨ç½ĳä¸Ĭ":9700,"åĴĮå¥¹":9701,"åĴĮæīĢæľī":9702,"æĪĳçİ°åľ¨":9703,"å¸Ĩ":9704,"äººéĥ½":9705,"ä¸įåıĬ":9706,"ä¸įåıĺ":9707,"ä¸įåħģè®¸":9708,"ä»ĸå·²ç»ı":9709,"åĩ¶":9710,"è¿ĻæĿ¡":9711,"è¿Ļä¹Łæĺ¯":9712,"ä½łè¿ĺ":9713,"æĤĦ":9714,"ä¾ł":9715,"å¿Į":9716,"å¤§æ¡¥":9717,"å¤§å¹ħ":9718,"è¦ģæĺ¯":9719,"æĤ¨åºĶ":9720,"æĤ¨è¿ĺåı¯ä»¥":9721,"æĹ¶æĬ¥":9722,"æŀļ":9723,"æĪĸæĤ¨":9724,"é¢ł":9725,"éħĴç²¾":9726,"æĦļ":9727,"å¯¹çĿĢ":9728,"å¯¹æīĢæľī":9729,"çĶŁæ°Ķ":9730,"è¿ĩæķı":9731,"èĩªæ²»":9732,"ä¸ļçķĮ":9733,"ä¾ĽçĶµ":9734,"ĠSy":9735,"åĪĨä¹ĭ":9736,"æĢ§æĪĸ":9737,"ĠCast":9738,"åħ¨æĸĩ":9739,"æĽ´æľī":9740,"åĲĪä¼Ļ":9741,"å¼ĢæºĲ":9742,"åĨħå¿ĥ":9743,"éĽĢ":9744,"è¯´è¿ĩ":9745,"Ġ)-":9746,"èģĸ":9747,"çļĦç¿":9748,"çļĦçķ":9749,"çļĦçŁ³":9750,"ond":9751,"ä½ĵåĨħ":9752,"éĥ¨ä½į":9753,"ä¸»äºº":9754,"åķĨåŁİ":9755,"ĠPe":9756,"lex":9757,"ĠMot":9758,"Ġcol":9759,"äºļå¤ª":9760,"ĠDel":9761,"æł¼éĩĮ":9762,"æł¼æĭī":9763,"è§£æŀĲ":9764,"æĥ³çĿĢ":9765,"ĠyçļĦå·¥ä½ľæĹ¶éĹ´":9766,"ĠLog":9767,"æĿĥäºº":9768,"æĿĥçĽĬ":9769,"åįķä¸ª":9770,"åĲĳä¸ĭ":9771,"Ġati":9772,"åħĭæľį":9773,"å¦Ĥæŀľæ²¡æľī":9774,"ĠFre":9775,"åıªå¥½":9776,"èĥĥ":9777,"ä»¥åıĬåľ¨":9778,"ç«ĭéĻ¶":9779,"ä¸ĵæľī":9780,"ç»Ļä½łä»¬":9781,"ä¸īç»´":9782,"çº¦çĳŁ":9783,"Ġnet":9784,"æºĥ":9785,"åıĺéĢģ":9786,"ĠNatural":9787,"çľŁä¸»":9788,"å¿ħçĦ¶":9789,"ä¼ĺå¼Ĥ":9790,"çĽ´æµģ":9791,"æĽ´å¤ļå®¢æĪ¿":9792,"è¿Ļä¸ªåľ°æĸ¹":9793,"å¥³åŃĲ":9794,"åįģåĽĽ":9795,"åįģä¸ĥ":9796,"å¨ĥ":9797,"ĠUC":9798,"è®¢æĪ¿":9799,"Ġingap":9800,"èĮİ":9801,"ä¸ªäººæķ°æį®":9802,"Ġouse":9803,"èĬĤèĥ½":9804,"ä»ħåľ¨":9805,"é¥²":9806,"ĠKS":9807,"çº³ç±³":9808,"ç¼ĸè¯ĳ":9809,"è¿Ļæĺ¯ä»Ģä¹Ī":9810,"æ¬¢ä¹Ĳ":9811,"å¸®åĬ©ä½ł":9812,"çĭ¬ä¸ĢæĹłäºĮ":9813,"å¾ĢæĿ¥":9814,"æ·±æ·±":9815,"ĠÃ¤":9816,"ç©¶ç«Ł":9817,"Ġomb":9818,"åĲ«ä¹ī":9819,"æŀģä¸º":9820,"çļĦåľ°åĮº":9821,"äºĨä¸Ģä¼ļ":9822,"æİĴåºı":9823,"idence":9824,"å¾®å¾®":9825,"å±ĤéĿ¢":9826,"çıŃè½¦":9827,"åĨĻçļĦ":9828,"ä¸ļåĬ¡çļĦ":9829,"åį´æ²¡æľī":9830,"Ġ500":9831,"çŃ¾è®¢":9832,"itrix":9833,"Ġaph":9834,"æł¡åĽŃ":9835,"æ¿ĢçĥĪ":9836,"åħ¸åŀĭçļĦ":9837,"èĪ¹èĪ":9838,"å¿ĹæĦ¿":9839,"çļĦäºĭä»¶":9840,"Ġumb":9841,"åºķéĥ¨":9842,"åŁºçĿ£çļĦ":9843,"äºĳè®¡ç®Ĺ":9844,"Ġoff":9845,"ç¬¬äºĮæ¬¡":9846,"èį¯åĵģ":9847,"èĨĿ":9848,"æİ¢æµĭ":9849,"çªģåĩº":9850,"èģļä¼ļ":9851,"åĩĨå¤ĩå¥½":9852,"Wik":9853,"ç¨İæĶ¶":9854,"èĢ³æľµ":9855,"1998":9856,"ä»·åĢ¼è§Ĥ":9857,"æ»ĳéĽª":9858,"èĦ±ç¦»":9859,"ĠDeut":9860,"æĢĢåŃķ":9861,"å°ļæľª":9862,"å°ģè£ħ":9863,"Ġnect":9864,"éĻįä½İäºĨ":9865,"Ġize":9866,"Suite":9867,"Prov":9868,"å®«æ®¿":9869,"å¼ĢæĶ¾å¼ı":9870,"Ġpert":9871,"çİĽä¸½":9872,"è¿ĻéĹ´åħ¬å¯ĵ":9873,"ĠClub":9874,"èĥľåĪ©":9875,"åĺ´åĶĩ":9876,"éĻĪè¿°":9877,"å«Į":9878,"å³°ä¼ļ":9879,"æ¶ĤæĸĻ":9880,"ç§ĴæĿĢ":9881,"ç¥Ŀç¦ı":9882,"å¤©çĦ¶æ°Ķ":9883,"éĢĲæŃ¥":9884,"æĳĦåĥıæľº":9885,"ä»¿ä½Ľ":9886,"è¶³å¤ŁçļĦ":9887,"å¼¯æĽ²":9888,"åŀĤçĽ´":9889,"åĻªå£°":9890,"ä»İæĿ¥æ²¡æľī":9891,"æľºç¥¨é¢Ħè®¢":9892,"Ġbourne":9893,"äºļä¼¯æĭīç½ķ":9894,"çĥ¹é¥ª":9895,"åĴ±ä»¬":9896,"here":9897,"å¥¥æŀĹåĮ¹":9898,"äº¤åıĭåĴĮäº¤åıĭä¸ļå¤§ä¼ļ":9899,"åĲĮæĢ§æģĭ":9900,"century":9901,"ç«ĭéĻ¶å®Ľ":9902,"5000":9903,"96":9904,"CSS":9905,"Ltd":9906,"Mil":9907,"Mot":9908,"Not":9909,"Rob":9910,"Sim":9911,"Ul":9912,"look":9913,"oenix":9914,"right":9915,"yright":9916,"ºçī²":9917,"åļ":9918,"ĠæĶ¯æĮģ":9919,"Ġä¹ĭéĹ´":9920,"Ġæī¾åĪ°":9921,"Ġ2014":9922,"Ġ2013":9923,"Ġæł¼å¼ı":9924,"çļ±":9925,"çļĦéľĢè¦ģ":9926,"çļĦéĥ¨åĪĨ":9927,"çļĦåĮºåŁŁ":9928,"çļĦæķĪæŀľ":9929,"çļĦä»»åĬ¡":9930,"åľ¨æīĢæľī":9931,"ä¸Ģæ¬¾":9932,"åĴĮæĽ´":9933,"åĴĮæĤ¨çļĦ":9934,"æĺ¯éĢļè¿ĩ":9935,"æĪĳçľĭ":9936,"æĪĳä¸įæĺ¯":9937,"æĪĳå¸ĮæľĽ":9938,"Ġoz":9939,"ãĢģ\"":9940,"åĨ¯":9941,"çīºçī²":9942,"ä»¥å¾Ģ":9943,"ä¿ª":9944,"è´º":9945,"åĮł":9946,"ä¸ºèĩªå·±":9947,"å¤§è§Ħæ¨¡":9948,"éħª":9949,"æĤ¨ä¸įå¾Ĺ":9950,"åħ¬åħĥ":9951,"å½Ń":9952,"æĪĳä»¬ä½¿çĶ¨":9953,"Ġuch":9954,"å¯¹éĿ¢":9955,"å¤ļä¼¦å¤ļ":9956,"åĩºç¤º":9957,"å·¥åķĨ":9958,"Ġsl":9959,"å¦ĤéľĢ":9960,"ä¸İåħ¶":9961,"ä¸İæľįåĬ¡":9962,"ä¾ĽæĤ¨":9963,"æľ¬äºº":9964,"æľ¬ä½¿çĶ¨åįıè®®":9965,"ĠSte":9966,"ĠSol":9967,"ĠSex":9968,"ĠSoft":9969,"åĪĨæĶ¯":9970,"æľĢåħ·":9971,"ĠCode":9972,"æ³ķæ¡Ī":9973,"æĸ¯éĩĮ":9974,"å¼Ģè®¾":9975,"é«ĺçŃī":9976,"å®¢äººçļĦ":9977,"åĬłåºĬ":9978,"è¯´ä»Ģä¹Ī":9979,"å¥¹åľ¨":9980,"åĪ¶æĪĲ":9981,"åĪ¶åĨ·":9982,"èĢĮå·²":9983,"æĦıåĽ¾":9984,"åĻ¨æĿĲ":9985,"åĻ¨æ¢°":9986,"éĤ£å°±":9987,"ä½¿çĶ¨æľ¬ç½ĳç«Ļ":9988,"ä¸»æķĻ":9989,"éĥ½å°Ĩ":9990,"è½¦è½®":9991,"æĥħäºº":9992,"å¤©æĸĩ":9993,"å¤©çº¿":9994,"å¼ıåħ¬å¯ĵ":9995,"ĠPol":9996,"å°ıåĲĥ":9997,"å°ıå§Ĳ":9998,"å®īä¸ľ":9999}