{"<pad>":0,"<mask>":1,"<unk>":2,"<s>":3,"</s>":4,"!":5,"\"":6,"#":7,"$":8,"%":9,"&":10,"'":11,"(":12,")":13,"*":14,"+":15,",":16,"-":17,".":18,"/":19,"0":20,"1":21,"2":22,"3":23,"4":24,"5":25,"6":26,"7":27,"8":28,"9":29,":":30,";":31,"<":32,"=":33,">":34,"?":35,"@":36,"A":37,"B":38,"C":39,"D":40,"E":41,"F":42,"G":43,"H":44,"I":45,"J":46,"K":47,"L":48,"M":49,"N":50,"O":51,"P":52,"Q":53,"R":54,"S":55,"T":56,"U":57,"V":58,"W":59,"X":60,"Y":61,"Z":62,"[":63,"\\":64,"]":65,"^":66,"_":67,"`":68,"a":69,"b":70,"c":71,"d":72,"e":73,"f":74,"g":75,"h":76,"i":77,"j":78,"k":79,"l":80,"m":81,"n":82,"o":83,"p":84,"q":85,"r":86,"s":87,"t":88,"u":89,"v":90,"w":91,"x":92,"y":93,"z":94,"{":95,"|":96,"}":97,"~":98,"¡":99,"¢":100,"£":101,"¤":102,"¥":103,"¦":104,"§":105,"¨":106,"©":107,"ª":108,"«":109,"¬":110,"®":111,"¯":112,"°":113,"±":114,"²":115,"³":116,"´":117,"µ":118,"¶":119,"·":120,"¸":121,"¹":122,"º":123,"»":124,"¼":125,"½":126,"¾":127,"¿":128,"À":129,"Á":130,"Â":131,"Ã":132,"Ä":133,"Å":134,"Æ":135,"Ç":136,"È":137,"É":138,"Ê":139,"Ë":140,"Ì":141,"Í":142,"Î":143,"Ï":144,"Ð":145,"Ñ":146,"Ò":147,"Ó":148,"Ô":149,"Õ":150,"Ö":151,"×":152,"Ø":153,"Ù":154,"Ú":155,"Û":156,"Ü":157,"Ý":158,"Þ":159,"ß":160,"à":161,"á":162,"â":163,"ã":164,"ä":165,"å":166,"æ":167,"ç":168,"è":169,"é":170,"ê":171,"ë":172,"ì":173,"í":174,"î":175,"ï":176,"ð":177,"ñ":178,"ò":179,"ó":180,"ô":181,"õ":182,"ö":183,"÷":184,"ø":185,"ù":186,"ú":187,"û":188,"ü":189,"ý":190,"þ":191,"ÿ":192,"Ā":193,"ā":194,"Ă":195,"ă":196,"Ą":197,"ą":198,"Ć":199,"ć":200,"Ĉ":201,"ĉ":202,"Ċ":203,"ċ":204,"Č":205,"č":206,"Ď":207,"ď":208,"Đ":209,"đ":210,"Ē":211,"ē":212,"Ĕ":213,"ĕ":214,"Ė":215,"ė":216,"Ę":217,"ę":218,"Ě":219,"ě":220,"Ĝ":221,"ĝ":222,"Ğ":223,"ğ":224,"Ġ":225,"ġ":226,"Ģ":227,"ģ":228,"Ĥ":229,"ĥ":230,"Ħ":231,"ħ":232,"Ĩ":233,"ĩ":234,"Ī":235,"ī":236,"Ĭ":237,"ĭ":238,"Į":239,"į":240,"İ":241,"ı":242,"Ĳ":243,"ĳ":244,"Ĵ":245,"ĵ":246,"Ķ":247,"ķ":248,"ĸ":249,"Ĺ":250,"ĺ":251,"Ļ":252,"ļ":253,"Ľ":254,"ľ":255,"Ŀ":256,"ŀ":257,"Ł":258,"ł":259,"Ń":260,"Ġt":261,"Ġa":262,"in":263,"he":264,"on":265,"er":266,"re":267,"Ġthe":268,"at":269,"Ġs":270,"or":271,"nd":272,"es":273,"it":274,"Ġo":275,"Ġc":276,"en":277,"Ġw":278,"is":279,"ou":280,"an":281,"Ġf":282,"Ġp":283,"al":284,"ing":285,"ed":286,"Ġand":287,"ar":288,"Ġb":289,"Ġof":290,"Ġm":291,"Ġin":292,"ion":293,"Ġto":294,"ic":295,"Ġd":296,"ro":297,"le":298,"as":299,"Ġh":300,"ent":301,"el":302,"om":303,"il":304,"ct":305,"ĠS":306,"st":307,"ĠC":308,"Ġth":309,"Ġre":310,"ot":311,"et":312,"Ġy":313,"Ġl":314,"Ġn":315,"ation":316,"Ġe":317,"Ġyou":318,"ow":319,"ur":320,"id":321,"ĠA":322,"ut":323,"us":324,"ol":325,"Ġis":326,"ac":327,"ve":328,"Ġg":329,"ig":330,"ĠP":331,"ĠI":332,"im":333,"Ġfor":334,"am":335,"ad":336,"ĠT":337,"ĠM":338,"Ġon":339,"ay":340,"ers":341,"ith":342,"Ġbe":343,"ly":344,"Ġpro":345,"ch":346,"ce":347,"ir":348,"Ġwith":349,"ĠB":350,"ag":351,"ter":352,"Ġhe":353,"Ġst":354,"ver":355,"ĠH":356,"ment":357,"est":358,"Ġcon":359,"ĠD":360,"ul":361,"Ġor":362,"ri":363,"ĠL":364,"Ġan":365,"ab":366,"Ġ(":367,"ess":368,"od":369,"ĠR":370,"ap":371,"Ġthat":372,"un":373,"os":374,"ĠF":375,"Ġal":376,"if":377,"Ġit":378,"The":379,"qu":380,"Ġ1":381,"ity":382,"ort":383,"ĠG":384,"em":385,"and":386,"Ġas":387,"ant":388,"Ġcom":389,"Ġ2":390,"Ġare":391,"ate":392,"igh":393,"her":394,"op":395,"ore":396,"ain":397,"art":398,"ill":399,"ist":400,"ĠE":401,"ure":402,"Ġv":403,"rom":404,"ĠW":405,"ew":406,"Ġwh":407,"pp":408,"ect":409,"Ġfrom":410,"Ġyour":411,"Ġnot":412,"Ġex":413,"Ġde":414,"Ġr":415,"Ġwas":416,"ust":417,"Ġus":418,"ies":419,"ak":420,"ĠN":421,"um":422,"Ġat":423,"Ġsh":424,"oc":425,"age":426,"ld":427,"Ġk":428,"se":429,"ĠU":430,"our":431,"iv":432,"Ġse":433,"ight":434,"âĢ":435,"Ġsu":436,"Ġby":437,"res":438,"otel":439,"00":440,"nt":441,"ave":442,"ail":443,"all":444,"Ġcan":445,"ard":446,"ive":447,"ang":448,"Ġtr":449,"pe":450,"'s":451,"Ġthis":452,"ĠO":453,"per":454,"Ġ-":455,"ice":456,"out":457,"for":458,"ia":459,"Ġwe":460,"ine":461,"ial":462,"Ġch":463,"du":464,"act":465,"cc":466,"ok":467,"ud":468,"og":469,"are":470,"ost":471,"pt":472,"Ġall":473,"able":474,"ĠV":475,"ide":476,"Ġcomp":477,"ear":478,"ĠCh":479,"Ġu":480,"erv":481,"form":482,"Ġhave":483,"ast":484,"ell":485,"Ġle":486,"ions":487,"ip":488,"ĠJ":489,"Ġwill":490,"ork":491,"ated":492,"ther":493,"ite":494,"Ġcont":495,"ong":496,"ĠIn":497,"Ġme":498,"rou":499,"ĠSt":500,"Ġdo":501,"th":502,"port":503,"av":504,"ire":505,"hen":506,"ry":507,"ance":508,"ĠK":509,"ree":510,"ome":511,"Ġad":512,"Ġen":513,"iz":514,"ff":515,"ack":516,"duct":517,"ical":518,"ib":519,"Ġab":520,"lo":521,"Ġ3":522,"ations":523,"Ġpl":524,"ach":525,"lic":526,"Ġany":527,"ace":528,"Ġres":529,"gh":530,"ans":531,"Ġacc":532,"ark":533,"ind":534,"cl":535,"ame":536,"Ġman":537,"ich":538,"01":539,"ign":540,"ook":541,"ile":542,"Ġ\"":543,"fer":544,"Ġim":545,"Ġ,":546,"Ġgo":547,"Ġne":548,"ub":549,"ould":550,"ous":551,"Ġapp":552,"Ġro":553,"ult":554,"ge":555,"ĠThe":556,"Ġun":557,"Ġso":558,"Ġour":559,"lect":560,"Ġj":561,"ime":562,"ord":563,"Ġint":564,"ount":565,"Ġhas":566,"Ġup":567,"Ġmore":568,"ik":569,"ase":570,"ence":571,"ass":572,"ress":573,"ue":574,"Ġother":575,"Ġte":576,"Ġcl":577,"Ġhis":578,"own":579,"Ġbut":580,"so":581,"tern":582,"Th":583,"formation":584,"very":585,"vel":586,"one":587,"Ġher":588,"In":589,"pl":590,"Ġdis":591,"Ġout":592,"Ġpart":593,"ake":594,"ie":595,"iew":596,"ber":597,"ition":598,"ru":599,"Ġwhich":600,"ater":601,"Ġag":602,"Ġper":603,"ary":604,"Ġserv":605,"ra":606,"Ġsa":607,"ose":608,"ens":609,"ĠHotel":610,"Ġprov":611,"ish":612,"Ġ4":613,"ont":614,"ual":615,"Ġ.":616,"ices":617,"ft":618,"Ġhotel":619,"ep":620,"ings":621,"Ġone":622,"Ġdes":623,"yst":624,"ments":625,"ors":626,"Ġqu":627,"ond":628,"com":629,"Ġtime":630,"Ġtheir":631,"Ġproduct":632,"ound":633,"ll":634,"ational":635,"end":636,"Ġ/":637,"ates":638,"ov":639,"Ġabout":640,"Ġkn":641,"Ġuse":642,"Ġar":643,"ĠY":644,"Ġ201":645,"Ġthey":646,"ystem":647,"Ġinformation":648,"Ġ5":649,"Ġpr":650,"erm":651,"Ġalso":652,"Ġspe":653,"clud":654,"ian":655,"Ġits":656,"Ġsp":657,"ick":658,"ities":659,"..":660,"Ġind":661,"Ġoff":662,"Ġwork":663,"Ġshe":664,"It":665,"ild":666,"ility":667,"low":668,"ays":669,"Ġthem":670,"bs":671,"Ġmy":672,"reat":673,"ory":674,"chn":675,"ven":676,"ink":677,"olog":678,"cre":679,"Ġhim":680,"ata":681,"Ġfe":682,"Ġthere":683,"ĠPro":684,"ng":685,"Ġhad":686,"This":687,"cess":688,"Ġnew":689,"Ġpre":690,"ina":691,"ĠUn":692,"Ġwho":693,"ely":694,"Ġmap":695,"ÃĤ":696,"ck":697,"ature":698,"int":699,"ade":700,"ere":701,"old":702,"ise":703,"Ġrequ":704,"Ġinclud":705,"ĠRe":706,"orld":707,"anc":708,"ited":709,"part":710,"any":711,"ents":712,"itt":713,".\"":714,"Ġyear":715,"ĠâĢ":716,"Ġpe":717,"gr":718,"velop":719,"Ġmay":720,"Ġdet":721,"ific":722,"Ġcomm":723,"Ġloc":724,"use":725,"ons":726,"ject":727,"Ġrel":728,"We":729,"Ġwhen":730,"nder":731,"ric":732,"riv":733,"Ġav":734,"'t":735,"Ġsystem":736,"Ġroom":737,"ne":738,"rough":739,"Re":740,"Ġinto":741,"ower":742,"ics":743,"here":744,"Ġam":745,"Ġsuch":746,"iness":747,"ood":748,"ating":749,"ike":750,"amp":751,"ob":752,"enter":753,"etw":754,"hed":755,"les":756,"te":757,"Ġover":758,"You":759,"ange":760,"ines":761,"Wh":762,"ople":763,"Ġsaid":764,"Ġif":765,"urn":766,"Ġright":767,"Ġadd":768,"ĠCom":769,"ious":770,"Ġtrans":771,"ested":772,"Ġknow":773,"ove":774,"row":775,"Ġem":776,"Ġreg":777,"Ġonly":778,"ath":779,"Ġneed":780,"aw":781,"usiness":782,"Ġno":783,"Ġ6":784,"Ġthan":785,"ĠSe":786,"ĠSh":787,"Ġbeen":788,"Ġhigh":789,"Ġsupp":790,"ert":791,"Ġavail":792,"Ġco":793,"Ġinter":794,"Ġwhat":795,"irst":796,"Ġact":797,"Ġwant":798,"ĠTh":799,"cial":800,"Ġpers":801,"ible":802,"ty":803,"Ã¢":804,"portant":805,"Ġmod":806,"ful":807,"Ġph":808,"Ġwere":809,"land":810,"ai":811,"enc":812,"ning":813,"iss":814,"Ġdata":815,"ally":816,"ustom":817,"ails":818,"Ġcons":819,"chnolog":820,"âĤ":821,"Ġshow":822,"Ġimp":823,"âĤ¬":824,"Ġ)":825,"Ġdevelop":826,"Ġ19":827,"ied":828,"fter":829,"Ġpeople":830,"ĠDe":831,"Ch":832,"Ġsc":833,"ware":834,"Ġtw":835,"ock":836,"Ġbr":837,"ax":838,"Ġ7":839,"Ġunder":840,"round":841,"ss":842,"Ġgu":843,"ool":844,"He":845,"If":846,"ife":847,"Ġcol":848,"âĢĻ":849,"Ġthrough":850,"Ġworld":851,"Ġprovid":852,"pen":853,"ough":854,"ĠChina":855,"lp":856,"olut":857,"fore":858,"Ġlike":859,"xt":860,"ank":861,"Ġrec":862,"oy":863,"Ġcar":864,"mer":865,"uring":866,"Sh":867,"Ġlook":868,"iles":869,"ĠWe":870,"irect":871,"ality":872,"Ġbec":873,"ries":874,"Ġmin":875,"ĠAr":876,"ages":877,"air":878,"RL":879,"ener":880,"ternational":881,"Ġexp":882,"Ġmost":883,"ption":884,"Ġfirst":885,"âĢĿ":886,"arket":887,"Ġbu":888,"wn":889,"Ġhow":890,"els":891,"ouse":892,"Ġthese":893,"Ġ0":894,"ection":895,"view":896,"Ġsee":897,"Ġinst":898,"Ġ9":899,"io":900,"Ġprocess":901,"Ġhelp":902,"Ġ&":903,"Ġexper":904,"ular":905,"way":906,"oth":907,"Ġperson":908,"Ġ8":909,"ren":910,"Ġservice":911,"ience":912,"Ġbusiness":913,"Ġsm":914,"lease":915,"ĠURL":916,"Ġgr":917,"Ġjust":918,"Ġdesign":919,"ient":920,"Ġset":921,"Ġavailable":922,"ours":923,"ased":924,"Ġget":925,").":926,"ĠGod":927,"ause":928,"Ġsome":929,"Ġwould":930,"ee":931,"Ġapplic":932,"Ġback":933,"elf":934,"Ġcustom":935,"oint":936,"ys":937,"Ġmet":938,"Ġaccess":939,"Ġdif":940,"Ġass":941,"Ġfl":942,"oss":943,"alk":944,"Ġsec":945,"Ġeff":946,"load":947,"Ġrem":948,"vent":949,"Ġcre":950,"Ġshall":951,"Ġgood":952,"Ġaut":953,"rol":954,"ts":955,"Ġvis":956,"ĠTe":957,"Ġdown":958,"ĠEx":959,"Ġyears":960,"Ġ:":961,"Ġfound":962,"ĠBe":963,"ier":964,"Ġdetails":965,"Ġwell":966,"partment":967,"gan":968,"Ġtwo":969,"ability":970,"Ġkm":971,"rib":972,"Ġatt":973,"Ġvery":974,"apter":975,"ruct":976,"Ġke":977,"line":978,"Ġthen":979,"ĠServ":980,"Ġresp":981,"con":982,"Ġfree":983,"Ġser":984,"Ġ10":985,"Ġmake":986,"chnology":987,"ily":988,"Ġhand":989,"ĠNew":990,"Ġevery":991,"pr":992,"ner":993,"ness":994,"Ġdid":995,".,":996,"ĠRo":997,"Ġac":998,"ivers":999,"ble":1000,"led":1001,"Ġcount":1002,"Ġval":1003,"Im":1004,"Ġmon":1005,"ĠTr":1006,"Ġagain":1007,"ĠAd":1008,"?\"":1009,"roup":1010,"als":1011,"Ġ200":1012,"ublic":1013,"),":1014,"And":1015,"Ġhotels":1016,"Ġequ":1017,"Ġbl":1018,"ĠIt":1019,"Ġused":1020,"au":1021,"ĠCo":1022,"âĢľ":1023,"How":1024,"een":1025,"Ġproducts":1026,"co":1027,"ests":1028,"ĠZ":1029,"ollow":1030,"Ġche":1031,"Ġmain":1032,"der":1033,"hes":1034,"ron":1035,"Ġmany":1036,"ident":1037,"What":1038,"Ġbel":1039,"get":1040,"Ġoffer":1041,"ĠSu":1042,"Ġshould":1043,"ize":1044,"ting":1045,"its":1046,"min":1047,"Ġnow":1048,"Ġoper":1049,"10":1050,"Ġinv":1051,"Ġindust":1052,"bsite":1053,"ĠQ":1054,"Ġair":1055,"Ġpol":1056,"eng":1057,"Ġcomple":1058,"Ġservices":1059,"For":1060,"ward":1061,"ah":1062,"az":1063,"ĠPl":1064,"Ġown":1065,"ral":1066,"Ġty":1067,"other":1068,"Ġnear":1069,"agement":1070,"Ġafter":1071,"ites":1072,"arm":1073,"Ġform":1074,"Ġoffers":1075,"ures":1076,"ĠUnited":1077,"ix":1078,"ative":1079,"Ġdiffer":1080,"ces":1081,"ĠMan":1082,"Ġsub":1083,"eld":1084,"ized":1085,"Ġhere":1086,"Ġlong":1087,"Ġway":1088,"Ġlife":1089,"arch":1090,"Ġeven":1091,"Ġrequire":1092,"hing":1093,"Ġwhere":1094,"Ġcur":1095,"ĠUS":1096,"ĠX":1097,"ale":1098,"ĠHe":1099,"Ġincluding":1100,"ug":1101,"ator":1102,"Ġcould":1103,"lish":1104,"ern":1105,"Ġpower":1106,"edia":1107,"Ġfollow":1108,"ĠSp":1109,"ĠGu":1110,"Important":1111,"less":1112,"ĠIs":1113,"19":1114,"°æ":1115,"ĠDat":1116,"Ġproper":1117,"ftware":1118,"è¡":1119,"aterial":1120,"æķ":1121,"Ġpass":1122,"ĠFr":1123,"Ġcontrol":1124,"Ġday":1125,"è¡¨":1126,"cept":1127,"Ġsupport":1128,"į®":1129,"Ġdist":1130,"°æį®":1131,"æķ°æį®":1132,"Ġconf":1133,"æķ°æį®è¡¨":1134,"etween":1135,"heet":1136,"Ġbest":1137,"Ġstand":1138,"ital":1139,"tain":1140,"Ġpur":1141,"Ġmarket":1142,"ER":1143,"up":1144,"Show":1145,"Ġhours":1146,"iet":1147,"Ġrep":1148,"Ġprof":1149,"Ġdel":1150,"Requ":1151,"gy":1152,"aking":1153,"ĠAnd":1154,"ute":1155,"Ġdoes":1156,"Ġnum":1157,"ract":1158,"ather":1159,"ĠRes":1160,"resent":1161,"red":1162,"Ġob":1163,"30":1164,"uss":1165,"IN":1166,"rit":1167,"Ġbetween":1168,"ows":1169,"hip":1170,"Ġusing":1171,"iqu":1172,"Ġbefore":1173,"Requested":1174,"Ġsim":1175,"ĠInd":1176,"ants":1177,"Ġins":1178,"ional":1179,"Ġprot":1180,"ĠâĢĵ":1181,"uch":1182,"Ġview":1183,"Ġdon":1184,"ural":1185,"But":1186,"ph":1187,"Ġsur":1188,"to":1189,"ĠCl":1190,"Ġadv":1191,"lick":1192,"ene":1193,"ĠCont":1194,"Ġful":1195,"Ġdirect":1196,"Ġsame":1197,"Ġcap":1198,"ON":1199,"arge":1200,"room":1201,"asheet":1202,"TM":1203,"ĠPage":1204,"St":1205,"Ġfac":1206,"Ġrest":1207,"Ġname":1208,"000":1209,"ĠCon":1210,"Ġstud":1211,"ipp":1212,"ars":1213,"ĠDatasheet":1214,"Ġfin":1215,"Ġmach":1216,"She":1217,"ict":1218,"50":1219,"ilities":1220,"Ġstr":1221,"Ġmust":1222,"iron":1223,"Ġwithout":1224,"Ġext":1225,"gram":1226,"Ġelect":1227,"Ġend":1228,"OR":1229,"ec":1230,"Ġed":1231,"Ġopen":1232,"Ġmaterial":1233,"aph":1234,"Pro":1235,"Ġcompany":1236,"Ġdev":1237,"20":1238,"Ġmade":1239,"Ġgener":1240,"icro":1241,"Ġgreat":1242,"Ġperform":1243,"Ġcor":1244,"Ġresult":1245,",\"":1246,"Ġfr":1247,"Ġmem":1248,"ĠPh":1249,"cri":1250,"arg":1251,"ple":1252,"ration":1253,"ĠAn":1254,"Ġfeature":1255,"ced":1256,"ĠEng":1257,"Ġenter":1258,"aly":1259,"Ġwithin":1260,"There":1261,"Ġdifferent":1262,"Ġeach":1263,"ĠAl":1264,"rist":1265,"Ġmiles":1266,"outh":1267,"ince":1268,"Ġbre":1269,"Ġquality":1270,"etwork":1271,"ever":1272,"Ġtake":1273,"Ġbo":1274,"Ġcond":1275,"ĠAir":1276,"fact":1277,"Ad":1278,"Ġfam":1279,"ets":1280,"ision":1281,"ives":1282,"...":1283,"atch":1284,"ium":1285,"por":1286,"Ġcity":1287,"Ġthink":1288,"rent":1289,"Ġprovide":1290,"Ġsolut":1291,"Ġlist":1292,"Ġterm":1293,"Ġcent":1294,"ann":1295,"omm":1296,"Ġdevelopment":1297,"Ġent":1298,"ues":1299,"acy":1300,"Ġstart":1301,"Ġvar":1302,"ird":1303,"Ġfind":1304,"ersion":1305,"è¯":1306,"Ġrece":1307,"Ġconn":1308,"Ġspec":1309,"Ġchild":1310,"ote":1311,"utes":1312,"Ġsay":1313,"Ġarea":1314,"ç»":1315,"ç´":1316,"ĠLe":1317,"orn":1318,"Ġfun":1319,"Ġbook":1320,"Ġwater":1321,"Ġlead":1322,"ically":1323,"Ġeas":1324,"ĠPr":1325,"Ġ@":1326,"Ĩæ":1327,"ization":1328,"Ġrooms":1329,"Ĳľ":1330,"ĠStates":1331,"è¯¦":1332,"ç´¢":1333,"Ĳľç´¢":1334,"As":1335,"day":1336,"Ġtechnology":1337,"Ġcho":1338,"ç»Ĩæ":1339,"è¯¦ç»Ĩæ":1340,"è¯¦ç»ĨæĲľç´¢":1341,"Ġ>":1342,"ering":1343,"ode":1344,"Ġplace":1345,"tic":1346,"Ġcall":1347,"asp":1348,"Ġdec":1349,"ton":1350,"Ġproject":1351,"Ġcle":1352,"Ġbecause":1353,"ism":1354,"ished":1355,"aur":1356,"td":1357,"riend":1358,"aut":1359,"ĠÃ¢":1360,"Ġlaw":1361,"Ġvide":1362,"erry":1363,"ĠInternational":1364,"ĠComp":1365,"Ġsign":1366,"itions":1367,"ected":1368,"Ġboth":1369,"Ġdef":1370,"urity":1371,"Ġlevel":1372,"Work":1373,"Ġreal":1374,"avel":1375,"ek":1376,"und":1377,"Ġret":1378,"Ġev":1379,"Ġdisc":1380,"Ġnumber":1381,"ield":1382,"Ġread":1383,"alth":1384,"omet":1385,"ared":1386,"AN":1387,"AT":1388,"iver":1389,"ery":1390,"Ġaccount":1391,"ified":1392,"ccess":1393,"Ġopt":1394,"rive":1395,"ody":1396,"To":1397,"Ġtem":1398,"ames":1399,"Ġstay":1400,"Ġbed":1401,"ĠBl":1402,"ify":1403,"Ġcommun":1404,"Ġlight":1405,"Hotel":1406,"Ġspecial":1407,"Chapter":1408,"Ġsw":1409,"Ġinf":1410,"Ġorder":1411,"Ġaway":1412,"ĠCity":1413,"conom":1414,"Ġpriv":1415,"Ġcontin":1416,"ĠÃĤ":1417,"Ġexperience":1418,"Ġtrad":1419,"Ġ[":1420,"Ġcontent":1421,"ash":1422,"ufact":1423,"imes":1424,"oun":1425,"Ġcert":1426,"uc":1427,"read":1428,"self":1429,"rop":1430,"Ġthose":1431,"vern":1432,"ins":1433,"Ġ15":1434,"Ġaround":1435,"Ġ12":1436,"Ġ18":1437,"Ġsite":1438,"ternet":1439,"Ġphot":1440,"ex":1441,"ten":1442,"Ġmuch":1443,"Ġreview":1444,"ĠDes":1445,"ross":1446,"inese":1447,"stand":1448,"ĠCent":1449,"Ġref":1450,"When":1451,"Ġbuild":1452,"ownload":1453,"Ġpersonal":1454,"iversity":1455,"aj":1456,"app":1457,"Ġcome":1458,"pend":1459,"Ġwebsite":1460,"Ġlocated":1461,"Ġautom":1462,"201":1463,"ux":1464,"ĠFor":1465,"Ġplay":1466,"ted":1467,"Ġpage":1468,"ury":1469,"iving":1470,"Ġcontact":1471,"Ġsoftware":1472,"ommod":1473,"Ġwalk":1474,"Ġprogram":1475,"ipment":1476,"Ġpartic":1477,"EN":1478,"ĠAs":1479,"Ġvisit":1480,"Ġagree":1481,"ĠService":1482,"Ġselect":1483,"Ġmeet":1484,"Ġimpro":1485,"Working":1486,"Ġwhile":1487,"Ġhome":1488,"bo":1489,"Ġincre":1490,"ung":1491,"12":1492,"ĠMar":1493,"Ġ20":1494,"hor":1495,"Ġtest":1496,"aster":1497,"uman":1498,"ĠYou":1499,"Ġsk":1500,"ency":1501,"af":1502,"Ġtop":1503,"ction":1504,"Ġeffect":1505,"Ġcost":1506,"orth":1507,"ains":1508,"Ġactiv":1509,"Ġindustry":1510,"Ġorgan":1511,"Ġmanagement":1512,"Ġhouse":1513,"loy":1514,"icy":1515,"lob":1516,"On":1517,"viron":1518,"ually":1519,"Ġpost":1520,"Ġproduction":1521,"Ġposs":1522,"pos":1523,"ination":1524,"of":1525,"Ġold":1526,"ĠPol":1527,"Ġ$":1528,"ards":1529,"All":1530,"Ġpublic":1531,"Ġtool":1532,"Ġnetwork":1533,"aspx":1534,"err":1535,"Ġask":1536,"Ġgroup":1537,"ĠChrist":1538,"An":1539,"uro":1540,"Ġthough":1541,"Ġeng":1542,"Ġstre":1543,"ense":1544,"ason":1545,"Ġbeing":1546,"Ġhead":1547,"ĠThis":1548,"ved":1549,"Ġfact":1550,"ĠPark":1551,"ĠBr":1552,"ample":1553,"Ġthree":1554,"itional":1555,"ification":1556,"rict":1557,"Ġsmall":1558,"Ġmachine":1559,"egr":1560,"arn":1561,"ights":1562,"ĠOr":1563,"Ġproperty":1564,"akes":1565,"Ġfeatures":1566,"ms":1567,"ĠCol":1568,"ĠChinese":1569,"Ġfore":1570,"Su":1571,"ling":1572,"Ġwr":1573,"Ġheart":1574,"ource":1575,"ique":1576,"angu":1577,"AR":1578,"Ġaccommod":1579,"Ġsaf":1580,"ET":1581,"Ġpop":1582,"Ġdays":1583,"ploy":1584,"earch":1585,"ieve":1586,"11":1587,"Ġpoint":1588,"Ġhard":1589,"aces":1590,"Ġimportant":1591,"Ġminutes":1592,"sh":1593,"Ġturn":1594,"Ġduring":1595,"ĠLtd":1596,"opy":1597,"Ġthird":1598,"Ġide":1599,"atic":1600,"Ġcour":1601,"ases":1602,"Ġleft":1603,"Ġhost":1604,"Ġcurrent":1605,"Ġest":1606,"ĠTV":1607,"ocial":1608,"Our":1609,"ways":1610,"Ġonline":1611,"Ġmeas":1612,"ibility":1613,"ĠComm":1614,"ission":1615,"40":1616,"ĠSc":1617,"creen":1618,"itor":1619,"ane":1620,"ider":1621,"Ġprom":1622,"Ġserver":1623,"by":1624,"de":1625,"Ġfriend":1626,"vert":1627,"ĠWh":1628,"ittle":1629,"aff":1630,"ales":1631,"perature":1632,"Ġfollowing":1633,"ves":1634,"ateg":1635,"Ġlet":1636,"Ġlim":1637,"Ġaddress":1638,"So":1639,"With":1640,"inal":1641,"ES":1642,"att":1643,"Ġbath":1644,"Ġchange":1645,"ister":1646,"Ġgoing":1647,"Ġprovides":1648,"joy":1649,"par":1650,"Ġstill":1651,"Ġcollect":1652,"Ġinternational":1653,"meric":1654,"vironment":1655,"AC":1656,"ately":1657,"Ġi":1658,"Ġet":1659,"They":1660,"ĠRoad":1661,"ey":1662,"raph":1663,"Ġlow":1664,"aving":1665,"Ġsl":1666,"Ġmen":1667,"Ġanother":1668,"ĠInst":1669,"Ġmonth":1670,"Ġtype":1671,"chool":1672,"Ġinvest":1673,"Ġuser":1674,"Ġapplication":1675,"anies":1676,"Ġinclude":1677,"itc":1678,"ember":1679,"bers":1680,"Ġdem":1681,"lev":1682,"ĠUs":1683,"Ġperformance":1684,"atter":1685,"ĠCan":1686,"Ġcustomers":1687,"pport":1688,"ĠInn":1689,"esus":1690,"Ġcame":1691,"apan":1692,"ĠGerm":1693,"dom":1694,"ott":1695,"Ġconst":1696,"aining":1697,"ording":1698,"obile":1699,"Ġkey":1700,"Ġfacilities":1701,"Ġfile":1702,"Ġdr":1703,"ĠEnglish":1704,"oor":1705,"Ġmult":1706,"icon":1707,"ential":1708,"olid":1709,"Ġusers":1710,"ĠProduct":1711,"Ġapartment":1712,"ĠApartment":1713,"Ġapplications":1714,"Ġcheck":1715,"ior":1716,"ined":1717,"Ġpos":1718,"Ġpay":1719,"Ġrun":1720,"Ġinstall":1721,"face":1722,"Ġnight":1723,"Ġgrow":1724,"At":1725,"ising":1726,"Ġlocal":1727,"Ġcare":1728,"lex":1729,"Ġeconom":1730,"Ġ24":1731,"ists":1732,"ources":1733,"Ġmanufact":1734,"fort":1735,"man":1736,"Ġfew":1737,"Ġgl":1738,"Ġgre":1739,"ĠOn":1740,"ĠInformation":1741,"Ġprice":1742,"Ġcountry":1743,"Ġflow":1744,"Ġbased":1745,"US":1746,"Ġlo":1747,"cription":1748,"Al":1749,"the":1750,"ĠAmeric":1751,"ĠFree":1752,"Ġleg":1753,"Ġchildren":1754,"ij":1755,"Ġbet":1756,"Ġhist":1757,"ĠApp":1758,"Ġcomput":1759,"Ġplan":1760,"Ġ'":1761,"Ġlarge":1762,"Ġsecurity":1763,"itu":1764,"Ġport":1765,"Ġthings":1766,"Ġgive":1767,"Ġchang":1768,"Ġ30":1769,"Ġmed":1770,"Ġey":1771,"Ġsomet":1772,"Ġwent":1773,"Ġword":1774,"hai":1775,"Ġinc":1776,"ĠEuro":1777,"thing":1778,"Ġequipment":1779,"IS":1780,"fast":1781,"med":1782,"ams":1783,"indows":1784,"Ġcompanies":1785,"ĠServices":1786,"uck":1787,"rem":1788,"lobal":1789,"15":1790,"br":1791,"ences":1792,"16":1793,"AS":1794,"Ġpat":1795,"Ġens":1796,"Ġfull":1797,"200":1798,"sw":1799,"pecial":1800,"ĠAirport":1801,"ining":1802,"ĠSo":1803,"Ġnon":1804,"Ġenjoy":1805,"Ġgovern":1806,"Ġland":1807,"Ġexc":1808,"Ġsecond":1809,"ribut":1810,"Ġrespons":1811,"orm":1812,"Ġstate":1813,"ĠFl":1814,"ivid":1815,"ĠStre":1816,"Ġcr":1817,"ĠAll":1818,"Ġunderstand":1819,"isk":1820,"Ġmov":1821,"Ġclass":1822,"ĠMicro":1823,"irl":1824,"Ġjo":1825,"ĠUniversity":1826,"atural":1827,"Ġlittle":1828,"rial":1829,"Ġintegr":1830,"Ġagainst":1831,"li":1832,"Ġfeel":1833,"Ġrights":1834,"ĠItaly":1835,"13":1836,"yn":1837,"Ġreport":1838,"ĠAg":1839,"Ġnext":1840,"Ġ2016":1841,"Ġpresent":1842,"let":1843,"ĠSw":1844,"Ġdispl":1845,"ĠAm":1846,"Ġable":1847,"Ġcustomer":1848,"oh":1849,"put":1850,"ĠSer":1851,"Ġste":1852,"Ġcountries":1853,"Ġvideo":1854,"25":1855,"Ġredu":1856,"Ġline":1857,"Ġ16":1858,"Ġexample":1859,"Ġkeep":1860,"zh":1861,"Ġclick":1862,"ĠJesus":1863,"inc":1864,"Ġsens":1865,"Ġput":1866,"lement":1867,"illion":1868,"be":1869,"oot":1870,"Ġplease":1871,"Ġlast":1872,"akfast":1873,"Ġenvironment":1874,"âĤ¬âĢľ":1875,"Ġfood":1876,"Ġbro":1877,"ried":1878,"opp":1879,"ocu":1880,"ired":1881,"itted":1882,"Ġfamily":1883,"Ġaff":1884,"erries":1885,"aring":1886,"ĠCenter":1887,"ĠMy":1888,"lier":1889,"Ġlove":1890,"Ġalways":1891,"Ġrequested":1892,"Ġcreate":1893,"ze":1894,"ories":1895,"Ġtoo":1896,"ĠPar":1897,"Ġproble":1898,"Ġexpl":1899,"Ġtravel":1900,"Ġlog":1901,"IT":1902,"nov":1903,"Ãĥ":1904,"ised":1905,"Ġsolutions":1906,"Ġpress":1907,"Ġdi":1908,"Ġdom":1909,"ape":1910,"Ġrange":1911,"Ġupon":1912,"18":1913,"Com":1914,"cent":1915,"ym":1916,"Ġsat":1917,"Ġhuman":1918,"ĠHome":1919,"ĠView":1920,"Ġappro":1921,"Ġsystems":1922,"ĠQu":1923,"ĠMin":1924,"anghai":1925,"ledge":1926,"enef":1927,"Do":1928,"ingle":1929,"Ġbody":1930,"Ġlink":1931,"ĠGo":1932,"ĠNo":1933,"Ġclose":1934,"Ġlooked":1935,"'re":1936,"ĠAb":1937,"Please":1938,"igital":1939,"ĠMore":1940,"ĠKing":1941,"Ġguests":1942,"ructure":1943,"AL":1944,"UR":1945,"ners":1946,"Ġwom":1947,"Ġtyp":1948,"oud":1949,"Ġbeh":1950,"ulation":1951,"ĠJapan":1952,"irit":1953,"Ġallow":1954,"17":1955,"Fi":1956,"Tr":1957,"Ġdrive":1958,"ĠCar":1959,"ables":1960,"Ġexist":1961,"Ġpract":1962,"Ġlocation":1963,"Ġbecome":1964,"Ġimprove":1965,"ĠStreet":1966,"Ġfil":1967,"ĠWi":1968,"fect":1969,"rip":1970,"ĠGr":1971,"usic":1972,"Ġ17":1973,"ĠWorld":1974,"Ġweb":1975,"Ġchar":1976,"14":1977,"aim":1978,"Ġwar":1979,"Ġhig":1980,"ticle":1981,"ĠDesign":1982,"iety":1983,"ĠSk":1984,"Ġparty":1985,"Ġago":1986,"Ġmaterials":1987,"Ġfront":1988,"mail":1989,"vers":1990,"Ġhealth":1991,"ference":1992,"Ġtemperature":1993,"Ġface":1994,"Ġfield":1995,"ada":1996,"osp":1997,"ump":1998,"Ġrelated":1999,"Ġtimes":2000,"Ġless":2001,"ĠOff":2002,"Ġemploy":2003,"iable":2004,"ety":2005,"ĠLord":2006,"ĠInternet":2007,"Ġreturn":2008,"Ġbetter":2009,"Â®":2010,"Ġsuccess":2011,"Ġtechn":2012,"lished":2013,"ĠBar":2014,"ĠHotels":2015,"Ġfre":2016,"iven":2017,"Ġart":2018,"ajor":2019,"No":2020,"hod":2021,"Ġmight":2022,"ĠWeb":2023,"word":2024,"Ġflo":2025,"Ġrese":2026,"idd":2027,"ĠEn":2028,"Hotels":2029,"IC":2030,"ĠSouth":2031,"ĠCO":2032,"Ġquest":2033,"Ġeasy":2034,"itchen":2035,"Ġiss":2036,"Ġanal":2037,"ĠChapter":2038,"Ġprivate":2039,"eration":2040,"ouble":2041,"Ġrent":2042,"ively":2043,"oney":2044,"Ġbig":2045,"Ġdest":2046,"Ġlangu":2047,".âĢĿ":2048,"Ġtook":2049,"Ġneeds":2050,"side":2051,"Ġtell":2052,"Ġfiles":2053,"Ġbas":2054,"uture":2055,"ancial":2056,"Ġcase":2057,"urther":2058,"idence":2059,"aging":2060,"Ġcomb":2061,"istics":2062,"Ġunt":2063,"Ġtick":2064,"ones":2065,"Ġbeaut":2066,"verage":2067,"ĠHost":2068,"ands":2069,"ney":2070,"Ġprovided":2071,"Ġaccommodation":2072,"atform":2073,"aper":2074,"Ġprofess":2075,"ĠEurope":2076,"Ar":2077,"gin":2078,"not":2079,"uk":2080,"roll":2081,"ĠTo":2082,"irc":2083,"Ġ25":2084,"oci":2085,"Ġclos":2086,"anced":2087,"Ġsince":2088,"Ġcard":2089,"istration":2090,"Ġcomplete":2091,"Ġclean":2092,"Ġpossible":2093,"Ġsomething":2094,"yle":2095,"Ġpres":2096,"ĠSan":2097,"ids":2098,"Ġweek":2099,"ĠVersion":2100,"Ġnever":2101,"Ġaccept":2102,"ino":2103,"ĠGroup":2104,"Ġ21":2105,"Ġkind":2106,"ĠBeach":2107,"ha":2108,"ming":2109,"Ġve":2110,"Ġ14":2111,"ĠRoom":2112,"Ġvalue":2113,"Ġcertain":2114,"Ġcomputer":2115,"itive":2116,"Ġwhe":2117,"ĠSystem":2118,"ĠPart":2119,"Ġteam":2120,"80":2121,"cy":2122,"Ġpar":2123,"ĠRep":2124,"ĠFe":2125,"Ġrequirements":2126,"EC":2127,"pro":2128,"erg":2129,"ats":2130,"Ġocc":2131,"Ġmajor":2132,"Ġreally":2133,"comm":2134,"Ġeffic":2135,"Ġdevice":2136,"ĠCompany":2137,"Ex":2138,"gg":2139,"ying":2140,"Ġsitu":2141,"Ġcal":2142,"Ġbenef":2143,"urch":2144,"Ġengine":2145,"OS":2146,"Un":2147,"Ġel":2148,"ĠAt":2149,"ĠTechnology":2150,"IP":2151,"we":2152,"Ġcult":2153,"Ġcenter":2154,"Ġpri":2155,"Ġhold":2156,"ĠAust":2157,"ived":2158,"Ġcommunic":2159,"aint":2160,"ured":2161,"Ġrequired":2162,"Ġconditions":2163,"Ġcopy":2164,"Ġlot":2165,"used":2166,"ysis":2167,"ruction":2168,"Ġfuture":2169,"Ġmess":2170,"imum":2171,"ĠMe":2172,"Ġ100":2173,"ipedia":2174,"Ġreserv":2175,"ikipedia":2176,"ĠâĢľ":2177,"Ġmodern":2178,"Ġbuilding":2179,"ergy":2180,"Ġdam":2181,"ster":2182,"olution":2183,"Ġstandard":2184,"Us":2185,"sc":2186,"Ġpark":2187,"Ġdocu":2188,"Ġ13":2189,"soft":2190,"zhou":2191,"Ġtalk":2192,"Ġfav":2193,"Ġpool":2194,"Ġcourse":2195,"Ġes":2196,"Ġident":2197,"abor":2198,"Ġquick":2199,"Ġindivid":2200,"vious":2201,"Ġside":2202,"ĠHong":2203,"ĠEd":2204,"raw":2205,"Ġphotos":2206,"Ġsure":2207,"ither":2208,"Ġpack":2209,"ides":2210,"Ġstore":2211,"arden":2212,"ĠPort":2213,"irt":2214,"ĠLoc":2215,"ained":2216,"Ġworking":2217,"Ġbathroom":2218,"ype":2219,"Ġreason":2220,"urg":2221,"Ġenergy":2222,"Ġamong":2223,"Ġresults":2224,"Ġcharact":2225,"net":2226,"Ġsocial":2227,"ĠRuss":2228,"ĠWindows":2229,"ograph":2230,"Ġmean":2231,"ED":2232,"More":2233,"Ġbar":2234,"elt":2235,"ĠCor":2236,"ĠPriv":2237,"ĠInt":2238,"Ġperfect":2239,"ilt":2240,"ĠAut":2241,"Add":2242,"Ġresearch":2243,"now":2244,"Ġtreat":2245,"ention":2246,"Ġconsider":2247,"Ġobject":2248,"hib":2249,"iod":2250,"sp":2251,"Ġferry":2252,"Ġlive":2253,"une":2254,".[":2255,"Ġsize":2256,"Ġtoday":2257,"ĠAss":2258,"useum":2259,"ĠShanghai":2260,"Ġterms":2261,"Ġspecific":2262,"aid":2263,"ĠLa":2264,"ĠNational":2265,"Ġsend":2266,"ips":2267,"ĠYork":2268,"ĠFrance":2269,"Ġestab":2270,"23":2271,"Cont":2272,"come":2273,"Ġorig":2274,"quare":2275,"ills":2276,"Ġauthor":2277,"Ġthought":2278,"Ġpopular":2279,"'ll":2280,"yd":2281,"orage":2282,"Ġfour":2283,"Ġareas":2284,"Ġ50":2285,"Ġspace":2286,"prise":2287,"Ġeyes":2288,"Ġdesk":2289,"Ġconnect":2290,"over":2291,"eter":2292,"ĠDis":2293,"Ġ11":2294,"Ġvarious":2295,"Ġdisplay":2296,"hem":2297,"ili":2298,"Ġvol":2299,"Ġdownload":2300,"ĠSite":2301,"change":2302,"ĠHouse":2303,"ĠVide":2304,"ended":2305,"Ġetc":2306,"ĠFin":2307,"Ġdoor":2308,"That":2309,"Ġemail":2310,"Ġasked":2311,"Ġcamp":2312,"Ġinnov":2313,"ush":2314,"Ġconc":2315,"iful":2316,"ĠKong":2317,"Ġtext":2318,"Ġaddition":2319,"Ġcalled":2320,"aurant":2321,"ijing":2322,"Ġuntil":2323,"TD":2324,"Ġpast":2325,"Ġmom":2326,"ently":2327,"ĠBu":2328,"Ġmethod":2329,"ĠUSD":2330,"24":2331,"Ġmeans":2332,"ternal":2333,"partments":2334,"Ġlooking":2335,"Ġfunction":2336,"Ġindividual":2337,"ĠReg":2338,"lands":2339,"Ġexpress":2340,"Gu":2341,"arly":2342,"Ġlic":2343,"ĠIm":2344,"Ġansw":2345,"ope":2346,"iol":2347,"Ġsingle":2348,"Ġmar":2349,"imate":2350,"ĠTerm":2351,"augh":2352,"Ġcontinu":2353,"ana":2354,"Ġlarg":2355,"Ġgame":2356,"These":2357,"Other":2358,"Ġcut":2359,"ental":2360,"Ġabove":2361,"Ġupd":2362,"Ġoffic":2363,"Ġrequest":2364,"AD":2365,"By":2366,"ees":2367,"right":2368,"Ġtable":2369,"apt":2370,"ports":2371,"However":2372,"Ġmove":2373,"Ġshare":2374,"ipped":2375,"After":2376,"ham":2377,"mit":2378,"ram":2379,"ĠÂ":2380,"Ġwind":2381,"ager":2382,"unity":2383,"arth":2384,"ĠElect":2385,"ĠNot":2386,"Ġsolution":2387,"Ġchoose":2388,"alf":2389,"Ġloss":2390,"Ġnatural":2391,"Ġcannot":2392,"ellent":2393,"ances":2394,"Ġbelow":2395,"Ġreviews":2396,"AM":2397,"ients":2398,"Ġach":2399,"Ġconsum":2400,"ĠIndust":2401,"Ġcondition":2402,"ĠPal":2403,"rael":2404,"ĠWebsite":2405,"Ġacross":2406,"Ġdeliver":2407,"ring":2408,"heck":2409,"ĠDownload":2410,"ĠWith":2411,"Ġsever":2412,"ĠInc":2413,"Ġprotection":2414,"Download":2415,"ao":2416,"uly":2417,"Ġtre":2418,"era":2419,"Ġmaking":2420,"ask":2421,"irm":2422,"Ġensure":2423,"60":2424,"ION":2425,"rant":2426,"ators":2427,"ises":2428,"Ġmusic":2429,"ĠPe":2430,"Ġprodu":2431,"Ġshort":2432,"leg":2433,"ĠFerries":2434,"Ġcompet":2435,"clus":2436,"Ġposition":2437,"EL":2438,"Ġcode":2439,"Ġpot":2440,"Ġtoget":2441,"ull":2442,"Ġcomfort":2443,"Ġwhy":2444,"Ġwhole":2445,"rows":2446,"Ġtogether":2447,"Ġschool":2448,"Ġmobile":2449,"Ġliving":2450,"Ġstrong":2451,"27":2452,"Ġstep":2453,"Ġinterest":2454,"Ġrepresent":2455,"ĠMicrosoft":2456,"Be":2457,"Ġmind":2458,"Ġtot":2459,"ĠBo":2460,"Ġavailability":2461,"Ġbring":2462,"Ġdesigned":2463,"ORD":2464,"Ġparticular":2465,"'m":2466,"mber":2467,"Ġx":2468,"Ġthing":2469,"ĠIN":2470,"Ġ2014":2471,"ID":2472,"enn":2473,"alt":2474,"ley":2475,"Ġstat":2476,"Ġrate":2477,"Is":2478,"press":2479,"iting":2480,"Ġlay":2481,"Ġgot":2482,"ĠNorth":2483,"Ġcompon":2484,"ĠStation":2485,"Ġprotect":2486,"opping":2487,"NET":2488,"most":2489,"ese":2490,"ĠMod":2491,"ules":2492,"ĠGre":2493,"empl":2494,"pplier":2495,"Ġcommon":2496,"Ġdidn":2497,"ĠAdd":2498,"ĠIsrael":2499,"Ġpurch":2500,"Ġreceive":2501,"ready":2502,"Ġsound":2503,"ift":2504,"Ġkitchen":2505,"?âĢĿ":2506,"cel":2507,"oul":2508,"Then":2509,"Ġrisk":2510,"ume":2511,"Ġaccording":2512,"Ġstudents":2513,"DF":2514,"ians":2515,"site":2516,"org":2517,"Ġfurther":2518,"chan":2519,"Ġlearn":2520,"iple":2521,"ronics":2522,"Ġbelieve":2523,"lin":2524,"Ġtour":2525,"Ġevent":2526,"amb":2527,"Ġmodel":2528,"Ġairport":2529,"Ġeduc":2530,"pose":2531,"ony":2532,"Ġmillion":2533,"illa":2534,"ivity":2535,"Ġsearch":2536,"Ġnecess":2537,"Ġperiod":2538,"Ġknown":2539,"Ġ199":2540,"ronic":2541,"elect":2542,"Ġmedia":2543,"Ġdate":2544,"ĠIf":2545,"Ġunique":2546,"ĠDevelop":2547,"Ġmonitor":2548,"Ġgovernment":2549,"uan":2550,"Ġgiven":2551,"Ġplatform":2552,"Read":2553,"Ġrespect":2554,"Ġfully":2555,"ecut":2556,"cript":2557,"Ġoptions":2558,"Ġbeautiful":2559,"ext":2560,"Ġopport":2561,"Ġmot":2562,"ĠAcc":2563,"Ġnote":2564,"Ġsepar":2565,"resh":2566,"ĠVal":2567,"Ġarch":2568,"Ġactivities":2569,"Des":2570,"ault":2571,"book":2572,"iang":2573,"Ġfoc":2574,"ĠCal":2575,"Ġgirl":2576,"ĠLORD":2577,"ogn":2578,"Ġaccur":2579,"Ġimage":2580,"My":2581,"Ġcook":2582,"Ġdigital":2583,"idge":2584,"Ġglobal":2585,"ĠHigh":2586,"aken":2587,"Ġresources":2588,"ĠContent":2589,"Ġdevices":2590,"22":2591,"itect":2592,"Ġhapp":2593,"ĠAf":2594,"Ġbegan":2595,"arent":2596,"Ġappear":2597,"Ġparts":2598,"ĠSec":2599,"Ġmembers":2600,"ground":2601,"Ġsol":2602,"Ġlater":2603,"ĠMarket":2604,"Ġann":2605,"ems":2606,"ENT":2607,"Ġhistory":2608,"ĠKingdom":2609,"Bl":2610,"EM":2611,"yl":2612,"Ġwin":2613,"Ġlat":2614,"ondon":2615,"Ġhands":2616,"New":2617,"Your":2618,"oice":2619,"Ġoften":2620,"ops":2621,"Ġothers":2622,"Ġclaim":2623,"Ġresponsible":2624,"Ġtypes":2625,"door":2626,"Ġstorage":2627,"Ġalready":2628,"istance":2629,"Ġspeed":2630,"Ġpolicy":2631,"ĠManagement":2632,"Ġmonths":2633,"Ġanalysis":2634,"ties":2635,"ule":2636,"zer":2637,"Ġsites":2638,"ĠMet":2639,"ford":2640,"wards":2641,"ĠGermany":2642,"Ġtax":2643,"ered":2644,"Ġscreen":2645,"Ġsales":2646,"oly":2647,"ĠBusiness":2648,"Ġenc":2649,"ibr":2650,"Ġlanguage":2651,"Ġmoment":2652,"Ġdue":2653,"oking":2654,"ube":2655,"Ġprec":2656,"Ġrecord":2657,"Ġprofile":2658,"Ġchoice":2659,"Ġeconomic":2660,"medi":2661,"Ġpressure":2662,"33":2663,"One":2664,"cer":2665,"ches":2666,"Ġbegin":2667,"ĠData":2668,"ĠRed":2669,"ĠEm":2670,"Ġking":2671,"lood":2672,"Ġ40":2673,"Ġfinancial":2674,"Ġheav":2675,"Ġsuper":2676,"Ġattract":2677,"ĠTrans":2678,"enger":2679,"Product":2680,"Ġbreakfast":2681,"Supplier":2682,"OL":2683,"wise":2684,"atory":2685,"Ġmoney":2686,"ĠSem":2687,"Ġalong":2688,"Ġvia":2689,"ĠWest":2690,"Ġincludes":2691,"Ġrelations":2692,"Ġtransfer":2693,"ĠBeijing":2694,"cover":2695,"Ġdirectly":2696,"Ġsafety":2697,"Ġjobs":2698,"iddle":2699,"ĠAustral":2700,"En":2701,"Loc":2702,"Ġsent":2703,"Ġpub":2704,"ots":2705,"Ġapply":2706,"Ġparties":2707,"Ġsaw":2708,"ĠYour":2709,"Ġinde":2710,"Ġamount":2711,"fully":2712,"chnologies":2713,"ĠAsia":2714,"21":2715,"val":2716,"Ġcirc":2717,"ison":2718,"star":2719,"ĠMap":2720,"Ġviol":2721,"Ġpartners":2722,"oliday":2723,"ires":2724,"oid":2725,"Ġoil":2726,"Ġwatch":2727,"Ġmount":2728,"icult":2729,"Ġyoung":2730,"Ġspeak":2731,"Ġflat":2732,"ĠResort":2733,"Ġbox":2734,"Ġtools":2735,"vis":2736,"Ġfast":2737,"ĠMac":2738,"cret":2739,"Ġseries":2740,"Con":2741,"iability":2742,"Ġaud":2743,"itation":2744,"elcome":2745,"ĠAnt":2746,"ĠBed":2747,"Ġrates":2748,"itten":2749,"Ġcover":2750,"Ġfriends":2751,"De":2752,"ched":2753,"Ġsource":2754,"Ġwall":2755,"arant":2756,"Ġnational":2757,"ĠLondon":2758,"unic":2759,"emb":2760,"Ġadmin":2761,"Ġ...":2762,"rought":2763,"minute":2764,"Ġelectric":2765,"Ġgeneral":2766,"ĠCentre":2767,"Ġmeasure":2768,"Ġhigher":2769,"Ġwhether":2770,"Ġfavor":2771,"Book":2772,"Cl":2773,"Ġfar":2774,"ĠSm":2775,"Ġstaff":2776,"Ġang":2777,"ĠProf":2778,"vention":2779,"Ġchanges":2780,"Ġcharacter":2781,"Av":2782,"Qu":2783,"me":2784,"ara":2785,"Ġhour":2786,"Ġever":2787,"Ġallows":2788,"Ġunto":2789,"rench":2790,"aurants":2791,"ĠPolicy":2792,"Ġexcellent":2793,"26":2794,"ke":2795,"lim":2796,"oon":2797,"Ġmatter":2798,"Ġdone":2799,"ĠLTD":2800,"astic":2801,"Ġplaces":2802,"eneral":2803,"Ġcred":2804,"Ġcentre":2805,"Ġparticip":2806,"Ġstreng":2807,"mitted":2808,"sel":2809,"Ġwa":2810,"Ġpict":2811,"Ġprocessing":2812,"Ġmaintain":2813,"Ġsubject":2814,"ĠCentral":2815,"TR":2816,"mark":2817,"pect":2818,"Ġ+":2819,"Ġsil":2820,"Ġcell":2821,"ouch":2822,"Ġhaving":2823,"Ġyet":2824,"elling":2825,"Ġ2015":2826,"ĠâĢĶ":2827,"Ġconfig":2828,"iconduct":2829,"Now":2830,"Res":2831,"itness":2832,"Ġmakes":2833,"urance":2834,"ĠRom":2835,"ĠState":2836,"Ġimplement":2837,"Ġprofessional":2838,"28":2839,"AP":2840,"Ph":2841,"mission":2842,"uel":2843,"atically":2844,"Ġbal":2845,"Ġbus":2846,"Ġla":2847,"oll":2848,"ĠPC":2849,"ĠPer":2850,"ĠHis":2851,"Ġant":2852,"Ġ27":2853,"ief":2854,"Ġknowledge":2855,"Ġpassword":2856,"Ġoptim":2857,"ategory":2858,"Not":2859,"aul":2860,"cle":2861,"ole":2862,"erson":2863,"Ġconven":2864,"Ġprint":2865,"Ġtransport":2866,"Ġpurpose":2867,"Ġsimple":2868,"just":2869,"Ġsun":2870,"Ġwide":2871,"ĠMuseum":2872,"Ġheld":2873,"ĠDr":2874,"ffee":2875,"Ġregard":2876,"ING":2877,"Ġforeign":2878,"crib":2879,"ma":2880,"Ġage":2881,"Ġsav":2882,"Ġfail":2883,"icated":2884,"igation":2885,"ĠPre":2886,"Ġdeal":2887,"IL":2888,"erve":2889,"Ġcreat":2890,"rodu":2891,"aged":2892,"âĢĶ":2893,"ptember":2894,"Ġsett":2895,"Ġvideos":2896,"Ġcosts":2897,"Ġsafe":2898,"Ġlegal":2899,"ĠTerms":2900,"Ġtotal":2901,"--":2902,"ivery":2903,"su":2904,"ari":2905,"Ġbank":2906,"ached":2907,"angzhou":2908,"Ġtrade":2909,"ogle":2910,"Ġworks":2911,"Ġentire":2912,"Ġincrease":2913,"Ġlimited":2914,"ĠProducts":2915,"pre":2916,"Ġfire":2917,"asing":2918,"Ġrepl":2919,"Ġrecomm":2920,"Ġeither":2921,"ĠMay":2922,"Ġcomes":2923,"operation":2924,"Ġnotice":2925,"Ġregul":2926,"ĠSoftware":2927,"Ġseveral":2928,"Pl":2929,"go":2930,"hold":2931,"light":2932,"Ġself":2933,"Ġdriv":2934,"ilar":2935,"ĠAS":2936,"Ġprop":2937,"Ġknew":2938,"Why":2939,"Ġtechnical":2940,"bit":2941,"oo":2942,"ona":2943,"ilit":2944,"Ġleast":2945,"Ġcam":2946,"eth":2947,"Ġtransl":2948,"Ġproviding":2949,"Ġassoci":2950,"Ġequipped":2951,"porate":2952,"ĠAmerican":2953,"Ġproblem":2954,"99":2955,"hest":2956,"ĠFound":2957,"oke":2958,"hens":2959,"ĠKore":2960,"Ġdescription":2961,"itting":2962,"Ġconnection":2963,"Ġnecessary":2964,"Ġlatest":2965,"zz":2966,"Ġmag":2967,"aced":2968,"ĠBre":2969,"ĠDist":2970,"Ġsupply":2971,"pecially":2972,"Ġfloor":2973,"ober":2974,"ream":2975,"Ġbrows":2976,"ĠMed":2977,"Ġonce":2978,"ector":2979,"Ġsuff":2980,"Ġotherwise":2981,"Ġoperating":2982,"ĠParis":2983,"36":2984,"Find":2985,"Ġmax":2986,"Ġground":2987,"Ġstation":2988,"ĠStud":2989,"Ġrecogn":2990,"Ġdiff":2991,"\".":2992,"ua":2993,"Ġsum":2994,"Ġsave":2995,"Ġfive":2996,"Ġflex":2997,"Ġtold":2998,"ĠMon":2999,"ĠEl":3000,"Ġversion":3001,"Ġnothing":3002,"Ġcontract":3003,"Ġ2018":3004,"Ġphys":3005,"Ġticket":3006,"CO":3007,"HP":3008,"View":3009,"screen":3010,"Ġ#":3011,"Ġerr":3012,"itut":3013,"Ġple":3014,"ica":3015,"urs":3016,"river":3017,"Ġwhite":3018,"Ġdepend":3019,"Ġtry":3020,"Ġchall":3021,"raft":3022,"Ġideal":3023,"Ġeducation":3024,"ĠAfric":3025,"35":3026,"iam":3027,"rast":3028,"Ġmor":3029,"Ġdeep":3030,"Ġchann":3031,"ĠSte":3032,"Ġ2012":3033,"ology":3034,"Ġphone":3035,"Ġdeveloped":3036,"ĠArt":3037,"Ġoffering":3038,"Ġleading":3039,"Ġdiscuss":3040,"ohn":3041,"bon":3042,"bed":3043,"itch":3044,"Ġfather":3045,"ĠAc":3046,"Ġstop":3047,"Ġstructure":3048,"ĠDirect":3049,"ably":3050,"Ġtrue":3051,"Ġimport":3052,"Ġ2017":3053,"Ġrelax":3054,"Ġproperties":3055,"Ġsteel":3056,"ĠRepublic":3057,"Ġoriginal":3058,"emplate":3059,"70":3060,"cing":3061,"ox":3062,"Ġther":3063,"Ġtown":3064,"ĠTw":3065,"ĠBest":3066,"appen":3067,"osed":3068,"Ġdoing":3069,"Ġhimself":3070,"Ġwanted":3071,"ĠCanada":3072,"Ġgrowth":3073,"Ġload":3074,"IM":3075,"based":3076,"iation":3077,"eral":3078,"rect":3079,"Ġlost":3080,"amic":3081,"ĠDep":3082,"ĠRest":3083,"ĠWikipedia":3084,"Ġsea":3085,"ĠSeptember":3086,"Ġindustrial":3087,"32":3088,"RO":3089,"gu":3090,"ving":3091,"Ġz":3092,"Ġmark":3093,"Ġhappen":3094,"ille":3095,"uth":3096,"ceed":3097,"aps":3098,"Ġmechan":3099,"Ġoutside":3100,"Ġadditional":3101,"Ġregion":3102,"Ġregister":3103,"Ġstandards":3104,"Ġvariety":3105,"Ġwritten":3106,"Ġpromot":3107,"Ġrental":3108,"Ġprior":3109,"90":3110,"ray":3111,"Ġaf":3112,"Ġsays":3113,"ament":3114,"ĠMal":3115,"Ġbeach":3116,"ĠOct":3117,"Ġimmedi":3118,"Ġroad":3119,"Ġadvant":3120,"uxury":3121,"Ġwords":3122,"Te":3123,"pg":3124,"Ġcause":3125,"ĠSearch":3126,"ama":3127,"ĠBy":3128,"apore":3129,"Ġtraining":3130,"Ġbrand":3131,"ĠNews":3132,"ĠUser":3133,"Ġdomain":3134,"ĠDevelopment":3135,"hic":3136,"Ġfurn":3137,"omb":3138,"ett":3139,"Ġcommer":3140,"Ġcomplex":3141,"Ġdistribut":3142,"Ġinvestment":3143,"Ġachieve":3144,"ged":3145,"na":3146,"ä¸":3147,"erc":3148,"ingapore":3149,"arget":3150,"ĠAug":3151,"Ġdeath":3152,"Ġcloud":3153,"Ġspirit":3154,"Ġdeterm":3155,"Ġoperation":3156,"Ġcapac":3157,"TML":3158,"Ġlevels":3159,"ĠGerman":3160,"Ġquickly":3161,"Ġofficial":3162,"Ġpotential":3163,"Ab":3164,"Ġsle":3165,"ĠLog":3166,"earn":3167,"ension":3168,"Ġprices":3169,"Ġprinc":3170,"ĠProt":3171,"ĠContact":3172,"oom":3173,"Ġoption":3174,"Ġca":3175,"Ġmother":3176,"Ġinit":3177,"roid":3178,"Ġhot":3179,"Ġreach":3180,"emark":3181,"ĠInter":3182,"Ġanything":3183,"Ġprevious":3184,"ĠOnline":3185,"ĠSemiconduct":3186,"Ġce":3187,"Ġfa":3188,"aser":3189,"ĠSant":3190,"unch":3191,"Ġalmost":3192,"ĠOld":3193,"Ġeverything":3194,"Ġmemory":3195,"Ġturned":3196,"Ġsituation":3197,"Ġcomponents":3198,"'ve":3199,"From":3200,"bour":3201,"jpg":3202,"Ġfoot":3203,"Ġpain":3204,"Ġearth":3205,"ĠBud":3206,"ĠNe":3207,"Ġneeded":3208,"Ġprocesses":3209,"Ġwomen":3210,"CD":3211,"lies":3212,"Ã©":3213,"Ġblood":3214,"ĠCas":3215,"ĠRel":3216,"Ġsex":3217,"ireless":3218,"izing":3219,"Ġ60":3220,"airs":3221,"Ġattack":3222,"Ġopened":3223,"irtual":3224,"Home":3225,"ks":3226,"Ġaverage":3227,"isc":3228,"Ġfund":3229,"ĠHow":3230,"Ġ23":3231,"ework":3232,"ival":3233,"ĠOut":3234,"Ġadvert":3235,"Ġincluded":3236,"Ġbuilt":3237,"Ġfunct":3238,"Ġsignific":3239,"levant":3240,"!\"":3241,"Some":3242,"Ġmass":3243,"Ġred":3244,"ided":3245,"Ġdocument":3246,"App":3247,"iency":3248,"Ġtaken":3249,"Ġrefer":3250,"ĠID":3251,"umb":3252,"Ġoffice":3253,"Ġviews":3254,"Ġsurface":3255,"Ġprojects":3256,"ĠPrivacy":3257,"selves":3258,"Or":3259,"back":3260,"ler":3261,"Ġhalf":3262,"ĠII":3263,"ĠFrench":3264,"antly":3265,"illed":3266,"istr":3267,"duction":3268,"ĠRead":3269,"ength":3270,"ĠAmerica":3271,"Ġfocus":3272,"RE":3273,"SS":3274,"time":3275,"itable":3276,"Ġwon":3277,"Ġbott":3278,"Ġdraw":3279,"ayer":3280,"ĠBal":3281,"ĠBut":3282,"Ġstyle":3283,"Ġ22":3284,"Ġenough":3285,"Ġsimilar":3286,"Ġreceived":3287,"ger":3288,"house":3289,"Ġlik":3290,"ĠTour":3291,"ĠFore":3292,"ĠEst":3293,"ĠEast":3294,"resident":3295,"Ġoutdoor":3296,"ensive":3297,"Ġexperi":3298,"Ġcreated":3299,"Ġobtain":3300,"303":3301,"Ġsaying":3302,"Ġtraditional":3303,"Ġespecially":3304,"Ġconditioning":3305,"ead":3306,"Â©":3307,"Ġsin":3308,"Ġinternet":3309,"Ġhair":3310,"Ġnature":3311,"Ġgave":3312,"ĠIT":3313,"ades":3314,"ĠHar":3315,"Ġcoming":3316,"ored":3317,"ĠWar":3318,"Ġseen":3319,"Ġcontroll":3320,"Ġcooperation":3321,"riting":3322,"phone":3323,"Ġeasily":3324,"Ġcommunity":3325,"Ġdemand":3326,"ĠServer":3327,"Ġemployees":3328,"clusive":3329,"74":3330,"Check":3331,"gress":3332,"anch":3333,"Ġfelt":3334,"Ġdry":3335,"Ġgarden":3336,"ĠBook":3337,"Ġord":3338,"istic":3339,"Ġarriv":3340,"ĠProv":3341,"issions":3342,"Ġbuy":3343,"Ġrespond":3344,"Ġcontinue":3345,"Ġproblems":3346,"Ġwoman":3347,"Ġissues":3348,"Ġtreatment":3349,"ĠAustralia":3350,"Ġdifficult":3351,"ĠOctober":3352,"CH":3353,"den":3354,"ply":3355,"Ġcrit":3356,"urb":3357,"uration":3358,"ĠMach":3359,"ague":3360,"ĠFrom":3361,"Ġexchange":3362,"ĠName":3363,"Ġneg":3364,"Ġ2013":3365,"Ġhowever":3366,"Ġgraph":3367,"Ġclear":3368,"Ġdamage":3369,"Search":3370,"Well":3371,"cast":3372,"Ġut":3373,"anish":3374,"Ġbit":3375,"ĠIP":3376,"ĠBid":3377,"ĠLine":3378,"ĠFile":3379,"illing":3380,"ailed":3381,"heng":3382,"Ġtechnologies":3383,"Ġmember":3384,"Ġhistor":3385,"Ġlargest":3386,"ĠGreen":3387,"Ġcredit":3388,"son":3389,"yp":3390,"Ġcable":3391,"Ġgold":3392,"ĠPower":3393,"Ġstars":3394,"aily":3395,"though":3396,"venue":3397,"Ġtherefore":3398,"Ġpeace":3399,"âĤ¬âĢĿ":3400,"Ġsmart":3401,"Ġdistrict":3402,"Ġenterprise":3403,"Ġautomatically":3404,"Ġmanufacturing":3405,"Ġquestion":3406,"Ġcommercial":3407,"75":3408,"estern":3409,"isions":3410,"ĠSingapore":3411,"olf":3412,"Ġgas":3413,"Ġgames":3414,"ĠMr":3415,"Ġbecom":3416,"ĠGe":3417,"oph":3418,"ĠWord":3419,"reement":3420,"Ġplant":3421,"Ġstarted":3422,"tenance":3423,"Ġreduce":3424,"Ġarchitect":3425,"MP":3426,"hour":3427,"Ġlower":3428,"Ġdecl":3429,"Ġtrust":3430,"Ġleave":3431,"ples":3432,"raz":3433,"ĠReview":3434,"Ġcoll":3435,"Ġbecame":3436,"Ġpolit":3437,"Ġcapital":3438,"Ġexisting":3439,"Ġefficient":3440,"Ind":3441,"rical":3442,"set":3443,"va":3444,"alian":3445,"ĠIS":3446,"ĠTor":3447,"ĠGold":3448,"Ġyourself":3449,"ĠOther":3450,"Ġcontain":3451,"oved":3452,"Ġcolor":3453,"Ġrestaurant":3454,"Ġprivacy":3455,"Ġtesting":3456,"Ġdrink":3457,"ĠEuropean":3458,"Ġindepend":3459,"34":3460,"Ġtim":3461,"Ġtaking":3462,"inations":3463,"Ġrelevant":3464,"ĠAre":3465,"ĠMil":3466,"ĠDel":3467,"Ġvoice":3468,"Ġseem":3469,"iples":3470,"Ġnews":3471,"ĠReal":3472,"ĠGoogle":3473,"Ġquestions":3474,"fr":3475,"wide":3476,"Ġiron":3477,"orry":3478,"Ġpan":3479,"ico":3480,"Ġearly":3481,"ĠBel":3482,"agram":3483,"hern":3484,"ĠOne":3485,"Ġcharg":3486,"Ġsoon":3487,"Ġquite":3488,"Ġhighly":3489,"Ġguarant":3490,"Ġmarketing":3491,"ĠIndia":3492,"Ġevents":3493,"ĠWhat":3494,"Ġgreater":3495,"Ġintegrated":3496,"Ġcommunication":3497,"Ġwindow":3498,"Click":3499,"Ġver":3500,"Ġæķ°æį®è¡¨":3501,"inate":3502,"ena":3503,"ĠCam":3504,"eters":3505,"amework":3506,"Ġstar":3507,"Ġadjust":3508,"Ġcommand":3509,"Ġemerg":3510,"Ġaction":3511,"Ġinvol":3512,"ĠSpirit":3513,"Ġdistance":3514,"Ġedit":3515,"Ġready":3516,"Ġselection":3517,"board":3518,"Ġglass":3519,"ĠRussia":3520,"Avg":3521,"ĠAugust":3522,"ges":3523,"Ġ]":3524,"Ġtarget":3525,"Ġcross":3526,"Ġforward":3527,"aya":3528,"Ġheat":3529,"alls":3530,"ĠON":3531,"ude":3532,"ĠJan":3533,"Ġvalues":3534,"ipping":3535,"Ġmedical":3536,"Ġrelationship":3537,"100":3538,"ĠMos":3539,"ĠBro":3540,"Ġanaly":3541,"que":3542,"ĠWork":3543,"Ġtrack":3544,"ĠSuites":3545,"Ġcomplet":3546,"Ġpassenger":3547,"Ġadvanced":3548,"Ġlaws":3549,"ĠAgreement":3550,"ĠWiFi":3551,"Ġestablished":3552,"Ġimmediately":3553,"Are":3554,"ST":3555,"lu":3556,"ania":3557,"ession":3558,"apest":3559,"Ġ28":3560,"istry":3561,"Ġra":3562,"ĠOf":3563,"ruments":3564,"Ġdescrib":3565,"Ġsecure":3566,"ĠBlack":3567,"ropri":3568,"Ġmeeting":3569,"Ġmultiple":3570,"ging":3571,"uary":3572,"inary":3573,"Ġwid":3574,"arning":3575,"Ġbase":3576,"Ġbrought":3577,"ĠPass":3578,"ĠBang":3579,"Ġuses":3580,"ĠJune":3581,"Ġimages":3582,"Ġthroughout":3583,"ĠExpress":3584,"Ġblock":3585,"Ġcorrect":3586,"ĠPhot":3587,"ĠEngine":3588,"Ġleaders":3589,"ĠOffice":3590,"ĠVideo":3591,"Ġfaith":3592,"Pr":3593,"eal":3594,"reg":3595,"itute":3596,"Ġdark":3597,"ĠCap":3598,"ĠCamp":3599,"acher":3600,"ĠLim":3601,"Ġ26":3602,"Ġexam":3603,"Ġrad":3604,"Ġrout":3605,"ellig":3606,"aching":3607,"Ġarm":3608,"ĠShow":3609,"ĠIsland":3610,"Ġpayment":3611,"ĠHostel":3612,"Ġculture":3613,"Contact":3614,"29":3615,"See":3616,"onse":3617,"Ġsection":3618,"Ġparent":3619,"aries":3620,"Ġharm":3621,"ĠSchool":3622,"Ġthous":3623,"Ġrev":3624,"urt":3625,"ĠPlease":3626,"umn":3627,"ĠUse":3628,"ivil":3629,"Ġtruth":3630,"duc":3631,"Ġabs":3632,"Ġsole":3633,"Ġdise":3634,"Ġfeed":3635,"Ġprep":3636,"Ġchem":3637,"Ġlonger":3638,"Ġcapacity":3639,"gen":3640,"sk":3641,"Ġfine":3642,"Ġpath":3643,"ags":3644,"illage":3645,"Ġdele":3646,"ĠJuly":3647,"Ġaccord":3648,"onder":3649,"rown":3650,"oyal":3651,"Ġgoods":3652,"Ġconstruction":3653,"Comp":3654,"ĠJapanese":3655,"Fe":3656,"TER":3657,"cont":3658,"Ġson":3659,"Ġfish":3660,"Ġbad":3661,"Ġmer":3662,"ĠSil":3663,"ĠSaint":3664,"ĠSquare":3665,"ĠAct":3666,"ĠGree":3667,"Ġsubs":3668,"Ġbutton":3669,"Ġguest":3670,"ĠGuest":3671,"Ġactivity":3672,"Ġorganiz":3673,"Ġcookies":3674,"ĠSemiconductor":3675,"Acc":3676,"free":3677,"rid":3678,"wh":3679,"head":3680,"Ġwarm":3681,"Ġded":3682,"Ġdouble":3683,"lements":3684,"ĠBank":3685,"Ġheard":3686,"Ġconcept":3687,"ĠFerry":3688,"ĠGeneral":3689,"Ġdepos":3690,"see":3691,"Ġsugg":3692,"Ġjour":3693,"Ġ2011":3694,"Ġmetres":3695,"ATION":3696,"ĠAbout":3697,"Ġhappy":3698,"ibrary":3699,"vest":3700,"Ġcases":3701,"Ġpaper":3702,"Ġlab":3703,"ĠAP":3704,"ĠAng":3705,"Ġforce":3706,"estic":3707,"ĠLin":3708,"ĠVis":3709,"Ġrole":3710,"Ġdiscl":3711,"Ġeffort":3712,"Ġvalid":3713,"Ġfrequ":3714,"ĠEnter":3715,"ters":3716,"Ġcou":3717,"Ġwood":3718,"ĠCount":3719,"urer":3720,"ĠBack":3721,"ĠRights":3722,"Ġdead":3723,"ĠJohn":3724,"Ġroll":3725,"Ġarticle":3726,"Ġinterface":3727,"Ġbackground":3728,"Ġdelivery":3729,"Ġinsp":3730,"undred":3731,"Ġinstallation":3732,"hibition":3733,"Where":3734,"burg":3735,"ror":3736,"inter":3737,"Ġsus":3738,"ening":3739,"oub":3740,"Ġhon":3741,"ĠCond":3742,"ĠPresident":3743,"Ġconduct":3744,"Ġanim":3745,"Ġtrain":3746,"ĠOpen":3747,"Thank":3748,"Ġstudy":3749,"ĠOrgan":3750,"ĠIndustry":3751,"Ġfavorite":3752,"Ġmaximum":3753,"ooth":3754,"Ġtrip":3755,"Ġfix":3756,"Ġmicro":3757,"str":3758,"iding":3759,"ĠAv":3760,"aches":3761,"ĠBay":3762,"ĠOur":3763,"Ġimpact":3764,"Ġexpert":3765,"Ġadvance":3766,"ĠPhil":3767,"Ġtrademark":3768,"Ġmenu":3769,"Ġbehind":3770,"nowledge":3771,"Ġpurchase":3772,"Ġstrength":3773,"Ġbrowser":3774,"rastructure":3775,"\",":3776,"55":3777,"File":3778,"Sp":3779,"ya":3780,"Ġess":3781,"Ġpie":3782,"ĠCour":3783,"ownt":3784,"ĠAccess":3785,"utor":3786,"ĠTai":3787,"ĠType":3788,"aker":3789,"Ġshopping":3790,"Ġcharge":3791,"aves":3792,"Ġjoint":3793,"Ġdisp":3794,"Ġitself":3795,"ilding":3796,"Ġinteract":3797,"Ġexpect":3798,"Ġbelie":3799,"gypt":3800,"Ġcentral":3801,"Ġgroups":3802,"ĠGrand":3803,"verse":3804,"Ġparking":3805,"ĠDistrict":3806,"Ġmorning":3807,"Can":3808,"ml":3809,"rance":3810,"top":3811,"iter":3812,"itle":3813,"Ġpick":3814,"Ġdat":3815,"ette":3816,"ache":3817,"iger":3818,"ĠDub":3819,"ria":3820,"ĠLive":3821,"Ġunit":3822,"Ġdiscover":3823,"Ġprevent":3824,"Ġregistration":3825,"box":3826,"Ġplanning":3827,"Ġvehic":3828,"Ġbenefits":3829,"Ġlicense":3830,"Ġopportunity":3831,"Le":3832,"Pre":3833,"cil":3834,"Ġterr":3835,"Ġtask":3836,"ini":3837,"ani":3838,"ĠPost":3839,"ĠTest":3840,"ĠMB":3841,"ĠMel":3842,"irth":3843,"rie":3844,"ĠVia":3845,"Ġappropri":3846,"Ġunivers":3847,"Ġindic":3848,"ĠDev":3849,"ĠArch":3850,"Ġblack":3851,"ĠManager":3852,"Ġrunning":3853,"Ġefficiency":3854,"45":3855,"Each":3856,"oes":3857,"Ġobs":3858,"icies":3859,"ĠSun":3860,"ĠCast":3861,"adem":3862,"Ġjob":3863,"Ġreliable":3864,"iction":3865,"Ġgreen":3866,"Ġmessage":3867,"Guests":3868,"ĠBreakfast":3869,"Ġaccordance":3870,"Free":3871,"MA":3872,"TS":3873,"rehens":3874,"atives":3875,"Ġsix":3876,"ading":3877,"Ġproced":3878,"ategy":3879,"ailing":3880,"Ġweight":3881,"ĠStand":3882,"Ġ2010":3883,"Ġprefer":3884,"ĠâĢ¢":3885,"Ġavoid":3886,"Reg":3887,"ĠSea":3888,"Ġshows":3889,"ouncil":3890,"Ġcomfortable":3891,"IG":3892,"MS":3893,"PS":3894,"bor":3895,"wan":3896,"Ġtakes":3897,"Ġsale":3898,"Ġop":3899,"Ġdaily":3900,"ĠSon":3901,"ĠCustom":3902,"Ġlabor":3903,"ĠRet":3904,"ĠEgypt":3905,"Ġdeg":3906,"Ġround":3907,"sequ":3908,"ĠTex":3909,"idential":3910,"ĠSpain":3911,"Ġsimply":3912,"Ġpoints":3913,"ĠQuick":3914,"Ġpublished":3915,"Ġrecommend":3916,"ĠKorea":3917,"EO":3918,"xx":3919,"Ġtouch":3920,"atal":3921,"ception":3922,"ĠLaw":3923,"ĠEqu":3924,"ociety":3925,"ĠUN":3926,"Ġenh":3927,"Ġ35":3928,"Ġrob":3929,"Ġintrodu":3930,"Ġoutput":3931,"rupt":3932,"bsites":3933,"ancing":3934,"Ġadded":3935,"Ġdoesn":3936,"Ġinsurance":3937,"Ġextrem":3938,"ecause":3939,"Ġswe":3940,"ĠParty":3941,"Ġconcern":3942,"Ġcontinuous":3943,"Ġcutting":3944,"Ġbeginning":3945,"49":3946,"Ġten":3947,"Ġopp":3948,"arter":3949,"Ġbab":3950,"Ġhundred":3951,"ĠSocial":3952,"ĠSpecial":3953,"Ġlif":3954,"ĠTop":3955,"ĠMag":3956,"ĠHoly":3957,"abase":3958,"iforn":3959,"Ġvers":3960,"ĠWater":3961,"ustain":3962,"umber":3963,"iber":3964,"Ġgrant":3965,"Ġmeters":3966,"Ġbreak":3967,"Ġbooking":3968,"Ġeffective":3969,"poses":3970,"Any":3971,"Ġpleas":3972,"Ġchalleng":3973,"Best":3974,"His":3975,"OW":3976,"Yes":3977,"lied":3978,"ny":3979,"Ġill":3980,"Ġsquare":3981,"ano":3982,"iling":3983,"ĠShe":3984,"ĠSub":3985,"ĠAC":3986,"ĠTick":3987,"Ġhear":3988,"ĠHer":3989,"Ġtraff":3990,"ĠJew":3991,"cluding":3992,"Ġexperts":3993,"Ġindustries":3994,"ĠUSA":3995,"Ġconfirm":3996,"tainment":3997,"Ġskills":3998,"Ġbroad":3999,"Ġbasis":4000,"Ġdocuments":4001,"ĠSecurity":4002,"Ġassociated":4003,"30319":4004,"ĠTexas":4005,"ifornia":4006,"Am":4007,"Go":4008,"LE":4009,"Over":4010,"¿½":4011,"ï¿½":4012,"Ġthee":4013,"ĠChe":4014,"ĠApr":4015,"acing":4016,"ĠTem":4017,"ago":4018,"agon":4019,"ĠDay":4020,"ĠLast":4021,"Ġ($":4022,"antic":4023,"ailand":4024,"rug":4025,"Ġmodels":4026,"Ġscient":4027,"Ġresponse":4028,"Ġconnected":4029,"Ġdecision":4030,"Ġsensor":4031,"Ġdiam":4032,"Ġestablish":4033,"Ġsteps":4034,"Ġstatus":4035,"ecutive":4036,"77":4037,"AB":4038,"bar":4039,"ball":4040,"met":4041,"nam":4042,"spe":4043,"uff":4044,"aturing":4045,"Ġslow":4046,"Ġwireless":4047,"Ġmouth":4048,"Ġye":4049,"uses":4050,"ĠHim":4051,"ĠWhen":4052,"ellite":4053,"acebook":4054,"uality":4055,"Ġfeet":4056,"ĠArab":4057,"Ġinside":4058,"ĠClub":4059,"Ġboard":4060,"Ġselected":4061,"Ġorganization":4062,"Ġpractice":4063,"Ġfilter":4064,"Ġhighest":4065,"Article":4066,"Ġerror":4067,"ĠAfrica":4068,"31":4069,"38":4070,"OT":4071,"rain":4072,"uge":4073,"Ġsym":4074,"Ġcategory":4075,"Ġmat":4076,"Ġdiv":4077,"lege":4078,"Ġhope":4079,"ĠCENT":4080,"cember":4081,"abilities":4082,"ĠGames":4083,"ĠNet":4084,"ilet":4085,"Ġhelps":4086,"Ġacqu":4087,"ĠSuper":4088,"Ġoperations":4089,"Ġagreement":4090,"Ġcollection":4091,"Ġinstalled":4092,"Ġwarrant":4093,"Ġcopyright":4094,"Ġconsidered":4095,"High":4096,"uis":4097,"inery":4098,"Ġcy":4099,"Ġhous":4100,"ĠCur":4101,"Ġlines":4102,"ĠApartments":4103,"acious":4104,"Ġbear":4105,"Ġconv":4106,"ĠLight":4107,"Ġ29":4108,"Ġvac":4109,"ĠNow":4110,"resp":4111,"ĠVilla":4112,"Ġability":4113,"Ġjud":4114,"ological":4115,"Ġmode":4116,"Ġmaintenance":4117,"Ġmarkets":4118,"Ġobl":4119,"Ġsurround":4120,"TMs":4121,"Ġmoved":4122,"ĠSkip":4123,"Ġbenefit":4124,"ĠVideos":4125,"Ġaccurate":4126,"Ġphysical":4127,"Ġchannels":4128,"46":4129,"Template":4130,"ĠST":4131,"Ġthou":4132,"ĠAN":4133,"imming":4134,"ady":4135,"ĠTown":4136,"ĠBrit":4137,"ĠLED":4138,"Ġitems":4139,"ĠNetwork":4140,"ĠUp":4141,"ĠOpt":4142,"Ġchurch":4143,"ĠVe":4144,"Ġcomprehens":4145,"ĠJer":4146,"ĠProgram":4147,"Ġrelig":4148,"Ġinterested":4149,"Ġconsist":4150,"Ġconsult":4151,"Ġmetal":4152,"Ġoffered":4153,"Ġpolicies":4154,"Ġfamous":4155,"ĠAccount":4156,"ersonal":4157,"Ġtraffic":4158,"Just":4159,"OU":4160,"xy":4161,"enities":4162,"Ġpump":4163,"iled":4164,"Ġeat":4165,"igure":4166,"ĠPack":4167,"adu":4168,"ĠMad":4169,"ĠBas":4170,"ĠList":4171,"empt":4172,"iah":4173,"ĠStr":4174,"ĠStat":4175,"Ġpartner":4176,"Ġcoffee":4177,"ĠPrice":4178,"Ġaffect":4179,"Ġbasic":4180,"Ġengineering":4181,"ĠRussian":4182,"Ġchemical":4183,"Ġappropriate":4184,".)":4185,"Here":4186,"Learn":4187,"Red":4188,"hood":4189,"mm":4190,"work":4191,"Ġter":4192,"erous":4193,"rel":4194,"Ġsn":4195,"orse":4196,"iture":4197,"Ġways":4198,"asc":4199,"ĠSal":4200,"ĠSol":4201,"etary":4202,"ĠPHP":4203,"ado":4204,"Ġstock":4205,"arest":4206,"ĠVol":4207,"Ġlearning":4208,"Ġcontains":4209,"Ġsoft":4210,"enses":4211,"ought":4212,"Ġ80":4213,"ĠManufact":4214,"Ġpowerful":4215,"Ġlinks":4216,"Ġtickets":4217,"ography":4218,"Ġtrend":4219,"Ġmonitoring":4220,"Ġfunctions":4221,"Int":4222,"ios":4223,"men":4224,"where":4225,"Ġult":4226,"Ġsem":4227,"Ġsell":4228,"isco":4229,"Ġfall":4230,"Ġfell":4231,"Ġfuck":4232,"Ġbreat":4233,"ĠSim":4234,"Ġlength":4235,"ĠBer":4236,"Ġstory":4237,"estions":4238,"unt":4239,"ĠGame":4240,"Ġusually":4241,"ocr":4242,"Ġtrav":4243,"Ġanyone":4244,"Ġremove":4245,"Ġblog":4246,"ĠAnal":4247,"Ġmeasures":4248,"URY":4249,"Ġupdate":4250,");":4251,"08":4252,"65":4253,"Bu":4254,"Off":4255,"wood":4256,"Ġbur":4257,"asy":4258,"ĠSam":4259,"ira":4260,"Ġalone":4261,"Ġrules":4262,"Ġimm":4263,"ĠThere":4264,"Ġfees":4265,"Ġexpand":4266,"Ġformat":4267,"Ġcentury":4268,"Ġvisitors":4269,"ĠInstagram":4270,"ĠSeries":4271,"Ġenvironmental":4272,"Ġsatis":4273,"ĠHostels":4274,"ĠJanuary":4275,"ĠApril":4276,"PDF":4277,"QL":4278,"Se":4279,"Up":4280,"mal":4281,"ville":4282,"Ġå":4283,"Ġpow":4284,"arily":4285,"Ġmiddle":4286,"Ġthus":4287,"Ġnav":4288,"Ġnorm":4289,"Ġprob":4290,"ĠDav":4291,"âĢĵ":4292,"ĠChurch":4293,"ĠUnion":4294,"Ġactive":4295,"Ġworldwide":4296,"Ġseek":4297,"ĠHealth":4298,"ĠIslands":4299,"Ġcapt":4300,"Ġelectronic":4301,"Ġaccepted":4302,"Ġinnovative":4303,"Ġsettings":4304,"Every":4305,"IA":4306,"ares":4307,"bru":4308,"gar":4309,"Ġwish":4310,"Ġdining":4311,"ctor":4312,"amily":4313,"ĠMont":4314,"ĠHD":4315,"apers":4316,"force":4317,"aste":4318,"asts":4319,"Ġmanage":4320,"Ġclimate":4321,"Ġclients":4322,"ĠThailand":4323,"Ġrecent":4324,"aza":4325,"Ġprograms":4326,"attle":4327,"ĠLocation":4328,"Ġseparate":4329,"ĠMarketing":4330,"Ġcompletely":4331,"Because":4332,"IF":4333,"Use":4334,"han":4335,"new":4336,"Ġscre":4337,"ros":4338,"Ġhum":4339,"apid":4340,"ĠGarden":4341,"ĠEnd":4342,"ĠEconom":4343,"Ġshower":4344,"ocol":4345,"ovember":4346,"ĠDecember":4347,"Ġcarry":4348,"ĠAdmin":4349,"ĠSpanish":4350,"ĠClass":4351,"Ġinfrastructure":4352,"Ġphoto":4353,"Ġreflect":4354,"Ġidea":4355,"Ġflowers":4356,"Ġregistered":4357,"ĠCENTURY":4358,"Press":4359,"cul":4360,"xim":4361,"Ġcry":4362,"alu":4363,"ellect":4364,"Ġlau":4365,"aming":4366,"ĠMarch":4367,"term":4368,"verter":4369,"ĠHel":4370,"ĠRome":4371,"osing":4372,"ĠGreat":4373,"Ġshipping":4374,"Ġcancer":4375,"Ġpercent":4376,"Ġuseful":4377,"Ġ500":4378,"Ġprim":4379,"Ġinstitut":4380,"ticles":4381,"Ġdecor":4382,"Ġincreasing":4383,"Ġhostels":4384,"Ġfriendly":4385,"Ġsensors":4386,"Ġmotor":4387,"Ġconvenient":4388,"ä¸Ń":4389,"Ġcomprehensive":4390,"Co":4391,"band":4392,"zhen":4393,"Â°":4394,"Ġcold":4395,"Ġmm":4396,"ĠCle":4397,"ĠCert":4398,"Ġrele":4399,"ĠDrive":4400,"ĠLake":4401,"ĠRad":4402,"ĠGood":4403,"Ġexternal":4404,"Ġremember":4405,"Ġ2008":4406,"Ġgeneration":4407,"Ġswitch":4408,"Ġautomatic":4409,"Ġadvantage":4410,"Ġsleep":4411,"Ġpolitical":4412,"37":4413,"64":4414,"85":4415,"II":4416,"cher":4417,"nce":4418,"tr":4419,"het":4420,"Ġpul":4421,"Ġinform":4422,"roduction":4423,"Ġrelease":4424,"ida":4425,"usion":4426,"Ġshared":4427,"lication":4428,"Ġarr":4429,"Ġremote":4430,"ĠTravel":4431,"ĠFramework":4432,"Ġpurposes":4433,"Ġrestaurants":4434,"Ġeffects":4435,"Ġposted":4436,"Ġwrong":4437,"Ġeconomy":4438,"Ġcleaning":4439,"ĠPeople":4440,"ilitary":4441,"Ġcamera":4442,"Ġindependent":4443,"Ġdeposit":4444,"Ġessential":4445,"Me":4446,"Most":4447,"cond":4448,"field":4449,"ht":4450,"ius":4451,"iance":4452,"with":4453,"Ġaward":4454,"Ġsal":4455,"Ġcities":4456,"Ġwife":4457,"Ġwriting":4458,"anning":4459,"Ġfresh":4460,"Ġpages":4461,"Ġbi":4462,"Ġmaster":4463,"iced":4464,"ĠSaf":4465,"ĠCouncil":4466,"otive":4467,"Ġelements":4468,"usal":4469,"Ġgives":4470,"ĠIC":4471,"ĠMain":4472,"ĠDo":4473,"una":4474,"unk":4475,"ĠEduc":4476,"Ġwhom":4477,"Ġshut":4478,"ificate":4479,"While":4480,"rency":4481,"Ġserious":4482,"ĠItalian":4483,"Ġnearby":4484,"Ġsubst":4485,"Ġdirection":4486,"Ġhardware":4487,"Ġallowed":4488,"Usage":4489,"ĠAutom":4490,"Ġanswer":4491,"Ġheaven":4492,"Ġmeasurement":4493,"ĠDirector":4494,"Ġdistribution":4495,"About":4496,"69":4497,"Don":4498,"PC":4499,"PR":4500,"fa":4501,"Ġweld":4502,"anz":4503,"Ġboy":4504,"Ġmiss":4505,"ĠPublic":4506,"ĠMount":4507,"ĠGl":4508,"ores":4509,"pper":4510,"Ġwebsites":4511,"Ġenable":4512,"ruit":4513,"Ġcool":4514,"Ġconsent":4515,"Ġblue":4516,"ĠSupport":4517,"Ġextra":4518,"Ġdefin":4519,"Ġwrite":4520,"Ġaffili":4521,"Ġapproach":4522,"Ġsuccessful":4523,"Ġmessages":4524,"Ġdedicated":4525,"UN":4526,"nect":4527,"Ġtried":4528,"Ġapartments":4529,"ened":4530,"ĠClick":4531,"Ġreached":4532,"Ġled":4533,"urers":4534,"ĠAvenue":4535,"acle":4536,"ĠDet":4537,"unities":4538,"Ġvirtual":4539,"ĠInf":4540,"izes":4541,"Ġ31":4542,"Ġunits":4543,"ittee":4544,"Ġamenities":4545,"Ġtransact":4546,"Ġregular":4547,"olutions":4548,"ribute":4549,"Ġprotected":4550,"ounter":4551,"Ġmulti":4552,"Ġgrowing":4553,"Ġfilm":4554,"Ġoccur":4555,"ĠPrivate":4556,"Ġmethods":4557,"ĠDepart":4558,"39":4559,"88":4560,"Let":4561,"Ltd":4562,"ka":4563,"wikipedia":4564,"rew":4565,"itzer":4566,"Ġwild":4567,"Ġball":4568,"Ġinput":4569,"Ġdyn":4570,"Ġholiday":4571,"omen":4572,"ĠSat":4573,"ĠSur":4574,"ĠCons":4575,"ĠPan":4576,"ador":4577,"ĠMedia":4578,"ĠHu":4579,"ĠHTML":4580,"ĠLo":4581,"abit":4582,"allery":4583,"henzhen":4584,"Ġenables":4585,"Ġplaced":4586,"ĠProject":4587,"Ġmodify":4588,"âĤ¬ï¿½":4589,"Ġexpected":4590,"cony":4591,"Ġsurve":4592,"Ġfinal":4593,"Ġmachines":4594,"Ġstrateg":4595,"Ġbedroom":4596,"Ġpopulation":4597,"ĠWhite":4598,"zech":4599,"Ġinnovation":4600,"ĠÂ»":4601,"Ġadministr":4602,"ĠSanta":4603,"ĠArea":4604,"Ġorganizations":4605,"Part":4606,"Since":4607,"ca":4608,"ev":4609,"ien":4610,"ipe":4611,"Ġ=":4612,"itter":4613,"Ġcop":4614,"Ġcivil":4615,"inger":4616,"Ġnor":4617,"ĠPop":4618,"ĠPDF":4619,"ĠMot":4620,"iring":4621,"ĠRem":4622,"ĠFre":4623,"Ġdeals":4624,"Ġrub":4625,"umin":4626,"ears":4627,"ello":4628,"Ġintellig":4629,"Ġactually":4630,"Ġ90":4631,"Ġattention":4632,"Ġeveryone":4633,"ĠTrade":4634,"Ġ2009":4635,"porary":4636,"Ġincreased":4637,"attery":4638,"Ġdomestic":4639,"visor":4640,"embly":4641,"Ġcollabor":4642,"42":4643,"OM":4644,"aud":4645,"eed":4646,"hol":4647,"Ġç":4648,"arian":4649,"asons":4650,"Ġlives":4651,"ĠAD":4652,"ĠGet":4653,"ĠWestern":4654,"Ġcompli":4655,"ĠKey":4656,"Ġresolution":4657,"igned":4658,"Ġspacious":4659,"ĠGuangzhou":4660,"Ġstrategy":4661,"Ġlisted":4662,"Ġevidence":4663,"Also":4664,"Ġresponsibility":4665,"ĠBuilding":4666,"bourne":4667,"HE":4668,"Less":4669,"OD":4670,"Room":4671,"la":4672,"nown":4673,"Ã¼":4674,"æĸ":4675,"Ġaim":4676,"including":4677,"Ġfitness":4678,"aling":4679,"Ġinternal":4680,"icient":4681,"ashing":4682,"ĠSpe":4683,"ĠCy":4684,"ĠCult":4685,"idel":4686,"images":4687,"ĠTur":4688,"Ġstood":4689,"ĠHist":4690,"ĠFacebook":4691,"ĠEr":4692,"Ġexerc":4693,"Ġrather":4694,"Ġqual":4695,"Ġdetailed":4696,"prises":4697,"azing":4698,"ĠFranc":4699,"ĠAndroid":4700,"Ġideas":4701,"Ġbrother":4702,"Ġclosed":4703,"ĠPortug":4704,"razil":4705,"ĠOrganization":4706,"owntown":4707,"VD":4708,"che":4709,"key":4710,"Ġsold":4711,"Ġsense":4712,"oring":4713,"ndry":4714,"Ġcast":4715,"Ġferries":4716,"ala":4717,"arium":4718,"Ġmix":4719,"ola":4720,"ĠTool":4721,"agn":4722,"ĠLat":4723,"ĠEmail":4724,"ĠNovember":4725,"udget":4726,"Ġthemselves":4727,"ĠProcess":4728,"Ġflu":4729,"Ġfollowed":4730,"ippo":4731,"poration":4732,"ĠPrague":4733,"Ġinflu":4734,"ĠInstruments":4735,"Ġflower":4736,"Ġunderstanding":4737,"Ġmoving":4738,"Ġbehav":4739,"Ġelse":4740,"Ġreservation":4741,"Address":4742,"Ġanti":4743,"Ġsummer":4744,"ĠEngineering":4745,"41":4746,"500":4747,"List":4748,"Note":4749,"ded":4750,"fol":4751,"gage":4752,"iers":4753,"mas":4754,"more":4755,"nal":4756,"pat":4757,"ran":4758,"za":4759,"Åĵ":4760,"ĠâĤ¬":4761,"alle":4762,"Ġtowards":4763,"road":4764,"amed":4765,"Ġprogress":4766,"abled":4767,"ĠFed":4768,"ĠFlow":4769,"Ġring":4770,"ĠUK":4771,"Ġsuitable":4772,"anges":4773,"ĠJo":4774,"ĠStore":4775,"aven":4776,"ults":4777,"Ġtea":4778,"Ġserved":4779,"Ġspread":4780,"Ġsomeone":4781,"iquid":4782,"ĠConvention":4783,"Ġdiscount":4784,"Ġchanged":4785,"ĠFeature":4786,"ydney":4787,"Ġcampsite":4788,"celona":4789,"electronics":4790,"Ġcircum":4791,"Ġpicture":4792,"Ġregarding":4793,"ĠASP":4794,"ĠRestaurant":4795,"Ġbecomes":4796,"Ġparents":4797,"ellectual":4798,"66":4799,"Even":4800,"MB":4801,"Select":4802,"Vis":4803,"eff":4804,"pic":4805,"tle":4806,"Ã¡":4807,"Ġcock":4808,"Ġmis":4809,"Ġdim":4810,"roy":4811,"oms":4812,"ilies":4813,"ston":4814,"Ġnames":4815,"Ġear":4816,"ĠAM":4817,"ĠLong":4818,"ĠRiver":4819,"Ġexcept":4820,"Ġshown":4821,"Ġgoal":4822,"Ġquiet":4823,"Ġprepar":4824,"Ġreliability":4825,"Ġdeveloping":4826,"Ġbusinesses":4827,"Ġgetting":4828,"Ġweeks":4829,"Ġesc":4830,"Ġmeaning":4831,"Ġproduce":4832,"Ġopportunities":4833,"Ġpictures":4834,"ĠTaiwan":4835,"'d":4836,"Aut":4837,"Eng":4838,"iant":4839,"then":4840,"Ġicon":4841,"erate":4842,"Ġwonder":4843,"isation":4844,"Ġbirth":4845,"ĠCD":4846,"Ġge":4847,"ĠPaul":4848,"ĠMo":4849,"ĠMax":4850,"ĠDen":4851,"rif":4852,"ĠFood":4853,"Ġsuite":4854,"Ġtrying":4855,"ialog":4856,"Ġcontribut":4857,"ĠStar":4858,"Ġ300":4859,"Ġresistance":4860,"Ġclient":4861,"Ġmyself":4862,"China":4863,"Ġbright":4864,"ĠArts":4865,"Ġapplicable":4866,"ĠSuite":4867,"ĠQue":4868,"Ġdecided":4869,"Ġtrading":4870,"vernment":4871,"ĠCommunity":4872,"Ġpromote":4873,"Ġeye":4874,"ĠCalifornia":4875,"Ġsignificant":4876,"CE":4877,"Hippo":4878,"sm":4879,"ued":4880,"Ġ?":4881,"Ġtal":4882,"Ġfight":4883,"Ġpen":4884,"Ġmatch":4885,"ĠSTM":4886,"ĠCzech":4887,"ĠTutor":4888,"ĠHuman":4889,"ĠLink":4890,"Ġ(@":4891,"ĠFire":4892,"Ġwhose":4893,"Ġweather":4894,"ava":4895,"iki":4896,"place":4897,"Ġspend":4898,"enced":4899,"encies":4900,"ĠControl":4901,"Ġentered":4902,"Ġwalking":4903,"Ġcourt":4904,"Ġlimit":4905,"Ġdemon":4906,"ĠApple":4907,"aught":4908,"Ġcharacteristics":4909,"ombia":4910,"ĠFileHippo":4911,"ĠDavid":4912,"bruary":4913,"usalem":4914,"itzerland":4915,"43":4916,"AG":4917,"Berry":4918,"IV":4919,"dam":4920,"nel":4921,"point":4922,"yond":4923,"rec":4924,"Ġcov":4925,"Ġmention":4926,"Ġluxury":4927,"ĠPat":4928,"ĠLCD":4929,"Ġvs":4930,"Ġrich":4931,"ĠChat":4932,"Ġund":4933,"ellers":4934,"ansion":4935,"lection":4936,"Ġ45":4937,"Ġinstead":4938,"Ġevalu":4939,"Ġskin":4940,"liers":4941,"Ġlanguages":4942,"Ġparam":4943,"Ġinteresting":4944,"Ġconfiguration":4945,"ĠEquipment":4946,"89":4947,"RM":4948,"gal":4949,"hu":4950,"ãĢ":4951,"itiz":4952,"Ġcore":4953,"Ġbound":4954,"Ġder":4955,"Ġdied":4956,"ĠCode":4957,"Ġisland":4958,"ĠFair":4959,"Ġvul":4960,"Ġrapid":4961,"ailway":4962,"Ġ--":4963,"Ġcompress":4964,"ĠChar":4965,"formance":4966,"Ġrot":4967,"order":4968,"bert":4969,"Ġfee":4970,"Ġrequires":4971,"grade":4972,"ĠSex":4973,"Ġguide":4974,"Ġsetting":4975,"Ġserve":4976,"ĠPlay":4977,"Ġowners":4978,"ĠSpa":4979,"Ġsupported":4980,"Ġstudent":4981,"ashion":4982,"anguage":4983,"ĠScience":4984,"Ġletter":4985,"ĠAssoci":4986,"Ġaccuracy":4987,"Ġannoun":4988,"Ġgraphics":4989,"Ġarchitecture":4990,"condition":4991,"04":4992,"CC":4993,"Oh":4994,"Sc":4995,"Sm":4996,"bu":4997,"gas":4998,"ii":4999,"kok":5000,"lines":5001,"mosp":5002,"off":5003,"tage":5004,"ye":5005,"Ġwat":5006,"Ġfair":5007,"Ġfuel":5008,"Ġpaid":5009,"edd":5010,"Ġmid":5011,"Ġdie":5012,"omes":5013,"ĠSM":5014,"ĠSale":5015,"ĠCong":5016,"Ġnice":5017,"Ġgen":5018,"ĠTrip":5019,"ĠMem":5020,"osition":5021,"Ġcomment":5022,"Ġexport":5023,"Ġdeb":5024,"Ġrat":5025,"Ġshape":5026,"Ġchat":5027,"Ġcompat":5028,"Ġ32":5029,"Ġtele":5030,"Ġprem":5031,"Ġpret":5032,"ifications":5033,"obby":5034,"Ġreco":5035,"icroelectronics":5036,"Ġcorporate":5037,"Super":5038,"Ġincor":5039,"Ġpackaging":5040,"Ġreplace":5041,"Ġinitial":5042,"respond":5043,"ĠJerusalem":5044,"Ġwelding":5045,"ĠSTMicroelectronics":5046,"54":5047,"86":5048,"PE":5049,"SD":5050,"ris":5051,"yo":5052,"Ġaware":5053,"Ġsoul":5054,"Ġfold":5055,"Ġfirm":5056,"Ġpet":5057,"rote":5058,"ĠSydney":5059,"Ġliable":5060,"Ġliability":5061,"Ġlaser":5062,"Ġformer":5063,"Ġbeyond":5064,"ĠBen":5065,"ĠBrazil":5066,"Ġstress":5067,"Ġconference":5068,"ĠFil":5069,"quarium":5070,"ĠGlobal":5071,"atever":5072,"Ġexclusive":5073,"ĠOver":5074,"Ġchain":5075,"inding":5076,"ending":5077,"Ġscen":5078,"Ġscience":5079,"Ġattempt":5080,"ounge":5081,"404":5082,"Ġpatent":5083,"Ġoccas":5084,"ĠIndustrial":5085,"ĠLimited":5086,"Ġjourney":5087,"ĠAngel":5088,"uisine":5089,"59":5090,"XX":5091,"bl":5092,"uit":5093,"win":5094,"Ġsight":5095,"Ġsports":5096,"ora":5097,"itude":5098,"ĠCON":5099,"Ġeleg":5100,"acific":5101,"Ġgate":5102,"ĠPress":5103,"amm":5104,"ĠBible":5105,"ĠLife":5106,"Ġaltern":5107,"ĠEv":5108,"ailable":5109,"outique":5110,"ĠStock":5111,"Ġmanual":5112,"Ġspot":5113,"Ġcommitted":5114,"Who":5115,"othing":5116,"Ġassist":5117,"Ġremov":5118,"Ġvision":5119,"Ġedge":5120,"porter":5121,"ĠBlog":5122,"ĠBlue":5123,"standing":5124,"levision":5125,"Ġsatellite":5126,"ĠBarcelona":5127,"Ġcombination":5128,"ĠSystems":5129,"Ġvolume":5130,"Ġclaims":5131,"Ġfailure":5132,"Ġarrival":5133,"ĠReviews":5134,"ĠMilan":5135,"Man":5136,"mb":5137,"Ġsustain":5138,"itors":5139,"edom":5140,"Ġmilitary":5141,"ĠPeter":5142,"odes":5143,"osh":5144,"osure":5145,"ĠFort":5146,"iff":5147,"Ġship":5148,"Ġseason":5149,"anging":5150,"ideos":5151,"Ġappoint":5152,"ishing":5153,"party":5154,"merce":5155,"Ġremain":5156,"ĠConst":5157,"Ġcorrespond":5158,"Ġreturned":5159,"Ġissue":5160,"Ġdriving":5161,"ĠMachine":5162,"According":5163,"Ġchallenges":5164,"Ġreleased":5165,"Lesson":5166,"Ġrecovery":5167,"87":5168,"Det":5169,"Look":5170,"Pe":5171,"RC":5172,"bur":5173,"care":5174,"ps":5175,"onia":5176,"Ġsolid":5177,"Ġsociety":5178,"Ġcru":5179,"Ġdriver":5180,"Ġhyd":5181,"Ġthy":5182,"oto":5183,"Ġlate":5184,"ĠMart":5185,"ĠMaster":5186,"ĠDem":5187,"riage":5188,"ript":5189,"ĠFirst":5190,"ĠFather":5191,"Ġexact":5192,"Ġrain":5193,"Ġatmosp":5194,"Ġkiss":5195,"ĠOper":5196,"ipal":5197,"ĠInvest":5198,"ĠThey":5199,"Ġteacher":5200,"ensions":5201,"chnical":5202,"Ġpersons":5203,"Ġcolumn":5204,"Ġcompleted":5205,"ĠPlaza":5206,"Admin":5207,"ĠSwitzerland":5208,"Ġflexibility":5209,"Ġprinciples":5210,"Ġcaused":5211,"Ġlikely":5212,"Ġdatabase":5213,"Ġdiamond":5214,"03":5215,"05":5216,"Get":5217,"LC":5218,"Many":5219,"col":5220,"lation":5221,"pite":5222,"atively":5223,"Ġwrote":5224,"ald":5225,"edit":5226,"icrow":5227,"ĠSch":5228,"ĠCH":5229,"ĠPoint":5230,"ĠMiddle":5231,"Ġpropos":5232,"ĠBC":5233,"ifically":5234,"Ġcomments":5235,"ĠEN":5236,"Ġvillage":5237,"ĠNor":5238,"ardens":5239,"ĠJust":5240,"raight":5241,"coming":5242,"Ġprovider":5243,"Ġcars":5244,"Ġminute":5245,"Ġ2007":5246,"199":5247,"ĠConference":5248,"author":5249,"2015":5250,"ĠAsian":5251,"Ġreports":5252,"ĠFebruary":5253,"Ġobjects":5254,"ĠDisc":5255,"Ġconsumption":5256,"Ġaudio":5257,"Ġdegree":5258,"æĸĩ":5259,",âĢĿ":5260,"47":5261,"Dr":5262,"Of":5263,"Open":5264,"PG":5265,"UD":5266,"ae":5267,"aign":5268,"Â»":5269,"eria":5270,"oriz":5271,"Ġwis":5272,"Ġpal":5273,"aled":5274,"Ġborn":5275,"Ġdress":5276,"Ġdrug":5277,"ĠSP":5278,"ĠSy":5279,"ĠSales":5280,"ĠCost":5281,"ĠMer":5282,"ĠMex":5283,"ulate":5284,"oday":5285,"anda":5286,"Ġdeploy":5287,"Ġgoes":5288,"Ġneigh":5289,"Ġprovision":5290,"Ġminimum":5291,"ĠExper":5292,"covery":5293,"ĠPlace":5294,"ĠHead":5295,"ĠResearch":5296,"Ġspecified":5297,"Ġplayer":5298,"Once":5299,"Ġstreet":5300,"Ġincome":5301,"Ġsituated":5302,"ĠCorporation":5303,"Ġbalcony":5304,"Ġflexible":5305,"Ġadvertising":5306,"Ġguarantee":5307,"ealand":5308,"):":5309,"02":5310,"Fin":5311,"friend":5312,"ky":5313,"png":5314,"Ġcards":5315,"Ġworth":5316,"Ġfaster":5317,"lebr":5318,"Ġhosp":5319,"enty":5320,"ĠSet":5321,"urrent":5322,"Ġstone":5323,"ĠDigital":5324,"ĠRoyal":5325,"andy":5326,"Ġrank":5327,"ella":5328,"Ġoverall":5329,"Ġregional":5330,"Ġproviders":5331,"Ġgets":5332,"Ġvalve":5333,"ĠZealand":5334,"Ġelectrical":5335,"ĠCommittee":5336,"Ġpositive":5337,"Although":5338,"Ġintegration":5339,"Ġpresence":5340,"Ġcultural":5341,"ĠIntel":5342,"Ġlicens":5343,"aughter":5344,"Ġparticularly":5345,"Description":5346,"ĠProfile":5347,"ĠSteam":5348,"Ġenhance":5349,"ĠBerlin":5350,"folio":5351,"AY":5352,"Post":5353,"Ġ*":5354,"Ġtree":5355,"inner":5356,"reate":5357,"itage":5358,"Ġwelcome":5359,"entary":5360,"ĠSum":5361,"Ġlamp":5362,"Ġnorth":5363,"ĠAp":5364,"ĠHol":5365,"ĠDom":5366,"rietary":5367,"ander":5368,"istan":5369,"Ġdepartment":5370,"ĠVer":5371,"ĠVen":5372,"Ġreserve":5373,"Ġapps":5374,"ensity":5375,"onto":5376,"Ġthereof":5377,"ĠProper":5378,"ancy":5379,"Ġinterests":5380,"Ġactual":5381,"Ġrecover":5382,"Ġassess":5383,"Ġassistance":5384,"Ġhandle":5385,"Ġdifference":5386,"Ġsubmit":5387,"IND":5388,"Ġenterprises":5389,"Ġthinking":5390,"Ġpractical":5391,"Ġcommunications":5392,"Ġidentify":5393,"ĠFinland":5394,"Ġcontinued":5395,"Ġlarger":5396,"Ġupdated":5397,"Ġmovement":5398,"Enter":5399,"Ġorders":5400,"ĠBangkok":5401,"Ġthousand":5402,"ĠMelbourne":5403,".'":5404,"09":5405,"CA":5406,"Dis":5407,"OG":5408,"mon":5409,"oe":5410,"sy":5411,"Ġack":5412,"Ġsy":5413,"Ġsector":5414,"ita":5415,"Ġcuisine":5416,"isure":5417,"Ġfear":5418,"Ġpoor":5419,"Ġble":5420,"Ġbillion":5421,"Ġdrop":5422,"ĠSi":5423,"Ġrepe":5424,"Ġgone":5425,"ĠMark":5426,"Ġsty":5427,"Ġstraight":5428,"ulated":5429,"Ġplastic":5430,"Ġaccom":5431,"Ġapplied":5432,"rument":5433,"Ġprovisions":5434,"Ġimpress":5435,"Ġcurrency":5436,"Ġstudies":5437,"Advisor":5438,"Ġfactors":5439,"ĠParking":5440,"Ġmedium":5441,"Ġcombined":5442,"Ġindividuals":5443,"Ġanswered":5444,"ĠBoard":5445,"Ġencour":5446,"Quick":5447,"Ġtransportation":5448,"Ġsaved":5449,"ĠISO":5450,"Ġinvolved":5451,"Ġterrace":5452,"ä¸Ńæĸĩ":5453,"ĠEducation":5454,"250":5455,"Her":5456,"IR":5457,"Sub":5458,"css":5459,"uj":5460,"iny":5461,"Ġsources":5462,"enge":5463,"icial":5464,"Ġdream":5465,"Ġreality":5466,"Ġreference":5467,"ĠAfter":5468,"ĠMAC":5469,"ĠBi":5470,"ĠBath":5471,"ĠHa":5472,"ĠLis":5473,"ĠWashing":5474,"erved":5475,"ĠJe":5476,"ĠKe":5477,"Ġadop":5478,"Ġmanner":5479,"Ġrock":5480,"play":5481,"ĠYear":5482,"Ġworkers":5483,"Web":5484,"lesh":5485,"Ġflor":5486,"Ġremains":5487,"nergy":5488,"Ġmainly":5489,"Ġoperate":5490,"ĠGuide":5491,"Ġrepair":5492,"Ġcorner":5493,"Ġdefault":5494,"Ġbeds":5495,"appy":5496,"Ġcurrently":5497,"Ġstatement":5498,"ĠFlore":5499,"Ġjoin":5500,"ĠAuthor":5501,"Black":5502,"Ġattractions":5503,"Ġmechanism":5504,"Ġvehicle":5505,"Ġprocedures":5506,"Ġoblig":5507,"ĠBritish":5508,"ximately":5509,"Ġvulner":5510,"icrowave":5511,"48":5512,"CP":5513,"Car":5514,"Col":5515,"Log":5516,"Mr":5517,"haps":5518,"Ġtitle":5519,"atre":5520,"Ġbag":5521,"Ġdates":5522,"roc":5523,"Ġhy":5524,"Ġelement":5525,"Ġgiving":5526,"ĠTime":5527,"ĠMess":5528,"irus":5529,"ĠBig":5530,"ĠHall":5531,"ĠLas":5532,"pped":5533,"ects":5534,"Ġtruly":5535,"ĠOS":5536,"ĠChild":5537,"ĠKel":5538,"ibration":5539,"Ġ33":5540,"Ġunless":5541,"Ġclub":5542,"Ġquant":5543,"Ġspring":5544,"Ġ75":5545,"Ġsupports":5546,"Ġstarting":5547,"Ġleader":5548,"Ġswimming":5549,"Ġwalked":5550,"afe":5551,"ĠInstitute":5552,"Ġfields":5553,"Ġdestination":5554,"Ġdamages":5555,"Ġannual":5556,"Ġwait":5557,"Ġregulations":5558,"Ġpanel":5559,"Ġdisease":5560,"ĠLinux":5561,"ĠCustomer":5562,"Ġscientific":5563,"Ġnavigation":5564,"Ġcompliance":5565,"ĠTripAdvisor":5566,"07":5567,"DS":5568,"Hz":5569,"TO":5570,"gment":5571,"js":5572,"my":5573,"Ġaw":5574,"Ġsession":5575,"orrow":5576,"Ġthreat":5577,"ĠPay":5578,"ĠPrem":5579,"ĠMov":5580,"ĠHoliday":5581,"ula":5582,"ĠLab":5583,"ĠRF":5584,"emale":5585,"Ġexecut":5586,"ĠNatural":5587,"Ġcompared":5588,"Ġplants":5589,"Ġresort":5590,"Ġpermitted":5591,"eping":5592,"Ġpray":5593,"Ġcoast":5594,"Ġfinally":5595,"Ġopening":5596,"opyright":5597,"ategories":5598,"ĠiP":5599,"opped":5600,"Ġdestinations":5601,"Ġreserves":5602,"ĠPalace":5603,"Ġafford":5604,"ĠBudd":5605,"Ġhistorical":5606,"Ġseemed":5607,"Ġdescribed":5608,"conditioned":5609,"Ġatmosphere":5610,"Cert":5611,"Top":5612,"body":5613,"ker":5614,"missions":5615,"Ġsitting":5616,"Ġsailing":5617,"oria":5618,"Ġcer":5619,"Ġpo":5620,"ario":5621,"Ġbudget":5622,"Ġtoward":5623,"Ġdoub":5624,"sten":5625,"ĠCard":5626,"Ġreact":5627,"idi":5628,"ĠAlex":5629,"igration":5630,"ĠBa":5631,"Ġhearing":5632,"Ġstage":5633,"Ġstability":5634,"rix":5635,"Ġshops":5636,"Ġleisure":5637,"Ġ34":5638,"Ġ36":5639,"class":5640,"Ġagents":5641,"Ġ48":5642,"Ġarising":5643,"Ġspa":5644,"aysia":5645,"ĠDec":5646,"Ġscript":5647,"Ġsmooth":5648,"ĠExp":5649,"ĠFrank":5650,"Ġentry":5651,"Ġimproved":5652,"Ġmanufacturers":5653,"Ġmedic":5654,"Ġpackage":5655,"Ġcharacters":5656,"Ġachie":5657,"ĠProfess":5658,"Ġhappened":5659,"Ġmechanical":5660,"Ġfurniture":5661,"ĠProtection":5662,"Ġopin":5663,"html":5664,"Br":5665,"CS":5666,"EP":5667,"First":5668,"Lab":5669,"Next":5670,"but":5671,"pack":5672,"well":5673,"Ġtail":5674,"Ġsouth":5675,"Ġwine":5676,"Ġmil":5677,"Ġliquid":5678,"uts":5679,"oles":5680,"ĠTok":5681,"ĠMobile":5682,"lym":5683,"Ġstruct":5684,"ĠHard":5685,"ums":5686,"Ġshop":5687,"Ġsharing":5688,"outhern":5689,"Ġpred":5690,"type":5691,"Ġcarried":5692,"mercial":5693,"ourses":5694,"print":5695,"Ġowner":5696,"Ġnearly":5697,"Ġpassed":5698,"iques":5699,"Ġfinished":5700,"Ġinfo":5701,"Ġvisiting":5702,"ĠCommunic":5703,"Ġpractices":5704,"Ġreasonable":5705,"Ġorigin":5706,"Ġcells":5707,"Ġthermal":5708,"ĠCasino":5709,"Ġcritical":5710,"ĠToronto":5711,"ĠFlorence":5712,"06":5713,"During":5714,"Double":5715,"God":5716,"TC":5717,"cow":5718,"cious":5719,"faces":5720,"vanced":5721,"ĠSpr":5722,"othes":5723,"ĠAB":5724,"Ġisn":5725,"amster":5726,"ĠTim":5727,"ĠMor":5728,"cean":5729,"ĠHo":5730,"riven":5731,"osen":5732,"ĠGirl":5733,"Ġaspect":5734,"ĠEU":5735,"ĠWelcome":5736,"Ġdepart":5737,"ĠNav":5738,"ĠOF":5739,"Ġwear":5740,"Ġimag":5741,"Ġarbit":5742,"rowse":5743,"Ġsuppliers":5744,"âĤ¬Â":5745,"Ġflight":5746,"Ġkept":5747,"Ġpoly":5748,"ĠIndian":5749,"ĠConf":5750,"Prov":5751,"Ġlowest":5752,"Ġchanging":5753,"Ġpattern":5754,"Ġfeeling":5755,"uket":5756,"Ġcalcul":5757,"Ġdelivered":5758,"Ġcompetition":5759,"Ġappears":5760,"Location":5761,"Ġmountain":5762,"Ġimplementation":5763,"Ġdepending":5764,"Ġdetermine":5765,"Ġbottom":5766,"ĠEstate":5767,"Ġexperiences":5768,"Ġpieces":5769,"ĠDubai":5770,"Ġextremely":5771,"idelines":5772,"ĠFrancisco":5773,"ĠAssociation":5774,"Custom":5775,"Out":5776,"Per":5777,"TA":5778,"cient":5779,"dong":5780,"flow":5781,"Ã¶":5782,"Ġtri":5783,"Ġcitiz":5784,"Ġinj":5785,"Ġtoilet":5786,"ĠCr":5787,"Ġreasons":5788,"Ġlibrary":5789,"idents":5790,"Ġforg":5791,"abric":5792,"emporary":5793,"ainless":5794,"Ġvent":5795,"Ġexhib":5796,"ustr":5797,"aked":5798,"Ġchair":5799,"Ġcharm":5800,"ervation":5801,"Ġ38":5802,"Ġ39":5803,"Ġaccel":5804,"ously":5805,"Inst":5806,"Ġagre":5807,"Ġpermission":5808,"iano":5809,"Ġworked":5810,"Ġcommit":5811,"Ġlocations":5812,"ĠSee":5813,"Ġhelpful":5814,"Ġvisual":5815,"Ġvalu":5816,"Ġ2005":5817,"ĠQuality":5818,"Therefore":5819,"Ġcalls":5820,"ĠYoung":5821,"Ġforest":5822,"ĠFlor":5823,"Ġprofession":5824,"Ġstored":5825,"Ġconsumer":5826,"Phone":5827,"Ġtranslation":5828,"ĠWordPress":5829,"igerator":5830,"ĠMexico":5831,"Data":5832,"Sim":5833,"cam":5834,"ki":5835,"lor":5836,"pet":5837,"ta":5838,"Ġriver":5839,"hel":5840,"Ġsort":5841,"enior":5842,"Ġburn":5843,"Ġbird":5844,"Ġbattery":5845,"Ġinject":5846,"Ġtow":5847,"lear":5848,"ĠSolutions":5849,"ĠCare":5850,"Ġreform":5851,"Ġeight":5852,"ĠPersonal":5853,"ĠPacific":5854,"amin":5855,"Ġheating":5856,"ĠHY":5857,"Ġconcent":5858,"rier":5859,"ifts":5860,"Ġwhatever":5861,"Ġwaste":5862,"Ġkids":5863,"pth":5864,"ĠViet":5865,"ĠChi":5866,"eller":5867,"berg":5868,"orship":5869,"Ġarticles":5870,"obe":5871,"Ġnoise":5872,"ĠSeoul":5873,"ocket":5874,"Ġ70":5875,"ĠArticle":5876,"Ġforms":5877,"Ġevening":5878,"Ġstanding":5879,"ĠCloud":5880,"Start":5881,"Ġcertification":5882,"ropical":5883,"ĠCollege":5884,"Ġseconds":5885,"Ġapproximately":5886,"Ġsuccessfully":5887,"Ġbeauty":5888,"Ġkinds":5889,"Ġreservations":5890,"netic":5891,"hemical":5892,"Ġpartnership":5893,"cretion":5894,"Ġiniti":5895,"Ġdelete":5896,"ĠGreece":5897,"Ġconfirmation":5898,"Ġcircumst":5899,"Ġelegant":5900,"67":5901,"Air":5902,"CT":5903,"FS":5904,"OP":5905,"bel":5906,"cell":5907,"da":5908,"dden":5909,"jiang":5910,"oose":5911,"uum":5912,"åı":5913,"Ġir":5914,"Ġcab":5915,"Ġbes":5916,"Ġmail":5917,"Ġmuseum":5918,"icing":5919,"Ġden":5920,"Ġhuge":5921,"eline":5922,"Ġrecre":5923,"uty":5924,"acc":5925,"ĠMc":5926,"ĠMusic":5927,"ĠHot":5928,"ĠFamily":5929,"Ġitem":5930,"orthern":5931,"illions":5932,"ĠNov":5933,"Ġseven":5934,"Ġsudden":5935,"ellow":5936,"Ġadapt":5937,"look":5938,"lications":5939,"Ġintellectual":5940,"ĠThank":5941,"Ġ).":5942,"Ġcreation":5943,"ĠUSB":5944,"Ġresulting":5945,"ĠAlb":5946,"Ġterminate":5947,"Ġentrance":5948,"Ġsignal":5949,"Ġrefr":5950,"2016":5951,"ĠBridge":5952,"Ġhostel":5953,"Ġcareer":5954,"Ġsometimes":5955,"ĠGovernment":5956,"Ġhealthy":5957,"iveness":5958,"Ġdestroy":5959,"Ġcampaign":5960,"ĠAddress":5961,"Ġwinter":5962,"Ġstrengthen":5963,"Ġconvenience":5964,"Ġcreating":5965,"Ġproprietary":5966,"Ġprepared":5967,"ĠStandard":5968,"ĠTicket":5969,"AV":5970,"DM":5971,"Gr":5972,"Main":5973,"how":5974,"ja":5975,"page":5976,"Ġ;":5977,"ĠÃ":5978,"Ġæ":5979,"Ġtab":5980,"inst":5981,"Ġwel":5982,"Ġfarm":5983,"Ġmus":5984,"Ġinvent":5985,"Ġhus":5986,"ĠCat":5987,"ĠTri":5988,"ĠMult":5989,"ĠMaterial":5990,"ĠBab":5991,"Ġconvers":5992,"ĠDi":5993,"ĠLuc":5994,"ifier":5995,"quality":5996,"Ġrise":5997,"âĢ¢":5998,"001":5999,"izer":6000,"Ġplug":6001,"Ġrose":6002,"Ġherself":6003,"Ġperman":6004,"Ġspect":6005,"erts":6006,"Ġinstant":6007,"Ġinstance":6008,"Ġinstruct":6009,"Ġbless":6010,"ĠPlan":6011,"Ġcapabilities":6012,"Ġfamilies":6013,"Ġeasier":6014,"Ġretail":6015,"Ġevil":6016,"Ġautomation":6017,"ungsten":6018,"Ġnetworks":6019,"ĠColombia":6020,"Ġestate":6021,"Ġports":6022,"Ġpatients":6023,"ĠSwed":6024,"Ġreduced":6025,"Ġtravelers":6026,"idden":6027,"ĠLocated":6028,"Ġdisplayed":6029,"ĠFinancial":6030,"Ġanswers":6031,"Ġschools":6032,"Ġcomponent":6033,"Ġprinting":6034,"ĠTourism":6035,"ĠMoscow":6036,"Ġinspection":6037,"Ġbaby":6038,"Ġpowder":6039,"Ġnormal":6040,"Ġprobably":6041,"Ġinfluence":6042,"Back":6043,"Del":6044,"Further":6045,"SA":6046,"Tw":6047,"Type":6048,"craft":6049,"fin":6050,"gn":6051,"ho":6052,"tics":6053,"uzz":6054,"ĠÌ":6055,"Ġband":6056,"Ġmut":6057,"Ġmir":6058,"Ġmist":6059,"roat":6060,"ĠCN":6061,"ĠCru":6062,"ĠAV":6063,"ĠAud":6064,"ushed":6065,"Ġgain":6066,"ĠPorn":6067,"Ġforth":6068,"ĠMa":6069,"ĠMat":6070,"Ġstates":6071,"ĠHy":6072,"Ġven":6073,"ĠWall":6074,"akers":6075,"Ġseat":6076,"anged":6077,"ĠChic":6078,"ĠJack":6079,"Ġcontext":6080,"ĠIns":6081,"ĠKitchen":6082,"Ġintended":6083,"Ġteaching":6084,"Ġdiscretion":6085,"ender":6086,"Ġarms":6087,"ĠâĢº":6088,"Ġamazing":6089,"urns":6090,"ĠShare":6091,"Ġactions":6092,"Ġmodule":6093,"Ġminim":6094,"Ġfoundation":6095,"Ġ2000":6096,"ĠCoast":6097,"ĠZh":6098,"Ġcouldn":6099,"Ġconfidential":6100,"Ġfulf":6101,"Ġgenerally":6102,"Ġreading":6103,"Ġplaying":6104,"Only":6105,"Ġaccommodations":6106,"Ġslight":6107,"Ġoccup":6108,"United":6109,"sterdam":6110,"ĠLocal":6111,"hemat":6112,"Ġgirls":6113,"Ġcovered":6114,"ĠRoman":6115,"ĠTwo":6116,"Ġadvantages":6117,"Ġcelebr":6118,"Ġwidely":6119,"Ġbearings":6120,"Ġbreath":6121,"Ġinstitutions":6122,"95":6123,"Comm":6124,"Mar":6125,"TE":6126,"TP":6127,"iences":6128,"ns":6129,"oen":6130,"onom":6131,"oration":6132,"ester":6133,"Ġcm":6134,"Ġcand":6135,"Ġmatt":6136,"ĠSl":6137,"eting":6138,"Ġglob":6139,"Ġforces":6140,"ĠTimes":6141,"Ġones":6142,"lying":6143,"ĠBah":6144,"Ġstable":6145,"Ġstopped":6146,"unning":6147,"osit":6148,"ĠFind":6149,"quir":6150,"ĠGen":6151,"Ġwasn":6152,"ĠNon":6153,"ĠNear":6154,"ĠUl":6155,"âĢļ":6156,"ipl":6157,"Ġgoals":6158,"Ġnearest":6159,"erman":6160,"hered":6161,"Ġtransform":6162,"Ġconsists":6163,"Ġscale":6164,"Ġaccessible":6165,"Ġviewed":6166,"Ġcollected":6167,"ACT":6168,"Ġholding":6169,"Ġfavour":6170,"iami":6171,"ĠAcadem":6172,"ĠBudapest":6173,"Ġexperienced":6174,"ĠConditions":6175,"rief":6176,"Ġpleasant":6177,"ĠAND":6178,"Ġsatisf":6179,"ĠHistory":6180,"Ġexercise":6181,"Visit":6182,"Ġpretty":6183,"burgh":6184,"44":6185,"AQ":6186,"Act":6187,"HN":6188,"HTML":6189,"life":6190,"mar":6191,"no":6192,"ui":6193,"Ġtube":6194,"Ġahead":6195,"inf":6196,"rest":6197,"Ġsyn":6198,"orge":6199,"ilton":6200,"ĠSH":6201,"ura":6202,"ige":6203,"ĠPet":6204,"amples":6205,"Ġproceed":6206,"Ġstru":6207,"ĠDon":6208,"ĠLos":6209,"odies":6210,"ĠRue":6211,"ĠGal":6212,"ĠGallery":6213,"ĠVict":6214,"Ġleaving":6215,"Ġappe":6216,"Ġdisk":6217,"isement":6218,"ĠReport":6219,"Ġbrands":6220,"ossible":6221,"ĠExchange":6222,"ĠPlatform":6223,"Ġnumbers":6224,"Ġrestrict":6225,"Ġbooks":6226,"ĠForm":6227,"Ġplayers":6228,"Ġportfolio":6229,"Ġexplore":6230,"ĠSky":6231,"Ġcertainly":6232,"Ġauthorities":6233,"ĠIND":6234,"Ġefforts":6235,"ĠCourt":6236,"Ġarrange":6237,"edding":6238,"ĠAngeles":6239,"Ġacknowledge":6240,"ĠWashington":6241,"Ġcircumstances":6242,"68":6243,"GB":6244,"LA":6245,"Sw":6246,"Take":6247,"Under":6248,"iy":6249,"iro":6250,"link":6251,"like":6252,"rim":6253,"rap":6254,"Ġaquarium":6255,"Ġcas":6256,"Ġfit":6257,"Ġfif":6258,"Ġmo":6259,"Ġmal":6260,"Ġhall":6261,"ilos":6262,"Ġlack":6263,"ĠAz":6264,"ĠPeters":6265,"ĠTre":6266,"Ġbeg":6267,"irty":6268,"Ġconsequ":6269,"ĠDong":6270,"uls":6271,"ĠLi":6272,"ĠLuxury":6273,"ateur":6274,"ĠExt":6275,"ĠNations":6276,"ĠUk":6277,"Ġroot":6278,"Ġunauthor":6279,"Ġsofa":6280,"Ġlock":6281,"Ġthanks":6282,"Shanghai":6283,"Ġlooks":6284,"Ġinstrument":6285,"ĠAdvert":6286,"Ġoperator":6287,"engers":6288,"azz":6289,"Ġsimpl":6290,"Ġfacility":6291,"Ġframe":6292,"Ġeffectively":6293,"ĠChristian":6294,"ĠCommission":6295,"Ġmovie":6296,"Ġlogistics":6297,"Trans":6298,"ĠElectronics":6299,"Ġviolation":6300,"Ġrecommended":6301,"ĠFoundation":6302,"ivalent":6303,"Ġcontroller":6304,"Ġfrequency":6305,"Ġexpertise":6306,"Ġintroduced":6307,"Ġpulled":6308,"Ġdynamic":6309,"72":6310,"Gre":6311,"Hel":6312,"IB":6313,"Rest":6314,"SE":6315,"Spe":6316,"Sec":6317,"ais":6318,"cos":6319,"fault":6320,"long":6321,"ras":6322,"rich":6323,"Ġâ":6324,"Ġtaste":6325,"inet":6326,"hent":6327,"Ġtheory":6328,"Ġsons":6329,"Ġcart":6330,"Ġcategories":6331,"enant":6332,"Ġpun":6333,"alty":6334,"Ġthr":6335,"Ġlose":6336,"Ġlift":6337,"ĠAR":6338,"acilities":6339,"Ġgar":6340,"ĠPool":6341,"Ġstri":6342,"Ġstrict":6343,"ĠHill":6344,"ĠHung":6345,"ulous":6346,"Ġalthough":6347,"ĠGolf":6348,"istant":6349,"Ġexceed":6350,"Ġsecret":6351,"Ġcomplim":6352,"Ġenem":6353,"ibly":6354,"inder":6355,"Ġjoy":6356,"Ġupload":6357,"Information":6358,"Ġbrings":6359,"Ġrecently":6360,"Ġbackup":6361,"Ġflights":6362,"Ġhandling":6363,"ĠSund":6364,"Ġconfidence":6365,"ĠAny":6366,"Ġentertainment":6367,"annel":6368,"Ġsigned":6369,"Ġcertificate":6370,"Ġbuildings":6371,"onesia":6372,"ĠAtl":6373,"ĠPeace":6374,"Ġsolar":6375,"Ġprecision":6376,"Ġkingdom":6377,"Ġheavy":6378,"ĠSmart":6379,"Ġsavings":6380,"Ġcreative":6381,"ĠStudio":6382,"ĠRestaurants":6383,"ĠEnterprise":6384,"verseas":6385,"Ġhundreds":6386,"Ġterrit":6387,"ĠSafety":6388,"ĠPortugal":6389,"Ġbehavior":6390,"Ġdemonstr":6391,"Ġmentioned":6392,"ĠTokyo":6393,"ĠHYIP":6394,"Ġhusband":6395,"63":6396,"La":6397,"Mon":6398,"May":6399,"Ne":6400,"TH":6401,"ael":6402,"bol":6403,"ÃŃ":6404,"Ġtub":6405,"Ġap":6406,"Ġsick":6407,"Ġdivers":6408,"level":6409,"Ġhar":6410,"ila":6411,"ĠCams":6412,"Ġnamed":6413,"olis":6414,"Ġgod":6415,"ĠPRO":6416,"ader":6417,"ĠMP":6418,"ĠEnt":6419,"Ġseating":6420,"ĠOlym":6421,"ĠJac":6422,"Ġcontents":6423,"looking":6424,"Ġresource":6425,"Ġservers":6426,"Ġtheme":6427,"Ġdetection":6428,"Ġtransmission":6429,"Ġthank":6430,"ĠSecret":6431,"Ġshowing":6432,"axd":6433,"Ġpersonally":6434,"Ġremoved":6435,"ĠExecutive":6436,"Ġfounded":6437,"Ġmachinery":6438,"ĠAnn":6439,"auty":6440,"Ġautomotive":6441,"ĠPoland":6442,"ĠMinister":6443,"Ġelim":6444,"Ġtalking":6445,"Ġvoltage":6446,"enna":6447,"Ġlayout":6448,"Ġchannel":6449,"urban":6450,"Ġabsolut":6451,"Ġdiseases":6452,"Ġdeleted":6453,"ĠGreek":6454,"Ġtrends":6455,"Ġlaundry":6456,"Ġstrategic":6457,"Ġparameters":6458,"52":6459,"Fr":6460,"Last":6461,"OC":6462,"XP":6463,"car":6464,"cure":6465,"equ":6466,"ga":6467,"gest":6468,"ias":6469,"pire":6470,"xi":6471,"inn":6472,"Ġsect":6473,"Ġsides":6474,"Ġfashion":6475,"icious":6476,"Ġdoll":6477,"ĠSav":6478,"ĠSens":6479,"stan":6480,"Ġreve":6481,"Ġretain":6482,"Ġlies":6483,"Ġnar":6484,"Ġforget":6485,"ĠThen":6486,"ĠBoutique":6487,"ĠRock":6488,"osis":6489,"herlands":6490,"ĠWIND":6491,"Ġexhibition":6492,"Ġdecre":6493,"Ġseems":6494,"ĠVir":6495,"Ġcontained":6496,"cles":6497,"Ġmanager":6498,"Ġuniversity":6499,"Ġdiss":6500,"raham":6501,"Ġ400":6502,"ounds":6503,"Ġspent":6504,"Ġshel":6505,"Ġregions":6506,"Ġsupplies":6507,"Ġwants":6508,"Ġcarbon":6509,"Ġexpansion":6510,"Ġgrand":6511,"Ġsets":6512,"ĠExhibition":6513,"Ġcheapest":6514,"Ġpolice":6515,"Ġadvice":6516,"Ġextent":6517,"ĠPhuket":6518,"Ġspecifically":6519,"Ġrealize":6520,"ifying":6521,"ĠDesk":6522,"Ġforecast":6523,"Ġreported":6524,"Ġdisplays":6525,"Ġreducing":6526,"ospel":6527,"Ġtechniques":6528,"Ġfreedom":6529,"Ġdesktop":6530,"ĠElectric":6531,"Ġproduced":6532,"ĠModel":6533,"ĠAfrican":6534,"ĠBooking":6535,"Ġemergency":6536,"Thanks":6537,"Ġbelieved":6538,"Ġsweet":6539,"speed":6540,"Ġprimary":6541,"ĠMotor":6542,"English":6543,"Ġexactly":6544,"Ġappeared":6545,"82":6546,"Ag":6547,"BD":6548,"Did":6549,"Hamster":6550,"NS":6551,"bass":6552,"fe":6553,"iate":6554,"known":6555,"Ġer":6556,"hether":6557,"eries":6558,"reland":6559,"Ġcat":6560,"Ġwindows":6561,"Ġpure":6562,"ione":6563,"Ġdiet":6564,"entine":6565,"ĠShenzhen":6566,"ĠCirc":6567,"Ġnet":6568,"ĠAward":6569,"Ġgather":6570,"amental":6571,"ĠTower":6572,"Ġwithd":6573,"ĠHam":6574,"ĠDVD":6575,"ulations":6576,"rian":6577,"ĠLibrary":6578,"osite":6579,"emn":6580,"Ġvict":6581,"Ġexception":6582,"Ġchart":6583,"Ġchance":6584,"ĠVM":6585,"Ġcomply":6586,"Ġcontemporary":6587,"Ġplus":6588,"Ġplans":6589,"Ġapprec":6590,"Ġtend":6591,"Ġserves":6592,"raid":6593,"Ġspoke":6594,"crete":6595,"Ġrequests":6596,"ĠRec":6597,"Ġadding":6598,"Ġtransp":6599,"Ġemot":6600,"ĠShop":6601,"ĠDeb":6602,"ĠTechnical":6603,"ribe":6604,"uggage":6605,"Ġextract":6606,"Ġdefined":6607,"ĠDescription":6608,"Ġplayed":6609,"vironments":6610,"ĠChristmas":6611,"ĠiPhone":6612,"Ġcarefully":6613,"Ġclasses":6614,"ĠAmsterdam":6615,"Using":6616,"Ġbathrooms":6617,"Ġencry":6618,"Ġparticipate":6619,"Resource":6620,"ĠMalaysia":6621,"ĠProvince":6622,"front":6623,"Ġthousands":6624,"ĠTemperature":6625,"Ġtravellers":6626,"Ġwonderful":6627,"ĠQueen":6628,"Ġalternative":6629,"57":6630,"62":6631,"81":6632,"800":6633,"EF":6634,"General":6635,"MC":6636,"Rel":6637,"SL":6638,"date":6639,"down":6640,"furt":6641,"ienna":6642,"mes":6643,"ping":6644,"rd":6645,"west":6646,"Ã³":6647,"äº":6648,"ä½":6649,"æľ":6650,"Ġing":6651,"Ġtank":6652,"inburgh":6653,"Ġsan":6654,"Ġsac":6655,"Ġflesh":6656,"Ġdialog":6657,"Ġhur":6658,"Ġnone":6659,"add":6660,"ads":6661,"ĠTer":6662,"Ġonto":6663,"Ġstations":6664,"ĠHand":6665,"estival":6666,"ĠDating":6667,"ĠDAT":6668,"ĠLes":6669,"ĠLand":6670,"ĠLanguage":6671,"ptoms":6672,"ĠKnowledge":6673,"Ġclock":6674,"vely":6675,"Inter":6676,"iece":6677,"Ġquarter":6678,"Ġarray":6679,"olding":6680,"Ġknows":6681,"Ġcoord":6682,"Ġdesigns":6683,"ĠExpl":6684,"Ġformed":6685,"Ġconflic":6686,"Ġpursu":6687,"Ġreput":6688,"ĠResources":6689,"ĠEngland":6690,"anned":6691,"Ġreception":6692,"ĠBlu":6693,"Ġpossibility":6694,"Ġhosts":6695,"Ġmeasuring":6696,"Ġinvestig":6697,"USTR":6698,"Ġpatient":6699,"Ġdiagn":6700,"Ġfloors":6701,"uke":6702,"Ġwheel":6703,"Ġconnections":6704,"Ġbalance":6705,"Ġlaun":6706,"Ġobtained":6707,"Ġhistoric":6708,"Ġradio":6709,"ĠMadrid":6710,"ĠEconomic":6711,"ĠDepartment":6712,"Ġpreparation":6713,"ĠCongress":6714,"ĠVietnam":6715,"ĠINDUSTR":6716,"ĠPetersburg":6717,"83":6718,"Make":6719,"Priv":6720,"RA":6721,"SP":6722,"Serv":6723,"ban":6724,"dry":6725,"eous":6726,"tt":6727,"Ġfill":6728,"Ġfruit":6729,"Ġfemale":6730,"Ġmi":6731,"Ġdensity":6732,"Ġhath":6733,"ils":6734,"ĠSQL":6735,"Ġrender":6736,"Ġliter":6737,"ĠIreland":6738,"ĠTax":6739,"ĠMC":6740,"ĠMus":6741,"ĠMun":6742,"ĠMary":6743,"ĠMiss":6744,"ĠMiami":6745,"Ġconvert":6746,"ĠLu":6747,"ĠRob":6748,"ĠEUR":6749,"ĠEnergy":6750,"ĠWish":6751,"ĠWood":6752,"ĠWatch":6753,"ective":6754,"Ġrul":6755,"Ġrare":6756,"Ġrating":6757,"Ġalloy":6758,"ĠJud":6759,"ĠStep":6760,"Ġdoors":6761,"Ġenvironments":6762,"lov":6763,"Ġresol":6764,"Ġapplies":6765,"Ġclin":6766,"endar":6767,"icks":6768,"ĠRequ":6769,"neys":6770,"Ġtransmit":6771,"Ġinterior":6772,"Ġ74":6773,"Ġgradu":6774,"Ġaccessories":6775,"Ġ2004":6776,"Ġequivalent":6777,"aze":6778,"Ġdelay":6779,"ĠResidence":6780,"redit":6781,"eneva":6782,"Ġfacilit":6783,"plete":6784,"Ġoptical":6785,"Ġcommunities":6786,"Ġphotograph":6787,"2012":6788,"ĠForum":6789,"ĠColor":6790,"shop":6791,"Ġeth":6792,"ĠApplication":6793,"Travel":6794,"ĠRooms":6795,"Ġexpression":6796,"Ġmarriage":6797,"ĠBox":6798,"Ġlayer":6799,"Ġrespective":6800,"Ġfocused":6801,"Ġadministration":6802,"holders":6803,"Ġchallenge":6804,"Ġimportance":6805,"Ġafraid":6806,"Ġprinciple":6807,"REE":6808,"Ġcontrolled":6809,"Ġnegot":6810,"ĠGolden":6811,"Ġcouple":6812,"Ġfixed":6813,"OWS":6814,"Ġslowly":6815,"Ġintelligent":6816,"Ġtalent":6817,"Ġannounced":6818,"Ġremoval":6819,"Ġrecreational":6820,"Ġunauthorized":6821,"!!":6822,"HO":6823,"Name":6824,"lut":6825,"log":6826,"nes":6827,"power":6828,"water":6829,"Ġtag":6830,"onus":6831,"rection":6832,"Ġcourses":6833,"Ġfat":6834,"ingly":6835,"eds":6836,"Ġda":6837,"Ġdig":6838,"Ġdaughter":6839,"Ġhr":6840,"ĠCOR":6841,"ĠCross":6842,"ĠCheck":6843,"Ġlov":6844,"Ġeast":6845,"Ġearn":6846,"vey":6847,"amber":6848,"ĠMich":6849,"aped":6850,"Ġ150":6851,"Ġride":6852,"Ġrule":6853,"ivities":6854,"acks":6855,"Ġ37":6856,"Ġtelevision":6857,"Ġproven":6858,"Ġdesire":6859,"Ġproductivity":6860,"Christ":6861,"irecting":6862,"Ġsmile":6863,"Ġassets":6864,"Ġflash":6865,"Ġremark":6866,"Ġcreates":6867,"Ġcheap":6868,"ĠGuang":6869,"Ġcontrols":6870,"Ġdistribute":6871,"Ġtemple":6872,"2014":6873,"Ġfactory":6874,"Ġpresented":6875,"iliar":6876,"ĠElectronic":6877,"Before":6878,"ĠINTER":6879,"Ġtourist":6880,"ĠSecond":6881,"News":6882,"Ġrecords":6883,"Ġsuperior":6884,"Products":6885,"Ġpublish":6886,"Ġwatching":6887,"Ġelectricity":6888,"Ġrecognition":6889,"Ġfundamental":6890,"Ġdocumentation":6891,"Ġreferred":6892,"Ġdrawing":6893,"Ġbecoming":6894,"Ġleadership":6895,"Ġsolely":6896,"Ġfeedback":6897,"Ġsubsidi":6898,"ĠCountry":6899,"ĠPhilipp":6900,"ĠDevices":6901,"Ġgranted":6902,"ĠJews":6903,"ĠVegas":6904,"ĠHelp":6905,"ĠOverview":6906,"ĠProperty":6907,"Ġcitizens":6908,"ĠWINDOWS":6909,"76":6910,"84":6911,"Come":6912,"El":6913,"Fl":6914,"Ge":6915,"ML":6916,"bus":6917,"nan":6918,"yr":6919,"Ġé":6920,"Ġign":6921,"Ġurban":6922,"Ġtight":6923,"inch":6924,"Ġsample":6925,"iti":6926,"Ġwitness":6927,"oured":6928,"Ġfabric":6929,"Ġmission":6930,"Ġdro":6931,"Ġlived":6932,"Ġelev":6933,"Ġforced":6934,"charge":6935,"aga":6936,"Ġheight":6937,"Ġconver":6938,"Ġancient":6939,"ĠEarth":6940,"ĠOl":6941,"Ġweak":6942,"ĠJose":6943,"Ġmeant":6944,"ĠThese":6945,"Ġclothing":6946,"ontin":6947,"comp":6948,"Ġ55":6949,"Ġ600":6950,"ĠShopping":6951,"Ġinterview":6952,"Ġgrace":6953,"Ġvisa":6954,"Ġattend":6955,"ĠSupp":6956,"Ġprofit":6957,"Ġnumerous":6958,"ĠIndonesia":6959,"Ġgenerate":6960,"AND":6961,"ACK":6962,"Ġpayments":6963,"Ġmanufacturer":6964,"reme":6965,"Ġmovies":6966,"Ġcloser":6967,"weet":6968,"Ġcompetitive":6969,"Located":6970,"Ġwaiting":6971,"marks":6972,"pective":6973,"Ġerrors":6974,"ĠForeign":6975,"ĠMoses":6976,"Ġraised":6977,"seeing":6978,"Ġlabel":6979,"atalog":6980,"Ġversions":6981,"Ġreligion":6982,"Ġconsistent":6983,"ĠManufacturer":6984,"Ġcompatible":6985,"Ġsustainable":6986,"sych":6987,"Ġagreed":6988,"Ġcommitment":6989,"Ġvaluable":6990,"oenix":6991,"Ġmatters":6992,"hentic":6993,"2000":6994,"BC":6995,"Cons":6996,"Current":6997,"Good":6998,"can":6999,"ds":7000,"ech":7001,"greg":7002,"hot":7003,"ko":7004,"ken":7005,"videos":7006,"ato":7007,"itely":7008,"Ġcup":7009,"Ġcash":7010,"Ġcounter":7011,"edy":7012,"Ġbond":7013,"Ġblow":7014,"style":7015,"ĠCP":7016,"Ġthick":7017,"otic":7018,"Ġloved":7019,"Ġnuc":7020,"Ġyouth":7021,"ĠProm":7022,"ĠIll":7023,"adian":7024,"ĠTel":7025,"ĠTreat":7026,"ĠMall":7027,"ĠMost":7028,"cend":7029,"ĠBou":7030,"ĠLib":7031,"ĠRd":7032,"Ġalumin":7033,"Ġ120":7034,"ĠGate":7035,"istrant":7036,"ĠWill":7037,"Ġusage":7038,"ĠNumber":7039,"umes":7040,"ocation":7041,"Ġkil":7042,"ĠOEM":7043,"Ġcompens":7044,"asting":7045,"Ġdoctor":7046,"Ġadults":7047,"Ġteach":7048,"sole":7049,"Thus":7050,"Ġinterpre":7051,"ĠThat":7052,"Ġphilos":7053,"Ġ2006":7054,"Ġbelong":7055,"ĠXHamster":7056,"ĠIndex":7057,"Ġextend":7058,"Ġextension":7059,"Ġextensive":7060,"Project":7061,"Ġdisciples":7062,"Ġlighting":7063,"ĠCollection":7064,"Ġlimitation":7065,"Ġportion":7066,"Ġcris":7067,"ĠAllah":7068,"Ġkeeping":7069,"ĠMinh":7070,"Ġtemperatures":7071,"ĠEdinburgh":7072,"Ġrepresentative":7073,"Ġrisks":7074,"Ġmotion":7075,"Locality":7076,"unicipal":7077,"ĠMedical":7078,"Ġspiritual":7079,"Ġpainting":7080,"Ġresponded":7081,"ĠBelg":7082,"Ġrelationships":7083,"Ġroute":7084,"Ġmerch":7085,"Ġtransaction":7086,"Ġadministrative":7087,"Ġappointed":7088,"People":7089,"friendly":7090,"Ġprofessionals":7091,"Ġcomplimentary":7092,"56":7093,"Cor":7094,"Ed":7095,"Jo":7096,"UL":7097,"World":7098,"cut":7099,"gor":7100,"jo":7101,"you":7102,"year":7103,"Ġrom":7104,"inos":7105,"ero":7106,"atur":7107,"Ġsins":7108,"Ġcos":7109,"Ġcraft":7110,"Ġwet":7111,"Ġfan":7112,"Ġfig":7113,"Ġfinger":7114,"ali":7115,"alse":7116,"Ġbow":7117,"Ġmine":7118,"Ġmicrowave":7119,"rob":7120,"asure":7121,"astern":7122,"ĠSports":7123,"ĠCA":7124,"ĠCAD":7125,"Ġlaid":7126,"Ġlounge":7127,"ĠAh":7128,"using":7129,"ĠIron":7130,"img":7131,"ĠMen":7132,"Ġstainless":7133,"ĠDan":7134,"ĠDiv":7135,"ĠLou":7136,"ĠLearn":7137,"ĠRailway":7138,"apy":7139,"oses":7140,"ĠFull":7141,"ĠGar":7142,"oper":7143,"arters":7144,"ista":7145,"anger":7146,"ĠOb":7147,"iao":7148,"Ġcompl":7149,"Ġmanaged":7150,"International":7151,"ruption":7152,"ĠâĢĺ":7153,"Ġtransformation":7154,"Choose":7155,"Ġguard":7156,"Ġguidelines":7157,"Share":7158,"Ġmining":7159,"venture":7160,"ĠTechnologies":7161,"ĠExporter":7162,"Ġkeys":7163,"Ġproperly":7164,"Ġdistin":7165,"Process":7166,"ĠAlt":7167,"Ġbreach":7168,"Ġlisten":7169,"Ġclearly":7170,"Ġtradition":7171,"apped":7172,"Ġprogramming":7173,"Ġstret":7174,"EST":7175,"itches":7176,"Ġmanufacture":7177,"Ġensures":7178,"Ġsensitive":7179,"Ġallowing":7180,"Ġemployee":7181,"Ġissued":7182,"Ġofficers":7183,"Ġappearance":7184,"ĠTransport":7185,"Ġtransferred":7186,"Ġwalls":7187,"going":7188,"ĠKorean":7189,"Ġrecognize":7190,"Ġpreviously":7191,"ĠBali":7192,"Ġordinary":7193,"Ġutil":7194,"Ġemerging":7195,"ĠCapital":7196,"Ġarmy":7197,"ĠVisa":7198,"Ġpiece":7199,"Ġinteractive":7200,"ĠCastle":7201,"ĠNetherlands":7202,"Ġconversion":7203,"ocratic":7204,"ĠAdministration":7205,"Ġmissing":7206,"ĠPopular":7207,"Ġcollaboration":7208,"ĠCosta":7209,"ĠAuthority":7210,"Ġdoubt":7211,"ĠChicago":7212,"ĠAcademy":7213,"ĠUkrain":7214,"ĠAdvertisement":7215,"ĠSunday":7216,"300":7217,"51":7218,"58":7219,"61":7220,"Cal":7221,"DP":7222,"Elect":7223,"OB":7224,"Port":7225,"Ret":7226,"Rem":7227,"bre":7228,"des":7229,"fl":7230,"ipt":7231,"vol":7232,"Ġice":7233,"Ġtests":7234,"inar":7235,"ret":7236,"Ġsport":7237,"Ġoverseas":7238,"isd":7239,"Ġpip":7240,"Ġborder":7241,"icians":7242,"Ġdog":7243,"Ġhom":7244,"ĠPL":7245,"adium":7246,"ĠMember":7247,"child":7248,"ĠHan":7249,"ĠDC":7250,"ĠGraph":7251,"Ġ250":7252,"Ġraw":7253,"ĠUt":7254,"Ġsuit":7255,"ĠChange":7256,"astics":7257,"Ġcontaining":7258,"Ġmeat":7259,"avas":7260,"ĠKar":7261,"ibar":7262,"Ġanywhere":7263,"Ġimpl":7264,"Ġrow":7265,"Ġourselves":7266,"Ġupgrade":7267,"Ġagent":7268,"Ġspeaking":7269,"....":7270,"Its":7271,"Ġphase":7272,"Ġpharm":7273,"Ġphones":7274,"Ġimpossible":7275,"Ġcolour":7276,"Ġhelped":7277,"Ġremaining":7278,"ĠBeauty":7279,"Ġequal":7280,"Ġshoulder":7281,"azon":7282,"ĠGuests":7283,"ĠIsl":7284,"Ġeditor":7285,"Ġbread":7286,"ĠComput":7287,"Ġsigns":7288,"Ġsmaller":7289,"Ġplanet":7290,"Ġaffected":7291,"Ġlinked":7292,"Ġbiggest":7293,"Ġveget":7294,"ĠAuto":7295,"Ġauthorized":7296,"Ġtrees":7297,"itecture":7298,"Ġbusy":7299,"Ġregulatory":7300,"Ġdrives":7301,"Ġdrivers":7302,"ĠTwitter":7303,"Ġmassage":7304,"Ġnegative":7305,"Indust":7306,"Company":7307,"ĠCounty":7308,"Ġvehicles":7309,"Ġtasks":7310,"ĠEnded":7311,"ĠClean":7312,"Ġaffiliates":7313,"ĠFeatures":7314,"Ġescape":7315,"Ġoccasion":7316,"Ġwisdom":7317,"ĠLisbon":7318,"Ġobligations":7319,"Ġpermanent":7320,"Two":7321,"Ġslightly":7322,"400":7323,"79":7324,"Count":7325,"KS":7326,"MI":7327,"Min":7328,"Pop":7329,"Page":7330,"SC":7331,"SI":7332,"Sign":7333,"Via":7334,"Welcome":7335,"bul":7336,"hand":7337,"list":7338,"market":7339,"rad":7340,"rary":7341,"vation":7342,"å¤":7343,"Ġ01":7344,"ati":7345,"Ġsorry":7346,"Ġfigure":7347,"Ġpair":7348,"Ġpaint":7349,"aria":7350,"Ġben":7351,"Ġdu":7352,"rogen":7353,"asse":7354,"ĠSingle":7355,"stal":7356,"ĠCreat":7357,"Ġthread":7358,"ota":7359,"otal":7360,"Ġnations":7361,"Ġgifts":7362,"iment":7363,"ĠTEC":7364,"ĠMotel":7365,"ĠDu":7366,"ĠDowntown":7367,"ĠLic":7368,"apes":7369,"unction":7370,"Ġ1000":7371,"ĠEther":7372,"ĠWu":7373,"ĠWind":7374,"aks":7375,"ĠNE":7376,"ĠNature":7377,"Ġchosen":7378,"ĠVirtual":7379,"ideo":7380,"Ġcompact":7381,"acking":7382,"ferences":7383,"ĠTheatre":7384,"Ġteams":7385,"Ġclothes":7386,"raul":7387,"ova":7388,"Ġarrive":7389,"ĠComments":7390,"Ġrecip":7391,"Ġbuff":7392,"prus":7393,"ĠAdvanced":7394,"ĠCoffee":7395,"azine":7396,"ĠPlus":7397,"Ġsubsequ":7398,"Ġcurtain":7399,"Ġreprodu":7400,"Ġsurv":7401,"rooms":7402,"ĠPhoenix":7403,"Ġfamiliar":7404,"ĠLegal":7405,"ĠPrices":7406,"ĠPrint":7407,"2013":7408,"Ġolder":7409,"ĠBrand":7410,"Ġpromise":7411,"Ġaddresses":7412,"Ġglory":7413,"ituated":7414,"Ġcrim":7415,"ĠMinistry":7416,"Ġbehalf":7417,"haust":7418,"scape":7419,"Ġidentification":7420,"Ġstores":7421,"Ġplatforms":7422,"Ġhappens":7423,"Ġmountains":7424,"Ġmaintaining":7425,"Ġsuffering":7426,"Ġdepends":7427,"Ġpriority":7428,"Tech":7429,"Ġattacks":7430,"ĠForex":7431,"Ġcharges":7432,"Ġcharged":7433,"Featuring":7434,"Ġtrademarks":7435,"Ġconcerned":7436,"Ġcycle":7437,"Ġhouses":7438,"Ġvacuum":7439,"Ġcapture":7440,"Ġearlier":7441,"ĠExperience":7442,"Ġaffordable":7443,"Ġinstructions":7444,"\")":7445,"92":7446,"Em":7447,"Sk":7448,"Vote":7449,"world":7450,"Ġ00":7451,"Ġtips":7452,"rees":7453,"athered":7454,"Ġsong":7455,"Ġwrought":7456,"ishes":7457,"anqu":7458,"Ġfiber":7459,"Ġpush":7460,"Ġmel":7461,"Ġdinner":7462,"ĠSave":7463,"ĠSign":7464,"ĠSource":7465,"ĠCook":7466,"ĠCRM":7467,"Ġthin":7468,"Ġreject":7469,"Ġrenov":7470,"Ġlips":7471,"urious":7472,"idity":7473,"ĠAG":7474,"ĠAL":7475,"olic":7476,"igr":7477,"ĠPen":7478,"imb":7479,"ĠBul":7480,"agen":7481,"Ġstated":7482,"ĠHair":7483,"ĠLines":7484,"Ġ(\"":7485,"ĠRich":7486,"iform":7487,"illas":7488,"Ġexch":7489,"Ġran":7490,"ĠNight":7491,"ĠUr":7492,"pted":7493,"ĠVillage":7494,"roud":7495,"avor":7496,"ĠKh":7497,"Ġabroad":7498,"Ġjump":7499,"owna":7500,"Ġperhaps":7501,"Ġ42":7502,"endant":7503,"oviet":7504,"Ġspons":7505,"ologne":7506,"ĠRef":7507,"rival":7508,"lando":7509,"Ġbrain":7510,"Ġassembly":7511,"ĠTeam":7512,"Ġ2003":7513,"Ġpassengers":7514,"Ġconfir":7515,"ĠAnim":7516,"Ġrealized":7517,"Ġstayed":7518,"Ġsky":7519,"Ġestim":7520,"ESS":7521,"Ġdemands":7522,"Ġconstantly":7523,"Ġdrag":7524,"Ġincur":7525,"amsung":7526,"Ġexistence":7527,"Ġimprovement":7528,"ĠEnvironment":7529,"proof":7530,"Ġengineers":7531,"ĠAthens":7532,"Ġauthority":7533,"Ġfunctionality":7534,"Ġupdates":7535,"Ġstatistics":7536,"ĠModern":7537,"Ġpurchased":7538,"Blog":7539,"ĠAustralian":7540,"Ġangle":7541,"Ġtranslate":7542,"Ġsufficient":7543,"Ġdrinks":7544,"ĠMBT":7545,"Ġuniverse":7546,"Ġreligious":7547,"Ġshuttle":7548,"Ġcorresponding":7549,"ĠMartin":7550,"ĠVenice":7551,"Ġachieved":7552,"Ġopinion":7553,"Ġpredict":7554,"ĠSweden":7555,"71":7556,"78":7557,"Ben":7558,"Bar":7559,"Create":7560,"EE":7561,"Japan":7562,"PL":7563,"RI":7564,"UT":7565,"ait":7566,"card":7567,"ement":7568,"gl":7569,"hotel":7570,"kay":7571,"uang":7572,"under":7573,"ä¹":7574,"Ġtun":7575,"Ġsister":7576,"itis":7577,"Ġcot":7578,"Ġcrow":7579,"Ġcyl":7580,"Ġwor":7581,"Ġwave":7582,"Ġpra":7583,"Ġbars":7584,"Ġinh":7585,"ĠCape":7586,"ushing":7587,"adow":7588,"ĠBur":7589,"ĠDest":7590,"ĠDie":7591,"riott":7592,"ĠLess":7593,"ĠLove":7594,"ĠRen":7595,"ĠGener":7596,"andom":7597,"anta":7598,"ĠEL":7599,"Ġvary":7600,"Ġshar":7601,"Ġkilled":7602,"oker":7603,"oga":7604,"Ġcompar":7605,"claim":7606,"Ġjur":7607,"Ġjew":7608,"Ġagric":7609,"Ġdescript":7610,"Ġprayer":7611,"Ġspok":7612,"ĠRev":7613,"tyard":7614,"Ġdevelopers":7615,"Ġassign":7616,"Ġformats":7617,"Ġstring":7618,"Ġgreatest":7619,"ĠPhone":7620,"Ġtermin":7621,"Ġentity":7622,"Ġstarts":7623,"Ġlights":7624,"uxe":7625,"Ġimproving":7626,"Ġthoughts":7627,"Ġruns":7628,"Ġpresentation":7629,"Ġlogo":7630,"Ġtypical":7631,"Ġclosely":7632,"Ġcommunicate":7633,"Ġmarried":7634,"ĠValley":7635,"ĠAnton":7636,"ĠRomania":7637,"Ġlaunch":7638,"Ġrelaxation":7639,"Ġfunds":7640,"Ġfunctional":7641,"Ġlaboratory":7642,"Ġmathemat":7643,"Ġwarranty":7644,"Ġhousing":7645,"related":7646,"ĠAnalysis":7647,"ĠDetails":7648,"ĠConstruction":7649,"orizont":7650,"Ġneighbor":7651,"ĠKelowna":7652,"ĠFrankfurt":7653,"ĠFlorida":7654,"Ġbirds":7655,"53":7656,"Camp":7657,"DC":7658,"Map":7659,"NA":7660,"PN":7661,"POR":7662,"San":7663,"Special":7664,"Today":7665,"Very":7666,"cellent":7667,"ef":7668,"ji":7669,"king":7670,"lock":7671,"vo":7672,"âģ":7673,"åĽ":7674,"Ġil":7675,"inity":7676,"hester":7677,"eras":7678,"Ġsit":7679,"Ġsand":7680,"Ġsenior":7681,"itan":7682,"Ġporn":7683,"Ġbodies":7684,"Ġhit":7685,"oman":7686,"omatic":7687,"ĠSar":7688,"ĠScript":7689,"ĠSoviet":7690,"ĠCa":7691,"ĠCup":7692,"Ġnative":7693,"Ġisol":7694,"Ġgates":7695,"Ġgathered":7696,"ĠPri":7697,"ĠDate":7698,"ĠDocu":7699,"ĠFund":7700,"ifies":7701,"ĠGardens":7702,"emony":7703,"ante":7704,"Ġnoted":7705,"Ġsequ":7706,"alled":7707,"Ġchief":7708,"active":7709,"ĠVienna":7710,"Ġcompare":7711,"ĠChang":7712,"ervations":7713,"ĠJin":7714,"cling":7715,"Ġneither":7716,"Ġunc":7717,"Ġuns":7718,"Through":7719,"Ġdishes":7720,"comes":7721,"ĠYah":7722,"Ġprison":7723,"ĠRecovery":7724,"Ġrighteous":7725,"awa":7726,"Ġsupplier":7727,"chnological":7728,"Ġbranch":7729,"ools":7730,"Ġseeing":7731,"Ġ800":7732,"Ġcream":7733,"Ġbelief":7734,"Ġstands":7735,"ussion":7736,"ĠConnect":7737,"Ġfinance":7738,"Prof":7739,"Ġgenerator":7740,"Ġchoices":7741,"Ġdiscontin":7742,"Ġinfring":7743,"Ġautomated":7744,"Ġorganic":7745,"Ġpossess":7746,"Ġnetworking":7747,"Another":7748,"Ġinvestors":7749,"Ġconstruct":7750,"brand":7751,"ĠFlat":7752,"ITY":7753,"University":7754,"Ġpriest":7755,"Ġidentity":7756,"ĠEdit":7757,"ĠCorporate":7758,"ĠIntegr":7759,"Beijing":7760,"amburg":7761,"Ġsolve":7762,"ĠMetal":7763,"Ġindeed":7764,"Ġdiscussions":7765,"Ġpromotion":7766,"ettle":7767,"Ġsmartphone":7768,"ĠPhoto":7769,"Ġrevolution":7770,"Ġprepare":7771,"ĠSilver":7772,"Ġpleasure":7773,"ĠError":7774,"ĠTools":7775,"ĠFederal":7776,"Posted":7777,"BlackBerry":7778,"Labels":7779,"Ġtoiletries":7780,"Ġcandid":7781,"ĠDATING":7782,"Ġreputation":7783,"avascript":7784,"Ġagricult":7785,"âģĦ":7786,"Ang":7787,"Business":7788,"Che":7789,"EG":7790,"Mult":7791,"National":7792,"PA":7793,"SQL":7794,"TV":7795,"Time":7796,"Will":7797,"ba":7798,"from":7799,"hr":7800,"qi":7801,"tion":7802,"was":7803,"Â¬":7804,"çļ":7805,"Ġ!":7806,"Ġtor":7807,"Ġapart":7808,"erning":7809,"esh":7810,"anj":7811,"Ġfle":7812,"Ġproud":7813,"Ġtom":7814,"ela":7815,"ĠSD":7816,"ĠCologne":7817,"etables":7818,"Ġgun":7819,"Ġgift":7820,"ĠPu":7821,"ĠIB":7822,"Ġfort":7823,"ĠTable":7824,"ĠTHE":7825,"ĠHosp":7826,"ĠLee":7827,"abulous":7828,"odge":7829,"unes":7830,"unately":7831,"emed":7832,"aints":7833,"ĠWin":7834,"Ġshock":7835,"Ġshalt":7836,"ivation":7837,"aren":7838,"Ġcompr":7839,"Ġlean":7840,"that":7841,"Ġplenty":7842,"ordan":7843,"Ġoutstanding":7844,"Ġ41":7845,"icked":7846,"Ġrelatively":7847,"Ġoverview":7848,"Ġcoating":7849,"ĠThai":7850,"Ġexplo":7851,"Ġbuying":7852,"Ġvisited":7853,"ĠText":7854,"Ġofferings":7855,"Ġprotocol":7856,"Ġelectro":7857,"Ġgenerated":7858,"Ġbookings":7859,"ĠPrinc":7860,"ĠMarriott":7861,"Ġtopic":7862,"Ġhousehold":7863,"Ġmeasured":7864,"Ġcareful":7865,"Ġensuring":7866,"Ġintegrity":7867,"ĠSwiss":7868,"Ġclicking":7869,"Ġexplan":7870,"Ġmajority":7871,"ĠMeeting":7872,"Ġlosses":7873,"Ġattractive":7874,"Ġfavorites":7875,"ĠCasa":7876,"Ġsignificantly":7877,"Ġbottle":7878,"Ġexamples":7879,"Ġabsor":7880,"Ġsuggest":7881,"Ġsuggestions":7882,"Ġhonest":7883,"ĠTickets":7884,"Ġsymptoms":7885,"Ġsatisfact":7886,"ĠAutomation":7887,"audi":7888,"ĠCyprus":7889,"ĠCulture":7890,"Ġreplacement":7891,"Ġsynt":7892,"ĠChildren":7893,"utsch":7894,"Ġstructures":7895,"Ġconversation":7896,"Ġingred":7897,"dryer":7898,"Ġcrisis":7899,"AI":7900,"Ass":7901,"Apartment":7902,"Follow":7903,"OV":7904,"Pal":7905,"Par":7906,"Pol":7907,"do":7908,"jak":7909,"km":7910,"law":7911,"mary":7912,"made":7913,"pan":7914,"paper":7915,"rum":7916,"sa":7917,"Ġtou":7918,"inating":7919,"heast":7920,"Ġspl":7921,"itality":7922,"Ġworry":7923,"Ġfant":7924,"Ġphen":7925,"Ġbul":7926,"Ġbought":7927,"Ġincom":7928,"Ġinner":7929,"rox":7930,"Ġhate":7931,"Ġhire":7932,"ĠSa":7933,"ĠSn":7934,"ĠSEO":7935,"stract":7936,"ĠCath":7937,"Ġluggage":7938,"Ġnation":7939,"Ġeating":7940,"urities":7941,"idth":7942,"ims":7943,"amless":7944,"adise":7945,"ĠTH":7946,"ĠTags":7947,"ĠBet":7948,"ĠGB":7949,"ĠGeneva":7950,"Ġnoticed":7951,"Ġshoot":7952,"Ġkid":7953,"Ġkettle":7954,"âĢŀ":7955,"Ġtrouble":7956,"Ġweap":7957,"pty":7958,"ĠJames":7959,"Ġdoct":7960,"Ġplate":7961,"aceut":7962,"Ġroy":7963,"Ġagency":7964,"Ġargu":7965,"iana":7966,"Ġoffices":7967,"Ġsheet":7968,"ancer":7969,"Ġtransition":7970,"Ġemb":7971,"Ġconsid":7972,"Chinese":7973,"Ġtwice":7974,"Ġbridge":7975,"Ġguys":7976,"Ġrecording":7977,"Ġmini":7978,"Ġpersonnel":7979,"Ġsmiled":7980,"ĠExcel":7981,"Ġacadem":7982,"Ġperformed":7983,"Ġboasts":7984,"Ġtermination":7985,"Ġcertified":7986,"2011":7987,"Ġmeetings":7988,"Ġskip":7989,"ĠOrder":7990,"ĠOrlando":7991,"bridge":7992,"Ġclassic":7993,"Ġexplain":7994,"Ġapproval":7995,"ĠToilet":7996,"Ġpresident":7997,"ĠAustria":7998,"Additional":7999,"Ġspecifications":8000,"ĠBuy":8001,"ĠRegion":8002,"ĠÂ©":8003,"Ġconsumers":8004,"legal":8005,"ĠAccommod":8006,"Ġprecise":8007,"Ġviolence":8008,"Ġreplied":8009,"Ġcauses":8010,"ophy":8011,"Ġblocks":8012,"while":8013,"ĠArchitecture":8014,"ictionary":8015,"Ġjudgment":8016,"ĠSpec":8017,"ĠCultural":8018,"ĠFlowers":8019,"Ġstylish":8020,"ĠBuddh":8021,"ĠProfessional":8022,"Ġmutual":8023,"Ġstrugg":8024,"Ġwithdraw":8025,"Ġlaunched":8026,"ĠPhilippines":8027,"Ġkilomet":8028,"raulic":8029,"Cent":8030,"DR":8031,"Jesus":8032,"Like":8033,"Med":8034,"NU":8035,"RF":8036,"South":8037,"born":8038,"cision":8039,"po":8040,"pens":8041,"tra":8042,"uz":8043,"Â£":8044,"Ġtons":8045,"Ġtungsten":8046,"Ġsnow":8047,"Ġwond":8048,"Ġwrit":8049,"isa":8050,"Ġfing":8051,"Ġdock":8052,"ĠSN":8053,"ĠSand":8054,"ĠSome":8055,"state":8056,"Ġnob":8057,"Ġnights":8058,"ĠPub":8059,"amics":8060,"ĠTR":8061,"Ġbearing":8062,"ĠBall":8063,"agers":8064,"Ġstrip":8065,"ĠHamburg":8066,"ĠLing":8067,"oda":8068,"oding":8069,"ĠRos":8070,"ĠFact":8071,"ĠWild":8072,"ĠWomen":8073,"Ġexcess":8074,"Ġwashing":8075,"ĠNote":8076,"Ġwealth":8077,"earning":8078,"ĠChamp":8079,"ĠJade":8080,"ĠJava":8081,"ĠKids":8082,"Ġenforce":8083,"ansom":8084,"ika":8085,"Ġsauna":8086,"Ġdespite":8087,"Ġ59":8088,"cluded":8089,"Ġindoor":8090,"Ġamb":8091,"hedral":8092,"Ġtransmitted":8093,"Ġmodules":8094,"ĠDeutsch":8095,"Ġguess":8096,"Ġcollege":8097,"Ġinstruments":8098,"Ġhelping":8099,"iented":8100,"Ġcustomized":8101,"Ġauthentic":8102,"ĠTele":8103,"ĠTraining":8104,"Ġfollows":8105,"ĠSpace":8106,"Ġobvious":8107,"Ġdirector":8108,"Ġelectronics":8109,"Ġends":8110,"ĠAnaly":8111,"Ġlistening":8112,"Ġspecify":8113,"Ġdecisions":8114,"Ġlawy":8115,"Ġdefend":8116,"Ġtempl":8117,"Ġposts":8118,"Ġaccommodate":8119,"Ġturning":8120,"ĠCanadian":8121,"Ġgrew":8122,"Ġgovernments":8123,"ĠAbraham":8124,"Ġtypically":8125,"clusion":8126,"Ġaudience":8127,"ĠSmoking":8128,"Ġsilver":8129,"Ġmagn":8130,"Ġmagnetic":8131,"COM":8132,"ĠLogin":8133,"ĠPassenger":8134,"ĠPhotos":8135,"Ġdisclose":8136,"Ġwooden":8137,"Ġsusp":8138,"Ġanimal":8139,"Ġprocedure":8140,"ĠJewish":8141,"Ġsymbol":8142,"Ġsurrounded":8143,"ĠBasic":8144,"Ġpremium":8145,"Ġvulnerability":8146,"Ġmilk":8147,"Ġrefrigerator":8148,"âĢļÂ¬":8149,"Ġdiverse":8150,"çļĦ":8151,"aceutical":8152,"Access":8153,"EV":8154,"France":8155,"Power":8156,"SM":8157,"Set":8158,"iated":8159,"via":8160,"å¥":8161,"Ġtaught":8162,"Ġtropical":8163,"iner":8164,"inces":8165,"rey":8166,"repre":8167,"Ġsqu":8168,"iterr":8169,"Ġox":8170,"Ġware":8171,"Ġwire":8172,"Ġwedding":8173,"isers":8174,"Ġfed":8175,"Ġfilled":8176,"Ġfalse":8177,"edge":8178,"Ġbapt":8179,"Ġmort":8180,"Ġdust":8181,"Ġdance":8182,"Ġholy":8183,"omas":8184,"ĠCry":8185,"Ġreverse":8186,"urable":8187,"idance":8188,"ĠAve":8189,"ĠPM":8190,"ĠPak":8191,"ĠMom":8192,"ĠMand":8193,"ĠMah":8194,"irates":8195,"Ġconcrete":8196,"ĠDining":8197,"ĠDouble":8198,"ulf":8199,"ulator":8200,"ĠLux":8201,"ĠFriend":8202,"ĠFresh":8203,"Their":8204,"ĠEff":8205,"Ġvast":8206,"rome":8207,"ĠWang":8208,"Ġrace":8209,"Ġwash":8210,"uster":8211,"aka":8212,"aki":8213,"Ġkill":8214,"ĠUnder":8215,"ournal":8216,"resents":8217,"ĠJi":8218,"ĠStart":8219,"Ġneck":8220,"uba":8221,"Ġunable":8222,"Ġsoil":8223,"iking":8224,"Ġprovince":8225,"Ġ46":8226,"Ġ47":8227,"Ġdesired":8228,"Ġ57":8229,"ĠUnivers":8230,"Ġmaps":8231,"Which":8232,"away":8233,"Ġperspective":8234,"Ġshowed":8235,"Ġminibar":8236,"Ġexpensive":8237,"Ġ99":8238,"ĠTea":8239,"conf":8240,"cohol":8241,"Ġoperated":8242,"Ġpassion":8243,"ERS":8244,"ussy":8245,"Ġsurpr":8246,"Ġdirectors":8247,"Ġcapable":8248,"Stud":8249,"Ġfacing":8250,"Ġcenters":8251,"Ġreceiving":8252,"ĠLevel":8253,"Ġcalling":8254,"Ġspecialist":8255,"Ġprogramme":8256,"Ġpublication":8257,"Ġforever":8258,"ucky":8259,"2009":8260,"ivided":8261,"century":8262,"ographic":8263,"ĠAssembly":8264,"Ġrepresentatives":8265,"OLOG":8266,"Ġmeasurements":8267,"----":8268,"bedded":8269,"ĠMachinery":8270,"Ġdeclared":8271,"Ġguaranteed":8272,"ĠBrook":8273,"ĠBlackBerry":8274,"Feature":8275,"ĠAPI":8276,"Ġanimals":8277,"ĠTemple":8278,"xygen":8279,"Ġscreens":8280,"anzi":8281,"Ġtransactions":8282,"Ġsurvey":8283,"Ġrubber":8284,"Ġtelephone":8285,"color":8286,"ĠNorway":8287,"Ġvenue":8288,"Ġfavourite":8289,"Ġterritory":8290,"Ġsubsidiaries":8291,"Popular":8292,"Ġjurisd":8293,"reprene":8294,"iterrane":8295,"AK":8296,"City":8297,"Global":8298,"Hist":8299,"Ks":8300,"Mod":8301,"Ste":8302,"Such":8303,"case":8304,"gent":8305,"jan":8306,"ls":8307,"night":8308,"rate":8309,"sper":8310,"table":8311,"Â¢":8312,"Ã§":8313,"Ġ<":8314,"Ġtables":8315,"Ġster":8316,"Ġsaving":8317,"Ġcatch":8318,"Ġworship":8319,"isher":8320,"isition":8321,"Ġmyst":8322,"Ġdating":8323,"ĠSAP":8324,"ĠSCH":8325,"ĠCS":8326,"ĠCop":8327,"otes":8328,"oted":8329,"Ġlunch":8330,"Ġegg":8331,"Ġgear":8332,"ĠPed":8333,"ĠTO":8334,"ĠMass":8335,"Ġproport":8336,"Ġprote":8337,"Ġstake":8338,"Ġstamp":8339,"Ġstories":8340,"Ġconvent":8341,"abil":8342,"ĠRate":8343,"unct":8344,"ĠFish":8345,"ema":8346,"ĠWine":8347,"Ġrail":8348,"akh":8349,"ĠNob":8350,"ĠOil":8351,"ĠJordan":8352,"ĠStyle":8353,"Ġenabled":8354,"Ġuniform":8355,"asses":8356,"Ġsaith":8357,"Ġarmed":8358,"Ġshell":8359,"Ġnewsp":8360,"ificial":8361,"Ġrelating":8362,"riving":8363,"Ġemph":8364,"Ġemissions":8365,"erto":8366,"ĠDef":8367,"Ġscene":8368,"Ġunderst":8369,"Ġrecon":8370,"Ġexpenses":8371,"Ġasset":8372,"ĠZone":8373,"Ġoperational":8374,"Ġsubmitted":8375,"ĠXXX":8376,"ĠFrid":8377,"ĠClose":8378,"TMt":8379,"Stand":8380,"Ġstudio":8381,"argo":8382,"uese":8383,"Ġdefine":8384,"Ġspecialized":8385,"Ġprivile":8386,"Ġrefuse":8387,"2017":8388,"Ġfactor":8389,"ĠInstall":8390,"Ġconstant":8391,"Ġlegs":8392,"Ġincident":8393,"2007":8394,"Ġexplains":8395,"Ġapproved":8396,"ĠSkype":8397,"Ġcalendar":8398,"Ġreserved":8399,"Ġidentified":8400,"Ġsending":8401,"Ġexpressed":8402,"Ġlearned":8403,"Ġtaxes":8404,"Questions":8405,"Ġparticipants":8406,"olec":8407,"ĠMediterrane":8408,"Ġrecognized":8409,"ĠRelations":8410,"Ġcriteria":8411,"Compare":8412,"Ġroller":8413,"Ġsuspend":8414,"Ġdisputes":8415,"ĠHeritage":8416,"Ġsalvation":8417,"Ġcooling":8418,"Ġcopper":8419,"Rooms":8420,"Ġincorpor":8421,"Details":8422,"ĠInvestment":8423,"Ġaspects":8424,"âĤ¬Â¦":8425,"Ġsuddenly":8426,"HNOLOG":8427,"Green":8428,"ĠHungary":8429,"curement":8430,"Ġnarrow":8431,"Ġsacrif":8432,"Ġnuclear":8433,"Ġaluminum":8434,"ĠTECHNOLOG":8435,"ĠMediterranean":8436,"101":8437,"93":8438,"Care":8439,"Category":8440,"GL":8441,"Ke":8442,"Key":8443,"Met":8444,"Public":8445,"Send":8446,"Script":8447,"Shenzhen":8448,"Term":8449,"VM":8450,"West":8451,"aft":8452,"dess":8453,"dao":8454,"ein":8455,"fm":8456,"hi":8457,"hus":8458,"iations":8459,"pm":8460,"yth":8461,"Ã¤":8462,"åĩ":8463,"Ġtap":8464,"Ġtong":8465,"Ġast":8466,"Ġsom":8467,"Ġsch":8468,"Ġcried":8469,"Ġcaught":8470,"eness":8471,"enos":8472,"Ġwest":8473,"anner":8474,"Ġpill":8475,"Ġpsych":8476,"aration":8477,"Ġmouse":8478,"ican":8479,"Ġdowntown":8480,"rot":8481,"Ġhop":8482,"elve":8483,"oma":8484,"ĠSize":8485,"ĠSof":8486,"stone":8487,"ĠCou":8488,"ĠCopyright":8489,"Ġrenew":8490,"etooth":8491,"Ġlib":8492,"Ġliver":8493,"Ġep":8494,"ĠAk":8495,"ĠAff":8496,"igious":8497,"ĠPaper":8498,"ĠTS":8499,"ĠTow":8500,"Ġbeings":8501,"ĠHP":8502,"mentation":8503,"ĠLow":8504,"ĠLook":8505,"abling":8506,"ĠFoot":8507,"ĠFREE":8508,"Ġalb":8509,"ĠGmb":8510,"Ġrising":8511,"ĠNY":8512,"Ġshoes":8513,"angerous":8514,"ĠOcean":8515,"asters":8516,"elled":8517,"Ġlect":8518,"loor":8519,"Ġresur":8520,"Ġunw":8521,"Ġtechnological":8522,"iev":8523,"Ġservants":8524,"ishment":8525,"Ġ49":8526,"Ġfeaturing":8527,"Ġcommission":8528,"Ġrelation":8529,"Ġempty":8530,"Ġcoverage":8531,"Ġacts":8532,"Ġmodified":8533,"isson":8534,"Ġconscious":8535,"Ġdeveloper":8536,"Ġscore":8537,"Ġeverywhere":8538,"Ġoperators":8539,"ĠManual":8540,"ĠFront":8541,"INE":8542,"Step":8543,"Ġmemor":8544,"Ġbreast":8545,"Ġreceipt":8546,"ĠAsh":8547,"Ġincreases":8548,"ĠMaria":8549,"ĠBranch":8550,"ĠColl":8551,"Ġlimits":8552,"levard":8553,"ottom":8554,"Ġwarning":8555,"Ġvend":8556,"Exper":8557,"Ġsituations":8558,"Ġlots":8559,"Ġfourth":8560,"Ġconcerning":8561,"ennis":8562,"Ġprecious":8563,"Ġcircuit":8564,"Booking":8565,"Ġoptimal":8566,"ĠDragon":8567,"Ġbanks":8568,"Ġprophe":8569,"Ġprophet":8570,"ĠForest":8571,"Ġarrived":8572,"Ġutility":8573,"Ġtimetables":8574,"Ġverify":8575,"Ġtracking":8576,"Ġindicate":8577,"ĠReturns":8578,"Ġextreme":8579,"Buy":8580,"chers":8581,"ĠDenmark":8582,"Ġcovers":8583,"Ġrestrictions":8584,"ĠSecretary":8585,"ĠMunich":8586,"gorith":8587,"Ġacademic":8588,"ĠFriday":8589,"ĠGmbH":8590,"()":8591,"Ac":8592,"Aust":8593,"CM":8594,"DA":8595,"EA":8596,"HS":8597,"Have":8598,"Host":8599,"Net":8600,"OK":8601,"PT":8602,"Sil":8603,"Would":8604,"fall":8605,"oz":8606,"sl":8607,"sur":8608,"ument":8609,"wall":8610,"çī":8611,"Ġè":8612,"incess":8613,"Ġsq":8614,"Ġselling":8615,"esides":8616,"ito":8617,"Ġcd":8618,"Ġfault":8619,"Ġpix":8620,"Ġpipe":8621,"Ġbrief":8622,"Ġmillions":8623,"Ġtooth":8624,"ici":8625,"asma":8626,"Ġhidden":8627,"elle":8628,"ĠSection":8629,"ĠSaudi":8630,"Ġlux":8631,"Ġlapt":8632,"Ġease":8633,"oli":8634,"acular":8635,"Ġgro":8636,"Ġgolf":8637,"igg":8638,"igo":8639,"ĠPR":8640,"ĠPur":8641,"aded":8642,"ĠTian":8643,"ĠMid":8644,"iration":8645,"ĠBol":8646,"ĠHom":8647,"ĠHappy":8648,"riers":8649,"abb":8650,"abi":8651,"ĠWalk":8652,"ĠWars":8653,"Ġnotify":8654,"Ġrated":8655,"Ġshares":8656,"Ġsuites":8657,"Ġcancel":8658,"Ġwearing":8659,"dule":8660,"ĠJane":8661,"Ġplot":8662,"Ġaccident":8663,"ords":8664,"Ġdish":8665,"Ġ44":8666,"Ġarts":8667,"ĠYes":8668,"Ġspr":8669,"Ġindex":8670,"Ġindicated":8671,"Ġscal":8672,"Ġ700":8673,"Ġcolors":8674,"ĠWeek":8675,"Ġsmoking":8676,"Ġremained":8677,"Ġvisible":8678,"Ġ::":8679,"ributes":8680,"ĠQing":8681,"ĠGuarant":8682,"Ġinsert":8683,"ĠConverter":8684,"arsh":8685,"Ġextended":8686,"Ġfrag":8687,"Ġframework":8688,"Ġterminal":8689,"Ġdecide":8690,"ANT":8691,"Ġrefund":8692,"ĠForce":8693,"ĠMarina":8694,"Ġtestim":8695,"Ġpublicly":8696,"Ġfacts":8697,"Ġetern":8698,"Ġinvestments":8699,"Ġpositions":8700,"Ġlovely":8701,"Ġfreight":8702,"words":8703,"heme":8704,"ĠRegistration":8705,"Ġseparated":8706,"ĠValue":8707,"ĠEmpire":8708,"ĠEmirates":8709,"keeping":8710,"Ġoptimized":8711,"Ġsuffer":8712,"Ġgrounds":8713,"itution":8714,"Ġmarks":8715,"ĠLogistics":8716,"Ġpeaceful":8717,"ĠDelivery":8718,"Ġanalytics":8719,"Ġroutes":8720,"Ġdisclosure":8721,"ĠTestament":8722,"ĠArchives":8723,"Ġpreferred":8724,"Ġrobust":8725,"Ġcontinuously":8726,"Ġestablishment":8727,"Ġsurrounding":8728,"ĠOptim":8729,"ĠMountain":8730,"OME":8731,"ĠLatin":8732,"Ġdiscounts":8733,"Ġratio":8734,"Ġproposed":8735,"Ġhospital":8736,"Ġinjury":8737,"Ġglobally":8738,"ĠOlympic":8739,"ä½ĵ":8740,"Ġsanct":8741,"lution":8742,"Ġdistinct":8743,"Ġspoken":8744,"Ġillegal":8745,"ĠAccommodation":8746,"Ġunderstood":8747,"73":8748,"Af":8749,"BR":8750,"Es":8751,"Flow":8752,"IAL":8753,"John":8754,"JPG":8755,"Link":8756,"Master":8757,"Number":8758,"Point":8759,"SU":8760,"Sur":8761,"bet":8762,"core":8763,"nic":8764,"pool":8765,"wa":8766,"®Ģ":8767,"Â¡":8768,"Ġic":8769,"Ġurg":8770,"Ġton":8771,"Ġtested":8772,"Ġaid":8773,"orer":8774,"orter":8775,"Ġfails":8776,"Ġmale":8777,"Ġdriven":8778,"leep":8779,"asis":8780,"Ġho":8781,"ĠSS":8782,"ĠSamsung":8783,"ĠCase":8784,"ĠCatal":8785,"ĠCroat":8786,"Ġreduction":8787,"Ġlit":8788,"Ġlying":8789,"ĠAction":8790,"ĠId":8791,"Ġbeaches":8792,"agraph":8793,"Ġstuff":8794,"ĠLane":8795,"Ġalter":8796,"Ġalarm":8797,"emperature":8798,"Ġvan":8799,"Ġvirus":8800,"ĠWay":8801,"Ġexhaust":8802,"ĠNO":8803,"ĠNic":8804,"ĠNext":8805,"angel":8806,"performance":8807,"Ġcomprom":8808,"Ġupper":8809,"Ġwilling":8810,"Ġadm":8811,"izz":8812,"Ġresidence":8813,"Ġroof":8814,"Ġintroduction":8815,"Ġagencies":8816,"Ġservant":8817,"Ġ53":8818,"Ġindemn":8819,"ĠUnit":8820,"Ġdetect":8821,"tech":8822,"ĠCommercial":8823,"Ġcoach":8824,"ĠThree":8825,"Ġ93":8826,"Ġ98":8827,"Ġvalves":8828,"Ġaircraft":8829,"ĠHeat":8830,"ername":8831,"ĠIsa":8832,"ĠResp":8833,"Ġfaces":8834,"ĠConn":8835,"Ġperforming":8836,"Ġcorrupt":8837,"Ġframes":8838,"Ġleads":8839,"Ġdiscip":8840,"Ġordered":8841,"Ġcontinues":8842,"Ġcontacts":8843,"Ġtopics":8844,"Ġstream":8845,"Support":8846,"Ġturns":8847,"ĠiOS":8848,"ĠProduction":8849,"ĠFlash":8850,"Ġjoined":8851,"ĠAmazon":8852,"ĠOffer":8853,"Ġacceptance":8854,"Ġpriests":8855,"scale":8856,"ĠFinn":8857,"Ġtreated":8858,"Ġxxx":8859,"Ġprotecting":8860,"limited":8861,"Ġparticipation":8862,"Ġadjustment":8863,"Ġraise":8864,"Ġfishing":8865,"Ġdispute":8866,"aniel":8867,"Ġuniversities":8868,"ĠEgyptian":8869,"ĠManufacturing":8870,"Offering":8871,"Ġdecorated":8872,"Ġawarded":8873,"ĠSatur":8874,"Ġfluid":8875,"Ġcontribution":8876,"Ġawareness":8877,"Looking":8878,"Ġkissed":8879,"Ġblend":8880,"ĠSiem":8881,"ĠiPad":8882,"ĠCommunications":8883,"ĠVictoria":8884,"Help":8885,"ĠUkraine":8886,"Ġcriminal":8887,"Ġsatisfaction":8888,"Ġingredients":8889,"%.":8890,"?'":8891,"Bed":8892,"EX":8893,"FR":8894,"Group":8895,"Val":8896,"Whether":8897,"cor":8898,"gif":8899,"kh":8900,"making":8901,"name":8902,"such":8903,"tar":8904,"van":8905,"vision":8906,"å®":8907,"çĶ":8908,"Ġax":8909,"inated":8910,"hetic":8911,"Ġsalt":8912,"Ġsought":8913,"orough":8914,"Ġoxygen":8915,"Ġwaves":8916,"Ġfitted":8917,"aro":8918,"ician":8919,"rov":8920,"robe":8921,"Ġhub":8922,"Ġhung":8923,"Ġhyp":8924,"iler":8925,"illy":8926,"ĠSett":8927,"ĠSociety":8928,"ether":8929,"Ġlie":8930,"ĠAgr":8931,"utch":8932,"ĠTag":8933,"ĠMir":8934,"chron":8935,"ĠHun":8936,"ĠDE":8937,"ĠDyn":8938,"ĠLittle":8939,"ĠLLC":8940,"ĠFL":8941,"ĠEastern":8942,"Ġvir":8943,"Ġvess":8944,"ĠWa":8945,"Ġnotes":8946,"Ġdear":8947,"Ġdeemed":8948,"Ġrailway":8949,"ĠNord":8950,"umer":8951,"Ġshot":8952,"ourg":8953,"Ġseamless":8954,"Ġtruck":8955,"earing":8956,"ĠJournal":8957,"ĠStorage":8958,"Ġbutt":8959,"atering":8960,"rawn":8961,"onde":8962,"encing":8963,"Ġscr":8964,"ĠArrival":8965,"Ġ97":8966,"Ġvisibility":8967,"Ġattor":8968,"ĠAdobe":8969,"Ġsupporting":8970,"Ġprofits":8971,"hips":8972,"Ġcapability":8973,"Ġelection":8974,"Ġboat":8975,"Ġspecies":8976,"ĠPrime":8977,"Ġchoosing":8978,"Ġdefense":8979,"Ġevol":8980,"ANG":8981,"ĠPoly":8982,"Ġmanufactured":8983,"Ġlegit":8984,"ĠApplications":8985,"Ġsteam":8986,"Ġreduces":8987,"Ġhumanity":8988,"Ġbehold":8989,"ĠCarl":8990,"Ġresear":8991,"communic":8992,"ĠAtt":8993,"Ġholds":8994,"ĠDisney":8995,"Ġexpressly":8996,"Ġbringing":8997,"Ġsounds":8998,"chanical":8999,"zero":9000,"ĠMetro":9001,"Ġrecorded":9002,"Converter":9003,"ĠBedroom":9004,"Cloud":9005,"Ġoptimize":9006,"Ġbanking":9007,"Ġcameras":9008,"zza":9009,"iamond":9010,"Ġzone":9011,"Ġdetermined":9012,"ĠRelated":9013,"ĠGeorge":9014,"Ġdecline":9015,"Ġcrossing":9016,"Ġanalyze":9017,"Ġdarkness":9018,"Ġconcepts":9019,"ĠAccessories":9020,"ĠDublin":9021,"Ġpreferences":9022,"Registrant":9023,"Ġrecommendations":9024,"Ġintroduce":9025,"ĠStatus":9026,"Ġscrew":9027,"Ġincreasingly":9028,"Ġdefinitely":9029,"ĠDeparture":9030,"Ġmixed":9031,"ĠLinks":9032,"Ġevaluation":9033,"Ġderiv":9034,"ĠMembers":9035,"Finally":9036,"Ġflorists":9037,"accur":9038,"ĠMulti":9039,"Furthermore":9040,"Ġmoist":9041,"ĠAzure":9042,"ĠVirgin":9043,"ĠVMware":9044,"Ġconflict":9045,"ĠINDUSTRY":9046,"ĠJoseph":9047,"ĠBelgium":9048,"ĠEthernet":9049,"Ġsubsequent":9050,"Ġincurred":9051,"Ġcotton":9052,"Ġdescriptions":9053,"ĠAntonio":9054,"washer":9055,"Ġluxurious":9056,"ĠGuarantee":9057,"ä½ĵä¸Ńæĸĩ":9058,"%,":9059,"96":9060,"Bel":9061,"Email":9062,"FC":9063,"GP":9064,"IE":9065,"Jun":9066,"TX":9067,"Video":9068,"WS":9069,"Ye":9070,"eet":9071,"fers":9072,"jin":9073,"mat":9074,"ois":9075,"uction":9076,"yang":9077,"å·":9078,"ç¥":9079,"Ġä¸Ńæĸĩ":9080,"Ġtill":9081,"Ġtears":9082,"inth":9083,"onents":9084,"ref":9085,"real":9086,"reams":9087,"atus":9088,"Ġfo":9089,"Ġfro":9090,"Ġfilling":9091,"Ġpil":9092,"Ġpull":9093,"eding":9094,"arin":9095,"Ġbids":9096,"Ġbattle":9097,"lets":9098,"Ġhaven":9099,"ĠSL":9100,"ĠSong":9101,"ĠCer":9102,"ĠCart":9103,"ĠCEO":9104,"ĠCredit":9105,"Ġreb":9106,"Ġreward":9107,"Ġyes":9108,"olo":9109,"aco":9110,"Ġgap":9111,"ĠPot":9112,"adi":9113,"ĠTen":9114,"ĠTerr":9115,"ĠTyp":9116,"ĠMai":9117,"ersey":9118,"ĠBus":9119,"Ġstim":9120,"ĠHK":9121,"mented":9122,"ĠDar":9123,"ulating":9124,"ĠLA":9125,"ĠLet":9126,"ĠLearning":9127,"ĠRam":9128,"appe":9129,"unte":9130,"ĠFa":9131,"ĠFour":9132,"ĠFestival":9133,"Ġalgorith":9134,"quis":9135,"Ġ101":9136,"isting":9137,"ewhere":9138,"pping":9139,"Ġexecutive":9140,"Ġsuck":9141,"allas":9142,"Ġcancell":9143,"angle":9144,"ĠVan":9145,"Ġcontrast":9146,"Ġmanif":9147,"ubs":9148,"Ġjack":9149,"ression":9150,"Three":9151,"Inf":9152,"Ġperf":9153,"Ġ43":9154,"Ġpricing":9155,"Ġprev":9156,"Ġrelative":9157,"ricane":9158,"Ġ64":9159,"Ġmodular":9160,"Ġprocessed":9161,"Ġmetro":9162,"Ġvisits":9163,"Ġblind":9164,"Ġbelt":9165,"ERT":9166,"Ġrepresents":9167,"Ġrestore":9168,"Ġcorros":9169,"Ġboost":9170,"Ġentreprene":9171,"Ġevolution":9172,"Ġaccounts":9173,"Ġspecially":9174,"pending":9175,"Ġagreements":9176,"Ġactively":9177,"Ġengage":9178,"ĠOracle":9179,"Ġhosting":9180,"Ġprompt":9181,"olidays":9182,"ĠOnly":9183,"Ġcomputing":9184,"Ġsecondary":9185,"Ġreporting":9186,"ĠBarb":9187,"Ġholder":9188,"User":9189,"Ġparks":9190,"Ġperfectly":9191,"Ġsevere":9192,"Ġtotally":9193,"ĠGreater":9194,"ambling":9195,"Design":9196,"Ġ404":9197,"Ġcovering":9198,"Ġregardless":9199,"ariant":9200,"ĠSteel":9201,"Ġfurnished":9202,"Ġdistributed":9203,"ĠOutdoor":9204,"Ġwidth":9205,"Price":9206,"ĠSilicon":9207,"Ġfrequently":9208,"Ġconducted":9209,"ĠCourse":9210,"Google":9211,"Ġacquired":9212,"Ġwarranties":9213,"ĠCurrent":9214,"Ġvacation":9215,"Ġintelligence":9216,"holm":9217,"Ġç®Ģ":9218,"ĠTurkey":9219,"Ġcovenant":9220,"ĠFairchild":9221,"ĠCharles":9222,"Ġownership":9223,"ĠDiscussion":9224,"Ġlamps":9225,"Ġrepeated":9226,"Ġmirror":9227,"ĠMuslim":9228,"ĠBoulevard":9229,"Ġphilosophy":9230,"åĽ½":9231,"âĢŀÂ¢":9232,"Ġconsidering":9233,"Ġfingers":9234,"150":9235,"Ant":9236,"CN":9237,"Copyright":9238,"DL":9239,"Disc":9240,"Er":9241,"Ev":9242,"HT":9243,"IK":9244,"RS":9245,"TACT":9246,"UK":9247,"VC":9248,"aired":9249,"cat":9250,"di":9251,"je":9252,"pass":9253,"yi":9254,"Ġur":9255,"only":9256,"erver":9257,"Ġsizes":9258,"Ġsouthern":9259,"Ġsamples":9260,"orf":9261,"isi":9262,"Ġfly":9263,"arr":9264,"aron":9265,"Ġmur":9266,"Ġmob":9267,"Ġintern":9268,"Ġdw":9269,"leag":9270,"Ġhabit":9271,"Ġhomes":9272,"eling":9273,"ĠSouthern":9274,"stream":9275,"ĠCC":9276,"ĠCit":9277,"ĠCab":9278,"ĠCategory":9279,"Ġrely":9280,"Ġlad":9281,"Ġnine":9282,"olars":9283,"aders":9284,"ĠTa":9285,"ĠTours":9286,"ĠMill":9287,"lyn":9288,"Ġproof":9289,"chip":9290,"Ġstack":9291,"Ġstorm":9292,"ĠHours":9293,"ĠHangzhou":9294,"essions":9295,"ĠRu":9296,"ĠFalls":9297,"ĠFacilities":9298,"isted":9299,"ĠEasy":9300,"Ġexit":9301,"Ġru":9302,"Ġtroub":9303,"ĠOR":9304,"ogen":9305,"pton":9306,"ĠJiang":9307,"ĠJavascript":9308,"ĠInsp":9309,"aved":9310,"Ġads":9311,"inda":9312,"gend":9313,"Ġunf":9314,"Ġupgr":9315,"Ġdispos":9316,"ateral":9317,"Ġserving":9318,"Ġ2019":9319,"Ġspeech":9320,"Ġspaces":9321,"Ġpregn":9322,"Ġscanning":9323,"Ġcolon":9324,"oys":9325,"Ġgrad":9326,"Ġapplicant":9327,"rible":9328,"aundry":9329,"arma":9330,"Ġhereby":9331,"Ġdelight":9332,"Ġfinish":9333,"Prot":9334,"ĠPhys":9335,"ĠAlbert":9336,"Ġstaying":9337,"2010":9338,"Ġorganized":9339,"Ġengaged":9340,"Ġchecked":9341,"2008":9342,"Ġenjoyed":9343,"Ġfeelings":9344,"Ġexplained":9345,"ITE":9346,"Ġemployment":9347,"Ġartificial":9348,"Ġdestruction":9349,"Ġtelling":9350,"Ġcombine":9351,"prof":9352,"Ġdamaged":9353,"Ġpackages":9354,"ĠFinance":9355,"ĠTerminal":9356,"Ġapplying":9357,"Ġimplemented":9358,"ĠPeru":9359,"ĠPerformance":9360,"Ġfailed":9361,"Ġentirely":9362,"ĠStudy":9363,"Ġrelaxed":9364,"Ġmarked":9365,"Ġofficials":9366,"Ġfootball":9367,"Ġironing":9368,"Ġtargeted":9369,"ĠCamping":9370,"Ġjournal":9371,"ĠEntertainment":9372,"Ġopposite":9373,"Ġacquisition":9374,"Ġjudge":9375,"Ġobligation":9376,"allel":9377,"Ġcockt":9378,"Ġdimensions":9379,"Ġfolder":9380,"ĠFilter":9381,"Ġrepeat":9382,"WebResource":9383,"ĠMovie":9384,"Ġceremony":9385,"Ġmedicine":9386,"packers":9387,"Ġinjection":9388,"Ġdestroyed":9389,"ĠMaterials":9390,"Ġthrone":9391,"Ġsectors":9392,"ĠMichael":9393,"ĠLouis":9394,"ĠLicense":9395,"Ġreproduce":9396,"ĠTECHNOLOGY":9397,"Ġç®Ģä½ĵä¸Ńæĸĩ":9398,"120":9399,"CON":9400,"Direct":9401,"Euro":9402,"FOR":9403,"HI":9404,"Love":9405,"Market":9406,"QU":9407,"RP":9408,"Ro":9409,"Test":9410,"WOR":9411,"cceed":9412,"gi":9413,"hatt":9414,"iest":9415,"iov":9416,"lian":9417,"mn":9418,"mel":9419,"mad":9420,"ned":9421,"piece":9422,"ww":9423,"åħ":9424,"Ġtough":9425,"hew":9426,"hedule":9427,"eron":9428,"aton":9429,"atile":9430,"Ġsing":9431,"Ġsad":9432,"esc":9433,"itz":9434,"itles":9435,"Ġcodes":9436,"enh":9437,"Ġfans":9438,"Ġpushed":9439,"ingu":9440,"Ġbinding":9441,"Ġmac":9442,"Ġmold":9443,"Ġmoon":9444,"Ġmolec":9445,"Ġinaccur":9446,"Ġdivided":9447,"Ġhorse":9448,"enth":9449,"eless":9450,"ĠSG":9451,"ĠSU":9452,"ĠSOL":9453,"ĠSMS":9454,"ĠCut":9455,"ĠCheng":9456,"Ġrevenue":9457,"Ġlaugh":9458,"Ġnit":9459,"ĠAires":9460,"Ġgospel":9461,"ĠIl":9462,"ĠMu":9463,"ĠMother":9464,"ĠBit":9465,"Ġhel":9466,"Ġstro":9467,"ĠHub":9468,"ĠHels":9469,"ĠHilton":9470,"Ġconsole":9471,"ĠDoll":9472,"ĠLith":9473,"ĠLike":9474,"ĠRose":9475,"ĠRio":9476,"ĠFu":9477,"quarters":9478,"illance":9479,"ĠES":9480,"ĠEmer":9481,"Ġvibration":9482,"ĠWhe":9483,"Ġnotification":9484,"ĠNi":9485,"Ġsucceed":9486,"forget":9487,"ially":9488,"ograp":9489,"Ġleather":9490,"ĠStadium":9491,"Ġenabling":9492,"loom":9493,"Ġplays":9494,"Ġresid":9495,"ouses":9496,"Ġju":9497,"iko":9498,"Ġdisabled":9499,"raud":9500,"Ġproved":9501,"ounded":9502,"intage":9503,"Ġoverlooking":9504,"Ġcoat":9505,"Ġinterrupt":9506,"Ġguidance":9507,"Ġcarrier":9508,"Ġmins":9509,"Ġmineral":9510,"Ġexpired":9511,"Ġ08":9512,"Ġattach":9513,"ĠTrad":9514,"ĠXP":9515,"ĠDatabase":9516,"Ġinsights":9517,"anna":9518,"Ġdecades":9519,"Ġsignature":9520,"ATE":9521,"Ġincred":9522,"ĠMarine":9523,"Ġstreets":9524,"Ġheads":9525,"ĠWhy":9526,"Ġletters":9527,"Ġconstitute":9528,"fortunately":9529,"Ġlegis":9530,"brid":9531,"Ġlandmarks":9532,"Ġexciting":9533,"ributed":9534,"letter":9535,"ĠAmateur":9536,"roller":9537,"Ġweekend":9538,"cycl":9539,"Ġoccurs":9540,"weh":9541,"weight":9542,"ĠEdition":9543,"Ġconnector":9544,"ĠImm":9545,"ELL":9546,"Ġcommonly":9547,"Ġtourism":9548,"Ġtourists":9549,"valentine":9550,"ĠBeds":9551,"Ġconfigured":9552,"Play":9553,"Ġmaxim":9554,"Ġpleased":9555,"Ġtherm":9556,"Ġpromoting":9557,"Ġsexual":9558,"Ġraising":9559,"Ġdescribe":9560,"Sphere":9561,"Previous":9562,"Ġterror":9563,"Ġdegrees":9564,"Ġillustr":9565,"Ġbroadcast":9566,"Ġdiameter":9567,"ĠOptions":9568,"Ġconsultation":9569,"ĠStatistics":9570,"Ġultra":9571,"Ġultimate":9572,"Ġexpanding":9573,"Ġexpanded":9574,"Ġseeking":9575,"ĠRadio":9576,"ĠRadisson":9577,"Ġmidst":9578,"ĠEvents":9579,"Ġteachers":9580,"Ġaccompl":9581,"ĠPremier":9582,"ĠSpring":9583,"ĠGirls":9584,"Ġdeparture":9585,"Ġbeside":9586,"Ġinventory":9587,"Ġspectacular":9588,"Restaurants":9589,"cosystem":9590,"Ġabsolutely":9591,"stanbul":9592,"ĠDesktop":9593,"Ġtransparent":9594,"Ġphotographs":9595,"ĠGuangdong":9596,"Country":9597,"Ġbench":9598,"Ġbuffet":9599,"ĠHospital":9600,"Ġtemplate":9601,"Ġicons":9602,"Ġderivative":9603,"leagues":9604,"600":9605,"Both":9606,"FL":9607,"Fore":9608,"Fabulous":9609,"Gen":9610,"Hot":9611,"Human":9612,"IES":9613,"Lim":9614,"PP":9615,"Pass":9616,"Personal":9617,"bal":9618,"cm":9619,"cr":9620,"ders":9621,"ghed":9622,"iour":9623,"och":9624,"uct":9625,"uation":9626,"uce":9627,"width":9628,"zy":9629,"Ġid":9630,"ĠãĢ":9631,"erk":9632,"erness":9633,"reb":9634,"Ġsew":9635,"Ġsoph":9636,"itarian":9637,"Ġod":9638,"Ġcum":9639,"Ġmerg":9640,"iche":9641,"Ġdiving":9642,"Ġhurt":9643,"entle":9644,"ĠSri":9645,"ĠSelf":9646,"Ġthrow":9647,"etime":9648,"Ġyellow":9649,"Ġnode":9650,"owed":9651,"urich":9652,"ĠAren":9653,"utr":9654,"olk":9655,"olar":9656,"Ġislands":9657,"Ġgardens":9658,"ĠPent":9659,"ĠTips":9660,"ĠMS":9661,"ĠMake":9662,"Ġprohib":9663,"ĠBon":9664,"ĠBad":9665,"ĠHold":9666,"ĠHaw":9667,"estion":9668,"ĠDa":9669,"ĠDallas":9670,"ĠLarge":9671,"ĠLiver":9672,"ĠRoc":9673,"emon":9674,"ĠEs":9675,"Ġvit":9676,"Ġvote":9677,"Ġdece":9678,"Ġdepth":9679,"Ġrid":9680,"ummer":9681,"ourcing":9682,"âĢĺ":9683,"Ġsugar":9684,"aret":9685,"ĠVac":9686,"ĠVista":9687,"ells":9688,"rous":9689,"ĠKr":9690,"Ġadj":9691,"index":9692,"Ġunion":9693,"Things":9694,"plan":9695,"ensional":9696,"ĠYouth":9697,"inki":9698,"crets":9699,"ĠProp":9700,"teen":9701,"ĠCompl":9702,"Ġ63":9703,"Ġhighlight":9704,"ĠThread":9705,"Ġsched":9706,"Ġscope":9707,"Ġbrake":9708,"Ġ78":9709,"Ġundert":9710,"Ġguy":9711,"Ġcolleagues":9712,"Ġminor":9713,"Ġexposed":9714,"Ġ95":9715,"Ġdesigner":9716,"ĠGoddess":9717,"Ġwouldn":9718,"Ġeveryday":9719,"Ġacid":9720,"ĠAdam":9721,"Android":9722,"azed":9723,"ĠPlayer":9724,"Ġformation":9725,"Ġdifferences":9726,"Ġrepent":9727,"Ġdelivers":9728,"Ġsurfaces":9729,"Ġdirectory":9730,"ĠConc":9731,"Ġlisting":9732,"Ġvariable":9733,"Ġsignals":9734,"apping":9735,"ENCE":9736,"ĠCommun":9737,"ĠInnov":9738,"Ġkeyboard":9739,"Ġdram":9740,"Ġloan":9741,"Ġcomputers":9742,"2004":9743,"2006":9744,"ĠAgency":9745,"lett":9746,"Ġlogin":9747,"Ġartist":9748,"ĠWebcam":9749,"Ġvector":9750,"ĠPartner":9751,"cycle":9752,"ĠRepresent":9753,"Ġcalc":9754,"Ġtreatments":9755,"ĠRegister":9756,"Ġkitchenette":9757,"Ġrespectively":9758,"Ġmembership":9759,"Ġamounts":9760,"Ġmounting":9761,"Ġwallpaper":9762,"Ġanger":9763,"Ġconfigure":9764,"Photo":9765,"Ġantib":9766,"Ġprinted":9767,"Ġreplaced":9768,"Ġdiscussed":9769,"ĠCamera":9770,"Ġanalyz":9771,"Ġharmless":9772,"Ġmercy":9773,"ĠLinen":9774,"Ġuniversal":9775,"ĠDevice":9776,"Ġopens":9777,"ĠCheap":9778,"Ġtravelling":9779,"ĠCertificate":9780,"ĠGoods":9781,"Ġdefinition":9782,"Ġadministrator":9783,"Ġqualified":9784,"ĠProcessing":9785,"ĠFlower":9786,"Ġwaters":9787,"Ġdebt":9788,"ĠPoints":9789,"Ġdeployment":9790,"Ġventure":9791,"install":9792,"ĠInsurance":9793,"Ġconfidentiality":9794,"Ġdollars":9795,"Ġappreciate":9796,"ĠBluetooth":9797,"ĠDestinations":9798,"Cheap":9799,"Ġexplanation":9800,"Ġproportion":9801,"Ġresurrection":9802,"Ġtestimony":9803,"!âĢĿ":9804,",'":9805,"727":9806,"AH":9807,"AX":9808,"BA":9809,"Bre":9810,"Dom":9811,"Dep":9812,"EB":9813,"FD":9814,"FT":9815,"Four":9816,"Gener":9817,"Homes":9818,"IO":9819,"Micro":9820,"Mobile":9821,"Never":9822,"Quality":9823,"Rep":9824,"Save":9825,"Tag":9826,"UC":9827,"Videos":9828,"Yet":9829,"cons":9830,"cause":9831,"click":9832,"df":9833,"dy":9834,"gener":9835,"hou":9836,"job":9837,"nia":9838,"oa":9839,"papers":9840,"ship":9841,"ä»":9842,"åį":9843,"æĬ":9844,"Ġri":9845,"heim":9846,"oned":9847,"orical":9848,"esa":9849,"Ġcatalog":9850,"Ġwestern":9851,"iser":9852,"Ġpor":9853,"Ġbill":9854,"Ġbare":9855,"iciency":9856,"Ġdownt":9857,"Ġdangerous":9858,"roph":9859,"asa":9860,"Ġhole":9861,"Ġhobby":9862,"ĠSaul":9863,"ĠSlov":9864,"step":9865,"ĠCore":9866,"ĠCable":9867,"ĠCreate":9868,"Ġrein":9869,"Ġyuan":9870,"Ġlung":9871,"Ġnorthern":9872,"urches":9873,"uta":9874,"ima":9875,"ĠTC":9876,"ĠTree":9877,"ĠTake":9878,"ĠTube":9879,"ĠTemplate":9880,"ĠToday":9881,"ĠMoney":9882,"Ġbeat":9883,"lywood":9884,"Ġprove":9885,"Ġprocurement":9886,"ĠBand":9887,"tery":9888,"Ġhell":9889,"Ġstick":9890,"ĠHat":9891,"ĠHen":9892,"ĠHello":9893,"este":9894,"Ġconvey":9895,"abet":9896,"ĠRect":9897,"iffer":9898,"ifiable":9899,"ifiers":9900,"ĠGh":9901,"ĠGas":9902,"ighter":9903,"Ġvine":9904,"Ġvirt":9905,"ĠWat":9906,"ections":9907,"ĠNaz":9908,"ĠNorthern":9909,"ogether":9910,"ĠChan":9911,"Ġleaves":9912,"ĠJersey":9913,"Ġcontrary":9914,"Ġmeets":9915,"ĠStay":9916,"this":9917,"available":9918,"ibet":9919,"ghan":9920,"ubric":9921,"Ġuncle":9922,"Ġunforget":9923,"orders":9924,"Ġteeth":9925,"Ġheritage":9926,"berry":9927,"commerce":9928,"Ġknock":9929,"Ġ52":9930,"ĠâĢĿ":9931,"Ġdetail":9932,"ificates":9933,"Ġrelief":9934,"Review":9935,"Ġampl":9936,"amping":9937,"Ġ61":9938,"Ġsupposed":9939,"Ġschedule":9940,"Ġ72":9941,"Ġcustoms":9942,"Ġaccessing":9943,"Ġflour":9944,"ĠTrain":9945,"Ġ2001":9946,"Ġblank":9947,"ĠPlanning":9948,"Ġsimulation":9949,"Ġadvoc":9950,"Ġstudied":9951,"Ġentering":9952,"uesday":9953,"Ġrefers":9954,"Ġhousekeeping":9955,"Ġasking":9956,"ART":9957,"shan":9958,"default":9959,"Ġgovernance":9960,"Ġlandscape":9961,"Trade":9962,"ĠGran":9963,"ĠPartners":9964,"ECT":9965,"ĠIntroduction":9966,"Ġdownloaded":9967,"ĠImage":9968,"ĠÂ°":9969,"Ġdelivering":9970,"alta":9971,"Ġeducational":9972,"ĠDeveloper":9973,"Ġseparation":9974,"Despite":9975,"Ġangel":9976,"Ġsilence":9977,"Places":9978,"Ġimported":9979,"Ġpromotions":9980,"iscal":9981,"ĠWorking":9982,"which":9983,"Ġhonor":9984,"ĠAvailable":9985,"Ġexpectations":9986,"Ġdiscovered":9987,"ĠPosted":9988,"ĠTesting":9989,"ĠMagazine":9990,"ĠSolar":9991,"Ġlaughed":9992,"Ġprimarily":9993,"Ġsubstant":9994,"Ġregularly":9995,"ĠConsult":9996,"ĠSpeed":9997,"ĠJobs":9998,"ĠFeatured":9999}