#version: 0.2 - Trained by `huggingface/tokenizers`
Ġ t
Ġ a
i n
h e
o n
e r
r e
Ġt he
a t
Ġ s
o r
n d
e s
i t
Ġ o
Ġ c
e n
Ġ w
i s
o u
a n
Ġ f
Ġ p
a l
in g
e d
Ġa nd
a r
Ġ b
Ġo f
Ġ m
Ġ in
i on
Ġt o
i c
Ġ d
r o
l e
a s
Ġ h
en t
e l
o m
i l
c t
Ġ S
s t
Ġ C
Ġt h
Ġ re
o t
e t
Ġ y
Ġ l
Ġ n
at ion
Ġ e
Ġy ou
o w
u r
i d
Ġ A
u t
u s
o l
Ġ is
a c
v e
Ġ g
i g
Ġ P
Ġ I
i m
Ġf or
a m
a d
Ġ T
Ġ M
Ġ on
a y
er s
it h
Ġb e
l y
Ġp ro
c h
c e
i r
Ġw ith
Ġ B
a g
t er
Ġ he
Ġs t
v er
Ġ H
m ent
es t
Ġc on
Ġ D
u l
Ġ or
r i
Ġ L
Ġa n
a b
Ġ (
es s
o d
Ġ R
a p
Ġth at
u n
o s
Ġ F
Ġa l
i f
Ġ it
T he
q u
Ġ 1
it y
or t
Ġ G
e m
a nd
Ġa s
an t
Ġc om
Ġ 2
Ġa re
at e
ig h
he r
o p
o re
a in
ar t
il l
is t
Ġ E
u re
Ġ v
ro m
Ġ W
e w
Ġw h
p p
e ct
Ġf rom
Ġyou r
Ġn ot
Ġe x
Ġd e
Ġ r
Ġw as
u st
Ġ us
i es
a k
Ġ N
u m
Ġa t
Ġs h
o c
ag e
l d
Ġ k
s e
Ġ U
ou r
i v
Ġs e
igh t
â Ģ
Ġs u
Ġb y
re s
ot el
0 0
n t
a ve
a il
al l
Ġc an
ar d
i ve
an g
Ġt r
p e
' s
Ġth is
Ġ O
p er
Ġ -
ic e
ou t
f or
i a
Ġw e
in e
i al
Ġc h
d u
a ct
c c
o k
u d
o g
a re
o st
p t
Ġal l
ab le
Ġ V
id e
Ġcom p
e ar
ĠC h
Ġ u
er v
for m
Ġh ave
as t
el l
Ġ le
ion s
i p
Ġ J
Ġw ill
or k
at ed
t her
it e
Ġcon t
on g
ĠI n
Ġm e
r ou
ĠS t
Ġd o
t h
p ort
a v
i re
he n
r y
an ce
Ġ K
re e
om e
Ġa d
Ġ en
i z
f f
ac k
du ct
ic al
i b
Ġa b
l o
Ġ 3
ation s
Ġp l
ac h
l ic
Ġan y
ac e
Ġre s
g h
an s
Ġa cc
ar k
in d
c l
am e
Ġm an
ic h
0 1
ig n
o ok
i le
Ġ "
f er
Ġ im
Ġ ,
Ġg o
Ġn e
u b
ou ld
ou s
Ġa pp
Ġ ro
ul t
g e
ĠT he
Ġ un
Ġs o
Ġo ur
le ct
Ġ j
im e
or d
Ġin t
ou nt
Ġh as
Ġu p
Ġm ore
i k
as e
en ce
as s
res s
u e
Ġo ther
Ġt e
Ġc l
Ġh is
ow n
Ġb ut
s o
ter n
T h
form ation
ver y
v el
on e
Ġhe r
I n
p l
Ġd is
Ġo ut
Ġp art
ak e
i e
i ew
b er
it ion
r u
Ġwh ich
at er
Ġa g
Ġp er
ar y
Ġs erv
r a
Ġs a
os e
en s
ĠH otel
Ġpro v
is h
Ġ 4
on t
u al
Ġ .
ic es
f t
Ġh otel
e p
ing s
Ġon e
Ġd es
y st
ment s
or s
Ġ qu
on d
c om
Ġt ime
Ġthe ir
Ġpro duct
ou nd
l l
ation al
e nd
Ġ /
at es
o v
Ġab out
Ġk n
Ġus e
Ġa r
Ġ Y
Ġ2 01
Ġthe y
yst em
Ġin formation
Ġ 5
Ġp r
er m
Ġal so
Ġs pe
cl ud
i an
Ġit s
Ġs p
ic k
it ies
. .
Ġin d
Ġof f
Ġw ork
Ġs he
I t
il d
il ity
l ow
ay s
Ġthe m
b s
Ġm y
re at
or y
ch n
v en
in k
ol og
c re
Ġh im
at a
Ġf e
Ġthe re
ĠP ro
n g
Ġh ad
Th is
c ess
Ġn ew
Ġp re
in a
ĠU n
Ġwh o
el y
Ġm ap
Ã Ĥ
c k
at ure
in t
ad e
er e
ol d
is e
Ġre qu
Ġin clud
ĠR e
or ld
an c
it ed
p art
an y
ent s
it t
. "
Ġy ear
Ġ âĢ
Ġp e
g r
vel op
Ġm ay
Ġd et
if ic
Ġcom m
Ġl oc
us e
on s
j ect
Ġre l
W e
Ġw hen
nd er
r ic
ri v
Ġa v
' t
Ġs ystem
Ġro om
n e
rou gh
R e
Ġint o
ow er
ic s
he re
Ġa m
Ġsu ch
in ess
o od
at ing
ik e
am p
o b
ent er
et w
he d
l es
t e
Ġo ver
Y ou
ang e
in es
W h
op le
Ġsa id
Ġ if
ur n
Ġr ight
Ġad d
ĠC om
i ous
Ġtr ans
est ed
Ġkn ow
o ve
ro w
Ġe m
Ġre g
Ġon ly
at h
Ġne ed
a w
us iness
Ġn o
Ġ 6
Ġth an
ĠS e
ĠS h
Ġbe en
Ġh igh
Ġsu pp
er t
Ġav ail
Ġc o
Ġin ter
Ġwh at
ir st
Ġa ct
Ġw ant
ĠT h
c ial
Ġp ers
ib le
t y
Ã ¢
port ant
Ġm od
f ul
Ġp h
Ġw ere
l and
a i
en c
n ing
is s
Ġd ata
al ly
ust om
ail s
Ġcon s
chn olog
â Ĥ
Ġsh ow
Ġim p
âĤ ¬
Ġ )
Ġde velop
Ġ1 9
i ed
f ter
Ġpe ople
ĠD e
C h
Ġs c
w are
Ġt w
oc k
Ġb r
a x
Ġ 7
Ġu nder
rou nd
s s
Ġg u
o ol
H e
I f
if e
Ġc ol
âĢ Ļ
Ġth rough
Ġw orld
Ġprov id
p en
ou gh
ĠCh ina
l p
ol ut
f ore
Ġl ike
x t
an k
Ġre c
o y
Ġc ar
m er
ur ing
S h
Ġl ook
il es
ĠW e
ire ct
al ity
Ġbe c
ri es
Ġm in
ĠA r
ag es
a ir
R L
en er
tern ational
Ġex p
Ġm ost
pt ion
Ġf irst
âĢ Ŀ
ark et
Ġb u
w n
Ġh ow
el s
ou se
Ġthe se
Ġ 0
ect ion
v iew
Ġse e
Ġin st
Ġ 9
i o
Ġpro cess
Ġhe lp
Ġ &
Ġex per
ul ar
w ay
ot h
Ġpers on
Ġ 8
re n
Ġserv ice
i ence
Ġb usiness
Ġs m
le ase
ĠU RL
Ġg r
Ġj ust
Ġdes ign
i ent
Ġs et
Ġavail able
our s
as ed
Ġg et
) .
ĠG od
a use
Ġs ome
Ġw ould
e e
Ġapp lic
Ġb ack
el f
Ġc ustom
o int
y s
Ġm et
Ġacc ess
Ġd if
Ġas s
Ġf l
os s
al k
Ġse c
Ġe ff
lo ad
Ġre m
v ent
Ġc re
Ġsh all
Ġgo od
Ġa ut
ro l
t s
Ġv is
ĠT e
Ġd own
ĠE x
Ġyear s
Ġ :
Ġf ound
ĠB e
i er
Ġdet ails
Ġw ell
part ment
g an
Ġtw o
ab ility
Ġk m
ri b
Ġat t
Ġ very
ap ter
ru ct
Ġk e
l ine
Ġthe n
ĠS erv
Ġres p
c on
Ġf ree
Ġs er
Ġ1 0
Ġm ake
chnolog y
il y
Ġh and
ĠN ew
Ġe very
p r
n er
n ess
Ġd id
. ,
ĠR o
Ġa c
iv ers
b le
l ed
Ġc ount
Ġv al
I m
Ġm on
ĠT r
Ġag ain
ĠA d
? "
rou p
al s
Ġ2 00
ub lic
) ,
A nd
Ġhotel s
Ġe qu
Ġb l
ĠI t
Ġus ed
a u
ĠC o
âĢ ľ
H ow
e en
Ġproduct s
c o
est s
Ġ Z
ol low
Ġc he
Ġm ain
d er
he s
r on
Ġman y
id ent
Wh at
Ġb el
g et
Ġof fer
ĠS u
Ġsh ould
iz e
t ing
it s
m in
Ġn ow
Ġo per
1 0
Ġin v
Ġind ust
bs ite
Ġ Q
Ġa ir
Ġp ol
en g
Ġcomp le
Ġserv ices
F or
w ard
a h
a z
ĠP l
Ġo wn
r al
Ġt y
ot her
Ġn ear
age ment
Ġa fter
it es
ar m
Ġfor m
Ġoff ers
ure s
ĠUn ited
i x
at ive
Ġdif fer
c es
ĠM an
Ġsu b
el d
iz ed
Ġhe re
Ġl ong
Ġw ay
Ġl ife
ar ch
Ġe ven
Ġrequ ire
h ing
Ġw here
Ġc ur
ĠU S
Ġ X
al e
ĠH e
Ġinclud ing
u g
at or
Ġc ould
l ish
er n
Ġp ower
ed ia
Ġf ollow
ĠS p
ĠG u
Im portant
l ess
ĠI s
1 9
° æ
ĠD at
Ġpro per
ft ware
è ¡
ater ial
æ ķ
Ġp ass
ĠF r
Ġcont rol
Ġd ay
è¡ ¨
ce pt
Ġsupp ort
į ®
Ġd ist
°æ į®
æķ °æį®
Ġcon f
æķ°æį® è¡¨
etw een
he et
Ġb est
Ġst and
it al
t ain
Ġp ur
Ġm arket
E R
u p
Sh ow
Ġh ours
i et
Ġre p
Ġpro f
Ġd el
Re qu
g y
ak ing
ĠA nd
ut e
Ġdo es
Ġn um
r act
at her
ĠR es
res ent
re d
Ġo b
3 0
us s
I N
r it
Ġb etween
ow s
h ip
Ġus ing
i qu
Ġbe fore
Requ ested
Ġs im
ĠI nd
ant s
Ġin s
ion al
Ġpro t
ĠâĢ ĵ
u ch
Ġv iew
Ġd on
ur al
B ut
p h
Ġs ur
t o
ĠC l
Ġad v
lic k
en e
ĠC ont
Ġf ul
Ġd irect
Ġs ame
Ġc ap
O N
ar ge
ro om
as heet
T M
ĠP age
S t
Ġf ac
Ġre st
Ġn ame
00 0
ĠC on
Ġst ud
i pp
ar s
ĠDat asheet
Ġf in
Ġm ach
S he
ic t
5 0
il ities
Ġst r
Ġm ust
ir on
Ġwith out
Ġex t
gr am
Ġe lect
Ġe nd
O R
e c
Ġ ed
Ġo pen
Ġm aterial
ap h
P ro
Ġcomp any
Ġde v
2 0
Ġm ade
Ġg ener
ic ro
Ġg reat
Ġper form
Ġc or
Ġres ult
, "
Ġf r
Ġm em
ĠP h
c ri
ar g
p le
r ation
ĠA n
Ġfe ature
c ed
ĠE ng
Ġ enter
al y
Ġwith in
The re
Ġdiffer ent
Ġe ach
ĠA l
r ist
Ġm iles
out h
in ce
Ġb re
Ġqu ality
etw ork
e ver
Ġt ake
Ġb o
Ġcon d
ĠA ir
f act
A d
Ġf am
et s
is ion
iv es
.. .
at ch
i um
p or
Ġc ity
Ġth ink
re nt
Ġprov ide
Ġs olut
Ġl ist
Ġt erm
Ġc ent
an n
om m
Ġdevelop ment
Ġ ent
u es
ac y
Ġst art
Ġv ar
ir d
Ġf ind
ers ion
è ¯
Ġre ce
Ġcon n
Ġspe c
Ġch ild
ot e
ut es
Ġs ay
Ġare a
ç »
ç ´
ĠL e
or n
Ġf un
Ġb ook
Ġw ater
Ġle ad
ical ly
Ġe as
ĠP r
Ġ @
Ĩ æ
iz ation
Ġroom s
Ĳ ľ
ĠSt ates
è¯ ¦
ç´ ¢
Ĳľ ç´¢
A s
d ay
Ġte chnology
Ġch o
ç» Ĩæ
è¯¦ ç»Ĩæ
è¯¦ç»Ĩæ Ĳľç´¢
Ġ >
er ing
od e
Ġpl ace
t ic
Ġc all
as p
Ġde c
t on
Ġpro ject
Ġc le
Ġbec ause
is m
is hed
a ur
t d
ri end
a ut
Ġ Ã¢
Ġl aw
Ġv ide
er ry
ĠIn ternational
ĠCom p
Ġs ign
it ions
ect ed
Ġb oth
Ġde f
ur ity
Ġle vel
W ork
Ġre al
av el
e k
u nd
Ġre t
Ġe v
Ġdis c
Ġnum ber
i eld
Ġre ad
al th
om et
are d
A N
A T
i ver
er y
Ġacc ount
if ied
cc ess
Ġo pt
ri ve
od y
T o
Ġt em
am es
Ġst ay
Ġb ed
ĠB l
if y
Ġcomm un
Ġl ight
H otel
Ġspe cial
Ch apter
Ġs w
Ġin f
Ġor der
Ġa way
ĠC ity
con om
Ġp riv
Ġcont in
Ġ ÃĤ
Ġexper ience
Ġtr ad
Ġ [
Ġcont ent
as h
u fact
im es
ou n
Ġc ert
u c
re ad
s elf
ro p
Ġth ose
ver n
in s
Ġ1 5
Ġa round
Ġ1 2
Ġ1 8
Ġs ite
tern et
Ġph ot
e x
t en
Ġm uch
Ġre view
ĠD es
ro ss
ines e
st and
ĠC ent
Ġre f
W hen
Ġbu ild
own load
Ġperson al
ivers ity
a j
ap p
Ġcom e
pe nd
Ġwe bsite
Ġloc ated
Ġaut om
2 01
u x
ĠF or
Ġpl ay
t ed
Ġp age
ur y
iv ing
Ġcont act
Ġso ftware
omm od
Ġw alk
Ġpro gram
ip ment
Ġpart ic
E N
ĠA s
Ġvis it
Ġag ree
ĠServ ice
Ġse lect
Ġme et
Ġimp ro
Work ing
Ġwh ile
Ġh ome
b o
Ġin cre
un g
1 2
ĠM ar
Ġ2 0
h or
Ġt est
as ter
um an
ĠY ou
Ġs k
enc y
a f
Ġto p
ct ion
Ġeff ect
Ġc ost
ort h
ain s
Ġact iv
Ġindust ry
Ġor gan
Ġman agement
Ġh ouse
lo y
ic y
lo b
O n
v iron
ual ly
Ġp ost
Ġproduct ion
Ġp oss
p os
in ation
o f
Ġo ld
ĠP ol
Ġ $
ard s
A ll
Ġp ublic
Ġto ol
Ġn etwork
asp x
er r
Ġas k
Ġg roup
ĠCh rist
A n
u ro
Ġth ough
Ġen g
Ġst re
en se
as on
Ġbe ing
Ġhe ad
ĠTh is
v ed
Ġf act
ĠP ark
ĠB r
amp le
Ġth ree
ition al
ific ation
ric t
Ġsm all
Ġmach ine
e gr
ar n
ight s
ĠO r
Ġproper ty
ak es
Ġfeature s
m s
ĠC ol
ĠCh inese
Ġf ore
S u
l ing
Ġw r
Ġhe art
our ce
iqu e
ang u
A R
Ġacc ommod
Ġsa f
E T
Ġp op
Ġd ays
p loy
ear ch
ie ve
1 1
Ġp oint
Ġh ard
ac es
Ġim portant
Ġmin utes
s h
Ġt urn
Ġd uring
ĠL td
op y
Ġth ird
Ġ ide
at ic
Ġc our
as es
Ġle ft
Ġh ost
Ġcur rent
Ġ est
ĠT V
oc ial
O ur
w ays
Ġon line
Ġme as
ib ility
ĠCom m
iss ion
4 0
ĠS c
cre en
it or
an e
id er
Ġpro m
Ġser ver
b y
d e
Ġf riend
ver t
ĠW h
itt le
a ff
al es
per ature
Ġfollow ing
v es
ate g
Ġle t
Ġl im
Ġadd ress
S o
W ith
in al
E S
at t
Ġb ath
Ġch ange
is ter
Ġgo ing
Ġprovid es
j oy
p ar
Ġst ill
Ġcol lect
Ġin ternational
mer ic
viron ment
A C
at ely
Ġ i
Ġ et
The y
ĠRo ad
e y
r aph
Ġl ow
av ing
Ġs l
Ġm en
Ġan other
ĠIn st
Ġmon th
Ġty pe
ch ool
Ġinv est
Ġus er
Ġapplic ation
an ies
Ġinclud e
it c
em ber
b ers
Ġd em
le v
ĠU s
Ġperform ance
at ter
ĠC an
Ġcustom ers
pp ort
ĠIn n
es us
Ġc ame
ap an
ĠG erm
d om
ot t
Ġcon st
ain ing
ord ing
ob ile
Ġke y
Ġfac ilities
Ġf ile
Ġd r
ĠEng lish
o or
Ġm ult
ic on
ent ial
ol id
Ġus ers
ĠPro duct
Ġa partment
ĠA partment
Ġapplic ations
Ġche ck
i or
in ed
Ġp os
Ġp ay
Ġr un
Ġinst all
f ace
Ġn ight
Ġg row
A t
is ing
Ġloc al
Ġc are
le x
Ġe conom
Ġ2 4
ist s
our ces
Ġman ufact
f ort
m an
Ġf ew
Ġg l
Ġg re
ĠO n
ĠIn formation
Ġpr ice
Ġcount ry
Ġf low
Ġb ased
U S
Ġl o
cri ption
A l
t he
ĠA meric
ĠF ree
Ġle g
Ġchild ren
i j
Ġb et
Ġh ist
ĠA pp
Ġcomp ut
Ġpl an
Ġ '
Ġl arge
Ġsec urity
it u
Ġp ort
Ġth ings
Ġg ive
Ġch ang
Ġ3 0
Ġm ed
Ġe y
Ġs omet
Ġw ent
Ġw ord
h ai
Ġin c
ĠE uro
th ing
Ġequ ipment
I S
f ast
m ed
am s
ind ows
Ġcomp anies
ĠServ ices
u ck
re m
lob al
1 5
b r
enc es
1 6
A S
Ġp at
Ġen s
Ġful l
2 00
s w
pe cial
ĠAir port
in ing
ĠS o
Ġn on
Ġen joy
Ġgo vern
Ġl and
Ġex c
Ġsec ond
rib ut
Ġresp ons
or m
Ġst ate
ĠF l
iv id
ĠSt re
Ġc r
ĠA ll
Ġunder stand
is k
Ġm ov
Ġcl ass
ĠM icro
ir l
Ġj o
ĠUn iversity
at ural
Ġl ittle
ri al
Ġint egr
Ġagain st
l i
Ġfe el
Ġright s
ĠIt aly
1 3
y n
Ġre port
ĠA g
Ġne xt
Ġ201 6
Ġp resent
le t
ĠS w
Ġdis pl
ĠA m
Ġab le
Ġcustom er
o h
p ut
ĠS er
Ġst e
Ġcount ries
Ġvide o
2 5
Ġre du
Ġl ine
Ġ1 6
Ġex ample
Ġke ep
z h
Ġc lick
ĠJ esus
in c
Ġs ens
Ġp ut
le ment
ill ion
b e
o ot
Ġp lease
Ġl ast
ak fast
Ġen vironment
âĤ¬ âĢľ
Ġf ood
Ġb ro
ri ed
op p
oc u
ire d
itt ed
Ġfam ily
Ġa ff
er ries
ar ing
ĠC enter
ĠM y
l ier
Ġl ove
Ġal ways
Ġrequ ested
Ġcre ate
z e
or ies
Ġto o
ĠP ar
Ġpro ble
Ġex pl
Ġtr avel
Ġl og
I T
n ov
Ã ĥ
is ed
Ġsolut ions
Ġp ress
Ġd i
Ġd om
ap e
Ġr ange
Ġup on
1 8
C om
c ent
y m
Ġs at
Ġh uman
ĠH ome
ĠV iew
Ġapp ro
Ġsystem s
ĠQ u
ĠM in
ang hai
led ge
ene f
D o
ing le
Ġb ody
Ġl ink
ĠG o
ĠN o
Ġcl ose
Ġlook ed
' re
ĠA b
P lease
ig ital
ĠM ore
ĠK ing
Ġgu ests
ruct ure
A L
U R
n ers
Ġw om
Ġty p
ou d
Ġbe h
ul ation
ĠJ apan
ir it
Ġall ow
1 7
F i
T r
Ġd rive
ĠC ar
ab les
Ġex ist
Ġpr act
Ġloc ation
Ġbec ome
Ġimpro ve
ĠStre et
Ġf il
ĠW i
f ect
ri p
ĠG r
us ic
Ġ1 7
ĠW orld
Ġwe b
Ġch ar
1 4
a im
Ġw ar
Ġh ig
tic le
ĠDes ign
iet y
ĠS k
Ġpart y
Ġag o
Ġmaterial s
Ġfr ont
m ail
v ers
Ġhe alth
fer ence
Ġtem perature
Ġf ace
Ġf ield
ad a
os p
um p
Ġrel ated
Ġt imes
Ġl ess
ĠO ff
Ġem ploy
i able
et y
ĠL ord
ĠIn ternet
Ġret urn
Ġbet ter
Â ®
Ġsu ccess
Ġte chn
l ished
ĠB ar
ĠHotel s
Ġf re
iv en
Ġar t
aj or
N o
h od
Ġm ight
ĠWe b
w ord
Ġf lo
Ġre se
id d
ĠE n
Hotel s
I C
ĠS outh
ĠC O
Ġqu est
Ġeas y
itc hen
Ġis s
Ġan al
ĠCh apter
Ġpriv ate
er ation
ou ble
Ġre nt
iv ely
one y
Ġb ig
Ġd est
Ġl angu
. âĢĿ
Ġto ok
Ġneed s
s ide
Ġt ell
Ġf iles
Ġb as
ut ure
anc ial
Ġc ase
ur ther
id ence
ag ing
Ġcom b
ist ics
Ġun t
Ġt ick
on es
Ġbe aut
ver age
ĠH ost
and s
ne y
Ġprovid ed
Ġaccommod ation
at form
ap er
Ġprof ess
ĠEuro pe
A r
g in
n ot
u k
ro ll
ĠT o
ir c
Ġ2 5
oc i
Ġcl os
anc ed
Ġs ince
Ġc ard
ist ration
Ġcomple te
Ġcle an
Ġposs ible
Ġsomet hing
y le
Ġp res
ĠS an
id s
Ġwe ek
ĠV ersion
Ġne ver
Ġac cept
in o
ĠG roup
Ġ2 1
Ġk ind
ĠBe ach
h a
m ing
Ġ ve
Ġ1 4
ĠRo om
Ġval ue
Ġcert ain
Ġcomput er
it ive
Ġw he
ĠS ystem
ĠP art
Ġte am
8 0
c y
Ġp ar
ĠR ep
ĠF e
Ġrequire ments
E C
p ro
er g
at s
Ġo cc
Ġm ajor
Ġre ally
com m
Ġeff ic
Ġdev ice
ĠComp any
E x
g g
y ing
Ġs itu
Ġc al
Ġb enef
ur ch
Ġeng ine
O S
U n
Ġ el
ĠA t
ĠTe chnology
I P
w e
Ġc ult
Ġc enter
Ġp ri
Ġh old
ĠA ust
iv ed
Ġcommun ic
ain t
ure d
Ġrequire d
Ġcond itions
Ġc opy
Ġl ot
us ed
ys is
ruct ion
Ġf uture
Ġm ess
im um
ĠM e
Ġ1 00
ip edia
Ġres erv
ik ipedia
ĠâĢ ľ
Ġmod ern
Ġbuild ing
er gy
Ġd am
st er
olut ion
Ġstand ard
U s
s c
Ġp ark
Ġd ocu
Ġ1 3
so ft
zh ou
Ġt alk
Ġf av
Ġp ool
Ġcour se
Ġ es
Ġ ident
ab or
Ġqu ick
Ġind ivid
v ious
Ġs ide
ĠH ong
ĠE d
ra w
Ġphot os
Ġs ure
it her
Ġp ack
id es
Ġst ore
ard en
ĠP ort
ir t
ĠL oc
ain ed
Ġwork ing
Ġbath room
y pe
Ġre ason
ur g
Ġen ergy
Ġam ong
Ġresult s
Ġchar act
n et
Ġs ocial
ĠR uss
ĠW indows
og raph
Ġme an
E D
M ore
Ġb ar
el t
ĠC or
ĠP riv
ĠI nt
Ġper fect
il t
ĠA ut
Ad d
Ġrese arch
n ow
Ġt reat
ent ion
Ġcons ider
Ġob ject
h ib
i od
s p
Ġf erry
Ġl ive
un e
. [
Ġs ize
Ġto day
ĠA ss
use um
ĠSh anghai
Ġterm s
Ġspec ific
a id
ĠL a
ĠN ational
Ġse nd
ip s
ĠY ork
ĠFr ance
Ġest ab
2 3
C ont
c ome
Ġor ig
qu are
ill s
Ġaut hor
Ġthough t
Ġpop ular
' ll
y d
or age
Ġf our
Ġare as
Ġ5 0
Ġsp ace
pr ise
Ġey es
Ġdes k
Ġconn ect
o ver
et er
ĠD is
Ġ1 1
Ġvar ious
Ġdispl ay
he m
il i
Ġv ol
Ġdown load
ĠS ite
ch ange
ĠH ouse
ĠV ide
end ed
Ġet c
ĠF in
Ġdo or
Th at
Ġem ail
Ġask ed
Ġc amp
Ġin nov
us h
Ġcon c
if ul
ĠK ong
Ġte xt
Ġadd ition
Ġcall ed
aur ant
ij ing
Ġunt il
T D
Ġp ast
Ġm om
ent ly
ĠB u
Ġmet hod
ĠUS D
2 4
Ġme ans
tern al
part ments
Ġlook ing
Ġfun ction
Ġindivid ual
ĠRe g
land s
Ġexp ress
G u
ar ly
Ġl ic
ĠI m
Ġan sw
op e
i ol
Ġs ingle
Ġm ar
im ate
ĠT erm
au gh
Ġcontin u
an a
Ġl arg
Ġg ame
The se
O ther
Ġc ut
ent al
Ġab ove
Ġup d
Ġoff ic
Ġrequ est
A D
B y
e es
r ight
Ġt able
ap t
port s
How ever
Ġm ove
Ġsh are
ipp ed
A fter
h am
m it
r am
Ġ Â
Ġw ind
ag er
un ity
art h
ĠE lect
ĠN ot
Ġsolut ion
Ġcho ose
al f
Ġl oss
Ġn atural
Ġcan not
ell ent
anc es
Ġbel ow
Ġreview s
A M
i ents
Ġa ch
Ġcons um
ĠInd ust
Ġcond ition
ĠP al
ra el
ĠWe bsite
Ġac ross
Ġdel iver
r ing
he ck
ĠD ownload
ĠW ith
Ġse ver
ĠIn c
Ġprot ection
D ownload
a o
u ly
Ġt re
er a
Ġm aking
as k
ir m
Ġens ure
6 0
I ON
r ant
at ors
is es
Ġm usic
ĠP e
Ġpro du
Ġsh ort
le g
ĠF erries
Ġcomp et
cl us
Ġpos ition
E L
Ġc ode
Ġp ot
Ġto get
ul l
Ġcom fort
Ġwh y
Ġwho le
row s
Ġtoget her
Ġs chool
Ġm obile
Ġl iving
Ġstr ong
2 7
Ġst ep
Ġinter est
Ġrep resent
ĠMicro soft
B e
Ġm ind
Ġto t
ĠB o
Ġavail ability
Ġbr ing
Ġdesign ed
OR D
Ġpartic ular
' m
m ber
Ġ x
Ġth ing
ĠI N
Ġ201 4
I D
en n
al t
le y
Ġst at
Ġr ate
I s
p ress
it ing
Ġl ay
Ġg ot
ĠN orth
Ġcomp on
ĠSt ation
Ġprot ect
opp ing
N ET
m ost
es e
ĠM od
ul es
ĠG re
em pl
pp lier
Ġcomm on
Ġdid n
ĠAd d
ĠIs rael
Ġpur ch
Ġrece ive
read y
Ġs ound
if t
Ġk itchen
? âĢĿ
c el
ou l
The n
Ġr isk
um e
Ġacc ording
Ġstud ents
D F
i ans
s ite
or g
Ġf urther
ch an
Ġle arn
ip le
ron ics
Ġbel ieve
l in
Ġt our
Ġe vent
am b
Ġmod el
Ġair port
Ġed uc
p ose
on y
Ġm illion
ill a
iv ity
Ġse arch
Ġne cess
Ġper iod
Ġkn own
Ġ19 9
ron ic
e lect
Ġm edia
Ġd ate
ĠI f
Ġun ique
ĠDe velop
Ġmon itor
Ġgovern ment
u an
Ġg iven
Ġpl atform
Re ad
Ġresp ect
Ġful ly
ec ut
cri pt
Ġopt ions
Ġbeaut iful
e xt
Ġo pport
Ġm ot
ĠA cc
Ġnot e
Ġse par
res h
ĠV al
Ġar ch
Ġactiv ities
D es
a ult
b ook
i ang
Ġf oc
ĠC al
Ġg irl
ĠL ORD
og n
Ġacc ur
Ġim age
M y
Ġc ook
Ġd igital
id ge
Ġg lobal
ĠH igh
ak en
Ġres ources
ĠCont ent
Ġdev ices
2 2
it ect
Ġh app
ĠA f
Ġbe gan
are nt
Ġapp ear
Ġpart s
ĠSe c
Ġmem bers
g round
Ġs ol
Ġl ater
ĠM arket
Ġan n
em s
EN T
Ġhist ory
ĠKing dom
B l
E M
y l
Ġw in
Ġl at
ond on
Ġhand s
N ew
Y our
o ice
Ġof ten
op s
Ġother s
Ġcl aim
Ġrespons ible
Ġtyp es
d oor
Ġst orage
Ġal ready
ist ance
Ġspe ed
Ġpol icy
ĠMan agement
Ġmonth s
Ġanal ysis
t ies
u le
z er
Ġs ites
ĠM et
for d
ward s
ĠGerm any
Ġt ax
er ed
Ġs creen
Ġs ales
ol y
ĠB usiness
Ġen c
ib r
Ġlangu age
Ġmom ent
Ġd ue
ok ing
ub e
Ġpre c
Ġrec ord
Ġprof ile
Ġcho ice
Ġeconom ic
med i
Ġpress ure
3 3
O ne
c er
c hes
Ġbe gin
ĠD ata
ĠR ed
ĠE m
Ġk ing
lo od
Ġ4 0
Ġfin ancial
Ġhe av
Ġsu per
Ġatt ract
ĠTr ans
eng er
Pro duct
Ġbre akfast
Su pplier
O L
w ise
at ory
Ġm oney
ĠS em
Ġal ong
Ġv ia
ĠW est
Ġinclud es
Ġrel ations
Ġtrans fer
ĠBe ijing
co ver
Ġdirect ly
Ġsaf ety
Ġjo bs
idd le
ĠAust ral
E n
L oc
Ġs ent
Ġp ub
ot s
Ġapp ly
Ġpart ies
Ġsa w
ĠY our
Ġind e
Ġam ount
ful ly
chnolog ies
ĠAs ia
2 1
v al
Ġc irc
is on
st ar
ĠM ap
Ġv iol
Ġpart ners
olid ay
i res
o id
Ġo il
Ġw atch
Ġm ount
ic ult
Ġyou ng
Ġspe ak
Ġfl at
ĠRes ort
Ġbo x
Ġtool s
v is
Ġf ast
ĠM ac
cre t
Ġser ies
C on
i ability
Ġa ud
it ation
el come
ĠA nt
ĠB ed
Ġr ates
itt en
Ġco ver
Ġfriend s
D e
c hed
Ġs ource
Ġw all
ar ant
Ġn ational
ĠL ondon
un ic
em b
Ġad min
Ġ. ..
rough t
min ute
Ġelect ric
Ġgener al
ĠCent re
Ġmeas ure
Ġhig her
Ġwhe ther
Ġfav or
B ook
C l
Ġf ar
ĠS m
Ġst aff
Ġan g
ĠPro f
vent ion
Ġchang es
Ġcharact er
A v
Q u
m e
ar a
Ġh our
Ġe ver
Ġall ows
Ġun to
ren ch
aur ants
ĠPol icy
Ġexc ellent
2 6
k e
l im
o on
Ġm atter
Ġd one
ĠL TD
ast ic
Ġpl aces
ener al
Ġcre d
Ġcent re
Ġpartic ip
Ġstre ng
m itted
s el
Ġw a
Ġp ict
Ġprocess ing
Ġmain tain
Ġsub ject
ĠCent ral
T R
m ark
p ect
Ġ +
Ġs il
Ġc ell
ou ch
Ġh aving
Ġy et
ell ing
Ġ201 5
ĠâĢ Ķ
Ġconf ig
icon duct
N ow
R es
it ness
Ġm akes
ur ance
ĠR om
ĠSt ate
Ġimp lement
Ġprofess ional
2 8
A P
P h
m ission
u el
at ically
Ġb al
Ġb us
Ġl a
ol l
ĠP C
ĠP er
ĠH is
Ġan t
Ġ2 7
ie f
Ġknow ledge
Ġpass word
Ġopt im
ateg ory
N ot
a ul
c le
o le
ers on
Ġcon ven
Ġpr int
Ġtrans port
Ġpur pose
Ġsim ple
j ust
Ġs un
Ġw ide
ĠM useum
Ġhe ld
ĠD r
ff ee
Ġreg ard
IN G
Ġfore ign
c rib
m a
Ġa ge
Ġs av
Ġf ail
ic ated
ig ation
ĠP re
Ġde al
I L
er ve
Ġc reat
ro du
ag ed
âĢ Ķ
pt ember
Ġset t
Ġvide os
Ġcost s
Ġsaf e
Ġleg al
ĠTerm s
Ġtot al
- -
i very
s u
ar i
Ġb ank
ac hed
ang zhou
Ġtr ade
og le
Ġwork s
Ġent ire
Ġincre ase
Ġlim ited
ĠProduct s
p re
Ġf ire
as ing
Ġre pl
Ġre comm
Ġe ither
ĠM ay
Ġcom es
op eration
Ġnot ice
Ġreg ul
ĠSo ftware
Ġsever al
P l
g o
h old
l ight
Ġs elf
Ġd riv
il ar
ĠA S
Ġpro p
Ġkn ew
Wh y
Ġtechn ical
b it
o o
on a
il it
Ġle ast
Ġc am
et h
Ġtrans l
Ġprovid ing
Ġass oci
Ġequ ipped
por ate
ĠAmeric an
Ġproble m
9 9
he st
ĠF ound
ok e
hen s
ĠK ore
Ġdes cription
itt ing
Ġconn ection
Ġnecess ary
Ġlat est
z z
Ġm ag
ac ed
ĠB re
ĠD ist
Ġsupp ly
pecial ly
Ġflo or
o ber
re am
Ġb rows
ĠM ed
Ġon ce
ect or
Ġsu ff
Ġother wise
Ġoper ating
ĠPar is
3 6
F ind
Ġm ax
Ġg round
Ġst ation
ĠSt ud
Ġrec ogn
Ġdif f
" .
u a
Ġs um
Ġs ave
Ġf ive
Ġf lex
Ġto ld
ĠM on
ĠE l
Ġv ersion
Ġnot hing
Ġcont ract
Ġ201 8
Ġph ys
Ġtick et
C O
H P
V iew
s creen
Ġ #
Ġ err
it ut
Ġp le
ic a
ur s
ri ver
Ġwh ite
Ġde pend
Ġtr y
Ġch all
ra ft
Ġide al
Ġeduc ation
ĠAf ric
3 5
i am
r ast
Ġm or
Ġde ep
Ġch ann
ĠSt e
Ġ201 2
olog y
Ġph one
Ġdevelop ed
ĠAr t
Ġoffer ing
Ġlead ing
Ġdisc uss
oh n
b on
b ed
it ch
Ġf ather
ĠA c
Ġst op
Ġst ructure
ĠD irect
ab ly
Ġtr ue
Ġim port
Ġ201 7
Ġrel ax
Ġproper ties
Ġste el
ĠRep ublic
Ġorig inal
empl ate
7 0
c ing
o x
Ġthe r
Ġto wn
ĠT w
ĠB est
ap pen
os ed
Ġdo ing
Ġhim self
Ġwant ed
ĠCan ada
Ġgrow th
Ġlo ad
I M
b ased
i ation
er al
re ct
Ġl ost
am ic
ĠD ep
ĠR est
ĠW ikipedia
Ġse a
ĠSe ptember
Ġindust rial
3 2
R O
g u
v ing
Ġ z
Ġm ark
Ġh appen
il le
ut h
ce ed
ap s
Ġme chan
Ġout side
Ġadd itional
Ġreg ion
Ġreg ister
Ġstand ards
Ġvar iety
Ġwr itten
Ġprom ot
Ġrent al
Ġpri or
9 0
r ay
Ġa f
Ġs ays
am ent
ĠM al
Ġbe ach
ĠO ct
Ġim medi
Ġro ad
Ġadv ant
ux ury
Ġword s
T e
p g
Ġc ause
ĠS earch
am a
ĠB y
ap ore
Ġtr aining
Ġbr and
ĠNew s
ĠUs er
Ġdom ain
ĠDevelop ment
h ic
Ġf urn
om b
et t
Ġcomm er
Ġcomple x
Ġdist ribut
Ġinvest ment
Ġach ieve
g ed
n a
ä ¸
er c
ing apore
ar get
ĠA ug
Ġde ath
Ġcl oud
Ġsp irit
Ġdet erm
Ġoper ation
Ġcap ac
TM L
Ġlevel s
ĠGerm an
Ġquick ly
Ġoffic ial
Ġpot ential
A b
Ġs le
ĠL og
ear n
ens ion
Ġpr ices
Ġpr inc
ĠPro t
ĠCont act
o om
Ġo ption
Ġc a
Ġm other
Ġin it
ro id
Ġh ot
Ġre ach
em ark
ĠIn ter
Ġany thing
Ġpre vious
ĠOn line
ĠSem iconduct
Ġc e
Ġf a
as er
ĠS ant
un ch
Ġal most
ĠO ld
Ġevery thing
Ġmem ory
Ġturn ed
Ġsitu ation
Ġcompon ents
' ve
F rom
b our
j pg
Ġf oot
Ġp ain
Ġe arth
ĠB ud
ĠN e
Ġneed ed
Ġprocess es
Ġwom en
C D
l ies
Ã ©
Ġb lood
ĠC as
ĠR el
Ġse x
ire less
iz ing
Ġ6 0
air s
Ġatt ack
Ġopen ed
irt ual
H ome
k s
Ġa verage
is c
Ġf und
ĠH ow
Ġ2 3
ew ork
iv al
ĠO ut
Ġad vert
Ġinclud ed
Ġbu ilt
Ġfun ct
Ġsign ific
lev ant
! "
S ome
Ġm ass
Ġre d
id ed
Ġdocu ment
A pp
i ency
Ġt aken
Ġre fer
ĠI D
um b
Ġoff ice
Ġview s
Ġsur face
Ġproject s
ĠPriv acy
sel ves
O r
b ack
l er
Ġh alf
ĠI I
ĠF rench
ant ly
ill ed
ist r
duct ion
ĠRe ad
eng th
ĠAmeric a
Ġfoc us
R E
S S
t ime
it able
Ġw on
Ġb ott
Ġd raw
ay er
ĠB al
ĠB ut
Ġst yle
Ġ2 2
Ġen ough
Ġsim ilar
Ġrece ived
g er
h ouse
Ġl ik
ĠT our
ĠF ore
ĠE st
ĠE ast
res ident
Ġout door
ens ive
Ġexper i
Ġcre ated
Ġob tain
30 3
Ġsay ing
Ġtrad itional
Ġes pecially
Ġcondition ing
e ad
Â ©
Ġs in
Ġin ternet
Ġh air
Ġn ature
Ġg ave
ĠI T
ad es
ĠH ar
Ġcom ing
ore d
ĠW ar
Ġse en
Ġcont roll
Ġco operation
rit ing
ph one
Ġeas ily
Ġcommun ity
Ġdem and
ĠSer ver
Ġemploy ees
clus ive
7 4
C heck
g ress
an ch
Ġf elt
Ġd ry
Ġg arden
ĠB ook
Ġor d
ist ic
Ġar riv
ĠPro v
iss ions
Ġbu y
Ġresp ond
Ġcontin ue
Ġproble ms
Ġwom an
Ġiss ues
Ġtreat ment
ĠAustral ia
Ġdiff icult
ĠOct ober
C H
d en
p ly
Ġc rit
ur b
ur ation
ĠM ach
ag ue
ĠF rom
Ġex change
ĠN ame
Ġne g
Ġ201 3
Ġhow ever
Ġgr aph
Ġcle ar
Ġdam age
S earch
W ell
c ast
Ġ ut
an ish
Ġb it
ĠI P
ĠB id
ĠL ine
ĠF ile
ill ing
ail ed
hen g
Ġte chnologies
Ġmem ber
Ġhist or
Ġlarg est
ĠGre en
Ġcred it
s on
y p
Ġc able
Ġg old
ĠP ower
Ġst ars
ail y
th ough
ven ue
Ġthere fore
Ġpe ace
âĤ¬ âĢĿ
Ġsm art
Ġdist rict
Ġenter prise
Ġautom atically
Ġmanufact uring
Ġquest ion
Ġcommer cial
7 5
es tern
is ions
ĠS ingapore
ol f
Ġg as
Ġg ames
ĠM r
Ġbe com
ĠG e
op h
ĠW ord
ree ment
Ġpl ant
Ġstart ed
ten ance
Ġredu ce
Ġarch itect
M P
h our
Ġl ower
Ġde cl
Ġtr ust
Ġle ave
pl es
ra z
ĠRe view
Ġcol l
Ġbec ame
Ġpol it
Ġcap ital
Ġexist ing
Ġeffic ient
I nd
r ical
s et
v a
al ian
ĠI S
ĠT or
ĠG old
Ġyour self
ĠO ther
Ġcont ain
ov ed
Ġcol or
Ġrest aurant
Ġpriv acy
Ġtest ing
Ġdr ink
ĠEurope an
Ġinde pend
3 4
Ġt im
Ġt aking
in ations
Ġre levant
ĠA re
ĠM il
ĠD el
Ġv oice
Ġse em
ip les
Ġnew s
ĠRe al
ĠGo ogle
Ġquest ions
f r
w ide
Ġ iron
or ry
Ġp an
ic o
Ġe arly
ĠB el
ag ram
her n
ĠO ne
Ġch arg
Ġso on
Ġqu ite
Ġhigh ly
Ġgu arant
Ġmarket ing
ĠInd ia
Ġev ents
ĠWh at
Ġgre ater
Ġintegr ated
Ġcommunic ation
Ġwind ow
C lick
Ġ ver
Ġ æķ°æį®è¡¨
in ate
en a
ĠC am
et ers
am ework
Ġst ar
Ġad just
Ġcomm and
Ġem erg
Ġact ion
Ġinv ol
ĠSp irit
Ġdist ance
Ġed it
Ġread y
Ġselect ion
bo ard
Ġgl ass
ĠRuss ia
Av g
ĠAug ust
g es
Ġ ]
Ġt arget
Ġc ross
Ġfor ward
ay a
Ġhe at
all s
ĠO N
ud e
ĠJ an
Ġval ues
ipp ing
Ġmed ical
Ġrelations hip
1 00
ĠM os
ĠB ro
Ġan aly
qu e
ĠW ork
Ġtr ack
ĠSu ites
Ġcomple t
Ġpass enger
Ġadv anced
Ġlaw s
ĠAg reement
ĠWi Fi
Ġestab lished
Ġimmedi ately
A re
S T
l u
an ia
ess ion
ap est
Ġ2 8
ist ry
Ġr a
ĠO f
ru ments
Ġdes crib
Ġsec ure
ĠBl ack
rop ri
Ġmeet ing
Ġmult iple
g ing
u ary
in ary
Ġw id
ar ning
Ġb ase
Ġb rought
ĠP ass
ĠB ang
Ġus es
ĠJ une
Ġim ages
Ġthrough out
ĠEx press
Ġbl ock
Ġcor rect
ĠPh ot
ĠEng ine
Ġlead ers
ĠOff ice
ĠVide o
Ġfa ith
P r
e al
re g
it ute
Ġd ark
ĠC ap
ĠC amp
ac her
ĠL im
Ġ2 6
Ġex am
Ġr ad
Ġr out
ell ig
ach ing
Ġar m
ĠSh ow
ĠIs land
Ġpay ment
ĠHost el
Ġcult ure
Cont act
2 9
S ee
on se
Ġs ection
Ġp arent
ar ies
Ġh arm
ĠS chool
Ġth ous
Ġre v
ur t
ĠP lease
um n
ĠU se
iv il
Ġtr uth
du c
Ġab s
Ġso le
Ġdis e
Ġfe ed
Ġpre p
Ġche m
Ġlong er
Ġcapac ity
g en
s k
Ġf ine
Ġp ath
ag s
ill age
Ġde le
ĠJ uly
Ġacc ord
ond er
row n
oy al
Ġgood s
Ġconst ruction
Com p
ĠJapan ese
F e
T ER
c ont
Ġs on
Ġf ish
Ġb ad
Ġm er
ĠS il
ĠS aint
ĠS quare
ĠA ct
ĠG ree
Ġsu bs
Ġbut ton
Ġgu est
ĠGu est
Ġactiv ity
Ġorgan iz
Ġcook ies
ĠSemiconduct or
A cc
f ree
r id
w h
he ad
Ġw arm
Ġd ed
Ġd ouble
le ments
ĠB ank
Ġhe ard
Ġcon cept
ĠF erry
ĠG eneral
Ġde pos
se e
Ġsu gg
Ġj our
Ġ201 1
Ġmet res
AT ION
ĠAb out
Ġhapp y
ibr ary
v est
Ġc ases
Ġp aper
Ġl ab
ĠA P
ĠA ng
Ġfor ce
est ic
ĠL in
ĠV is
Ġro le
Ġdis cl
Ġeff ort
Ġval id
Ġfre qu
ĠEn ter
t ers
Ġc ou
Ġw ood
ĠC ount
ur er
ĠB ack
ĠR ights
Ġde ad
ĠJ ohn
Ġro ll
Ġar ticle
Ġinter face
Ġback ground
Ġdel ivery
Ġins p
und red
Ġinstall ation
hib ition
W here
b urg
r or
in ter
Ġs us
en ing
ou b
Ġh on
ĠC ond
ĠP resident
Ġcon duct
Ġan im
Ġtr ain
ĠO pen
Th ank
Ġstud y
ĠOr gan
ĠIndust ry
Ġfavor ite
Ġmax imum
o oth
Ġt rip
Ġf ix
Ġm icro
st r
id ing
ĠA v
ac hes
ĠB ay
ĠO ur
Ġimp act
Ġexper t
Ġadv ance
ĠPh il
Ġtrad emark
Ġmen u
Ġbeh ind
now ledge
Ġpurch ase
Ġstreng th
Ġbrows er
rast ructure
" ,
5 5
F ile
S p
y a
Ġ ess
Ġp ie
ĠC our
ow nt
ĠA ccess
ut or
ĠT ai
ĠT ype
ak er
Ġsh opping
Ġch arge
av es
Ġj oint
Ġdis p
Ġits elf
ild ing
Ġinter act
Ġexp ect
Ġbel ie
gy pt
Ġcent ral
Ġgroup s
ĠGr and
vers e
Ġpark ing
ĠDist rict
Ġmor ning
C an
m l
r ance
t op
it er
it le
Ġp ick
Ġd at
et te
ac he
ig er
ĠD ub
ri a
ĠL ive
Ġun it
Ġdis cover
Ġpre vent
Ġreg istration
bo x
Ġplan ning
Ġve hic
Ġbenef its
Ġlic ense
Ġopport unity
L e
P re
c il
Ġt err
Ġt ask
in i
an i
ĠP ost
ĠT est
ĠM B
ĠM el
ir th
ri e
ĠV ia
Ġapp ropri
Ġun ivers
Ġind ic
ĠDe v
ĠAr ch
Ġbl ack
ĠMan ager
Ġrun ning
Ġeffic iency
4 5
E ach
o es
Ġo bs
ic ies
ĠS un
ĠC ast
ad em
Ġj ob
Ġrel iable
ict ion
Ġgre en
Ġmess age
Gu ests
ĠBre akfast
Ġaccord ance
F ree
M A
T S
re hens
at ives
Ġs ix
ad ing
Ġpro ced
ate gy
ail ing
Ġwe ight
ĠSt and
Ġ201 0
Ġpre fer
ĠâĢ ¢
Ġav oid
Re g
ĠSe a
Ġshow s
oun cil
Ġcomfort able
I G
M S
P S
b or
w an
Ġt akes
Ġs ale
Ġo p
Ġd aily
ĠS on
ĠC ustom
Ġl abor
ĠR et
ĠE gypt
Ġde g
Ġr ound
se qu
ĠTe x
ident ial
ĠSp ain
Ġsim ply
Ġpoint s
ĠQu ick
Ġpub lished
Ġrecomm end
ĠKore a
E O
x x
Ġt ouch
at al
ce ption
ĠL aw
ĠE qu
oc iety
ĠU N
Ġen h
Ġ3 5
Ġro b
Ġint rodu
Ġout put
ru pt
bs ites
anc ing
Ġadd ed
Ġdoes n
Ġins urance
Ġext rem
ec ause
Ġsw e
ĠPart y
Ġconc ern
Ġcontinu ous
Ġcut ting
Ġbegin ning
4 9
Ġt en
Ġo pp
ar ter
Ġb ab
Ġh undred
ĠS ocial
ĠS pecial
Ġl if
ĠT op
ĠM ag
ĠH oly
ab ase
if orn
Ġv ers
ĠW ater
ust ain
um ber
ib er
Ġgr ant
Ġmet ers
Ġbre ak
Ġbook ing
Ġeffect ive
pos es
An y
Ġple as
Ġchall eng
B est
H is
O W
Y es
l ied
n y
Ġ ill
Ġs quare
an o
il ing
ĠS he
ĠS ub
ĠA C
ĠT ick
Ġhe ar
ĠH er
Ġtr aff
ĠJ ew
clud ing
Ġexper ts
Ġindust ries
ĠUS A
Ġconf irm
tain ment
Ġsk ills
Ġbro ad
Ġbas is
Ġdocu ments
ĠSec urity
Ġassoci ated
303 19
ĠTex as
iforn ia
A m
G o
L E
O ver
¿ ½
ï ¿½
Ġthe e
ĠC he
ĠA pr
ac ing
ĠT em
ag o
ag on
ĠD ay
ĠL ast
Ġ( $
ant ic
ail and
ru g
Ġmod els
Ġsc ient
Ġresp onse
Ġconn ected
Ġdec ision
Ġsens or
Ġdi am
Ġestab lish
Ġstep s
Ġstat us
ecut ive
7 7
A B
b ar
b all
m et
n am
s pe
u ff
at uring
Ġs low
Ġw ireless
Ġm outh
Ġy e
us es
ĠH im
ĠW hen
ell ite
ace book
ual ity
Ġfe et
ĠAr ab
Ġins ide
ĠCl ub
Ġbo ard
Ġselect ed
Ġorgan ization
Ġpract ice
Ġfil ter
Ġhig hest
Ar ticle
Ġerr or
ĠAfric a
3 1
3 8
O T
r ain
u ge
Ġs ym
Ġc ategory
Ġm at
Ġd iv
le ge
Ġh ope
ĠC ENT
ce mber
ab ilities
ĠG ames
ĠN et
ile t
Ġhelp s
Ġac qu
ĠSu per
Ġoper ations
Ġagree ment
Ġcollect ion
Ġinstall ed
Ġwar rant
Ġcopy right
Ġconsider ed
H igh
u is
in ery
Ġc y
Ġh ous
ĠC ur
Ġl ines
ĠA partments
ac ious
Ġbe ar
Ġcon v
ĠL ight
Ġ2 9
Ġv ac
ĠN ow
res p
ĠV illa
Ġab ility
Ġj ud
olog ical
Ġmod e
Ġmain tenance
Ġmarket s
Ġob l
Ġsur round
TM s
Ġmov ed
ĠSk ip
Ġbenef it
ĠVide os
Ġaccur ate
Ġphys ical
Ġchann els
4 6
T emplate
ĠS T
Ġth ou
ĠA N
im ming
ad y
ĠT own
ĠB rit
ĠL ED
Ġit ems
ĠN etwork
ĠU p
ĠO pt
Ġch urch
ĠV e
Ġcomp rehens
ĠJ er
ĠPro gram
Ġrel ig
Ġinter ested
Ġcons ist
Ġcons ult
Ġmet al
Ġoffer ed
Ġpol icies
Ġfam ous
ĠAcc ount
erson al
Ġtraff ic
J ust
O U
x y
en ities
Ġp ump
il ed
Ġe at
ig ure
ĠP ack
ad u
ĠM ad
ĠB as
ĠL ist
em pt
ia h
ĠSt r
ĠSt at
Ġpart ner
Ġco ffee
ĠPr ice
Ġaff ect
Ġbas ic
Ġengine ering
ĠRuss ian
Ġchem ical
Ġappropri ate
. )
H ere
L earn
R ed
h ood
m m
w ork
Ġt er
er ous
re l
Ġs n
or se
it ure
Ġw ays
as c
ĠS al
ĠS ol
et ary
ĠP HP
ad o
Ġst ock
are st
ĠV ol
Ġle arning
Ġcont ains
Ġso ft
ens es
ough t
Ġ8 0
ĠMan ufact
Ġpower ful
Ġlink s
Ġtick ets
ograph y
Ġtre nd
Ġmonitor ing
Ġfunct ions
I nt
i os
m en
w here
Ġ ult
Ġs em
Ġs ell
is co
Ġf all
Ġf ell
Ġf uck
Ġb reat
ĠS im
Ġl ength
ĠB er
Ġst ory
est ions
un t
ĠG ame
Ġus ually
oc r
Ġtr av
Ġany one
Ġrem ove
Ġbl og
ĠAn al
Ġmeas ures
UR Y
Ġupd ate
) ;
0 8
6 5
B u
O ff
w ood
Ġb ur
as y
ĠS am
ir a
Ġal one
Ġr ules
Ġim m
ĠThe re
Ġfe es
Ġexp and
Ġform at
Ġcent ury
Ġvisit ors
ĠInst agram
ĠSer ies
Ġenvironment al
Ġsat is
ĠHost els
ĠJan uary
ĠApr il
P DF
Q L
S e
U p
m al
v ille
Ġ å
Ġp ow
ar ily
Ġm iddle
Ġth us
Ġn av
Ġn orm
Ġpro b
ĠD av
âĢ ĵ
ĠCh urch
ĠUn ion
Ġact ive
Ġworld wide
Ġsee k
ĠHe alth
ĠIs lands
Ġcap t
Ġelect ronic
Ġaccept ed
Ġinnov ative
Ġsett ings
E very
I A
a res
b ru
g ar
Ġw ish
Ġd ining
ct or
am ily
ĠM ont
ĠH D
ap ers
for ce
ast e
ast s
Ġman age
Ġcl imate
Ġcl ients
ĠTh ailand
Ġrec ent
az a
Ġprogram s
att le
ĠLoc ation
Ġsepar ate
ĠMarket ing
Ġcomplet ely
B ecause
I F
U se
h an
n ew
Ġs cre
ro s
Ġh um
ap id
ĠG arden
ĠE nd
ĠE conom
Ġsh ower
oc ol
ove mber
ĠDe cember
Ġcar ry
ĠAd min
ĠSp anish
ĠCl ass
Ġinf rastructure
Ġphot o
Ġref lect
Ġide a
Ġflow ers
Ġregister ed
ĠCENT URY
P ress
c ul
x im
Ġc ry
al u
el lect
Ġl au
am ing
ĠM arch
ter m
ver ter
ĠH el
ĠR ome
os ing
ĠG reat
Ġsh ipping
Ġcan cer
Ġper cent
Ġuse ful
Ġ5 00
Ġpr im
Ġinst itut
tic les
Ġdec or
Ġincre asing
Ġhost els
Ġfriend ly
Ġsens ors
Ġmot or
Ġconven ient
ä¸ Ń
Ġcomprehens ive
C o
b and
z hen
Â °
Ġc old
Ġm m
ĠC le
ĠC ert
Ġre le
ĠD rive
ĠL ake
ĠR ad
ĠG ood
Ġex ternal
Ġrem ember
Ġ200 8
Ġgener ation
Ġsw itch
Ġautom atic
Ġadvant age
Ġsle ep
Ġpolit ical
3 7
6 4
8 5
I I
c her
n ce
t r
he t
Ġp ul
Ġin form
ro duction
Ġre lease
id a
us ion
Ġsh ared
lic ation
Ġar r
Ġrem ote
ĠTr avel
ĠFr amework
Ġpur poses
Ġrest aurants
Ġeffect s
Ġpost ed
Ġwr ong
Ġeconom y
Ġclean ing
ĠPe ople
ilit ary
Ġcam era
Ġindepend ent
Ġdepos it
Ġess ential
M e
M ost
c ond
f ield
h t
i us
i ance
w ith
Ġa ward
Ġs al
Ġc ities
Ġw ife
Ġw riting
an ning
Ġf resh
Ġp ages
Ġb i
Ġm aster
ic ed
ĠS af
ĠC ouncil
ot ive
Ġe lements
us al
Ġg ives
ĠI C
ĠM ain
ĠD o
un a
un k
ĠE duc
Ġwh om
Ġsh ut
ific ate
Wh ile
ren cy
Ġser ious
ĠIt alian
Ġnear by
Ġsub st
Ġdirect ion
Ġhard ware
Ġallow ed
Us age
ĠAut om
Ġansw er
Ġheav en
Ġmeasure ment
ĠDirect or
Ġdistribut ion
Ab out
6 9
D on
P C
P R
f a
Ġw eld
an z
Ġb oy
Ġm iss
ĠP ublic
ĠM ount
ĠG l
ore s
pp er
Ġwe bsites
Ġen able
ru it
Ġco ol
Ġcons ent
Ġbl ue
ĠSu pport
Ġext ra
Ġdef in
Ġwr ite
Ġaff ili
Ġappro ach
Ġsuccess ful
Ġmess ages
Ġded icated
U N
n ect
Ġt ried
Ġa partments
en ed
ĠC lick
Ġre ached
Ġl ed
ur ers
ĠA venue
ac le
ĠD et
un ities
Ġv irtual
ĠIn f
iz es
Ġ3 1
Ġun its
itt ee
Ġam enities
Ġtrans act
Ġreg ular
olut ions
rib ute
Ġprot ected
oun ter
Ġmult i
Ġgrow ing
Ġfil m
Ġocc ur
ĠPriv ate
Ġmethod s
ĠDep art
3 9
8 8
L et
L td
k a
w ikipedia
re w
it zer
Ġw ild
Ġb all
Ġin put
Ġd yn
Ġh oliday
om en
ĠS at
ĠS ur
ĠC ons
ĠP an
ad or
ĠM edia
ĠH u
ĠH TML
ĠL o
ab it
all ery
hen zhen
Ġen ables
Ġpl aced
ĠPro ject
Ġmod ify
âĤ¬ ï¿½
Ġexp ected
con y
Ġsur ve
Ġfin al
Ġmach ines
Ġstr ateg
Ġbed room
Ġpop ulation
ĠWh ite
ze ch
Ġinnov ation
ĠÂ »
Ġadmin istr
ĠSant a
ĠAre a
Ġorganiz ations
P art
S ince
c a
e v
i en
i pe
Ġ =
it ter
Ġc op
Ġc ivil
ing er
Ġn or
ĠP op
ĠP DF
ĠM ot
ir ing
ĠR em
ĠF re
Ġde als
Ġr ub
um in
ear s
ell o
Ġint ellig
Ġact ually
Ġ9 0
Ġatt ention
Ġevery one
ĠTr ade
Ġ200 9
por ary
Ġincre ased
atter y
Ġdom estic
vis or
emb ly
Ġcoll abor
4 2
O M
a ud
e ed
h ol
Ġ ç
ar ian
as ons
Ġl ives
ĠA D
ĠG et
ĠW estern
Ġcomp li
ĠK ey
Ġres olution
ign ed
Ġsp acious
ĠGu angzhou
Ġstr ategy
Ġlist ed
Ġev idence
Al so
Ġrespons ibility
ĠBu ilding
bour ne
H E
L ess
O D
R oom
l a
n own
Ã ¼
æ ĸ
Ġa im
in cluding
Ġf itness
al ing
Ġin ternal
ic ient
as hing
ĠS pe
ĠC y
ĠC ult
id el
im ages
ĠT ur
Ġst ood
ĠH ist
ĠF acebook
ĠE r
Ġex erc
Ġr ather
Ġqu al
Ġdet ailed
pr ises
az ing
ĠFr anc
ĠAnd roid
Ġide as
Ġbro ther
Ġclos ed
ĠPort ug
raz il
ĠOrgan ization
ownt own
V D
c he
k ey
Ġs old
Ġs ense
or ing
nd ry
Ġc ast
Ġf erries
al a
ar ium
Ġm ix
ol a
ĠT ool
ag n
ĠL at
ĠE mail
ĠN ovember
ud get
Ġthem selves
ĠPro cess
Ġfl u
Ġfollow ed
ipp o
por ation
ĠPr ague
Ġinf lu
ĠInst ruments
Ġflow er
Ġunderstand ing
Ġmov ing
Ġbeh av
Ġel se
Ġreserv ation
Add ress
Ġant i
Ġsum mer
ĠEngine ering
4 1
5 00
L ist
N ote
d ed
f ol
g age
i ers
m as
m ore
n al
p at
r an
z a
Å ĵ
Ġ âĤ¬
al le
Ġto wards
ro ad
am ed
Ġpro gress
ab led
ĠF ed
ĠF low
Ġr ing
ĠU K
Ġsu itable
ang es
ĠJ o
ĠSt ore
av en
ult s
Ġte a
Ġserv ed
Ġsp read
Ġsome one
iqu id
ĠCon vention
Ġdisc ount
Ġchang ed
ĠFe ature
yd ney
Ġcamp site
cel ona
elect ronics
Ġcirc um
Ġpict ure
Ġregard ing
ĠAS P
ĠRest aurant
Ġbecom es
Ġparent s
ellect ual
6 6
E ven
M B
S elect
V is
e ff
p ic
t le
Ã ¡
Ġc ock
Ġm is
Ġd im
ro y
om s
il ies
st on
Ġn ames
Ġe ar
ĠA M
ĠL ong
ĠR iver
Ġex cept
Ġsh own
Ġgo al
Ġqu iet
Ġpre par
Ġrel iability
Ġdevelop ing
Ġbusiness es
Ġget ting
Ġweek s
Ġes c
Ġmean ing
Ġprodu ce
Ġopport unities
Ġpict ures
ĠTai wan
' d
A ut
E ng
i ant
t hen
Ġ icon
er ate
Ġw onder
is ation
Ġb irth
ĠC D
Ġg e
ĠP aul
ĠM o
ĠM ax
ĠD en
ri f
ĠF ood
Ġsu ite
Ġtr ying
ial og
Ġcont ribut
ĠSt ar
Ġ3 00
Ġres istance
Ġcl ient
Ġmy self
Ch ina
Ġbr ight
ĠAr ts
Ġapplic able
ĠSu ite
ĠQ ue
Ġdec ided
Ġtrad ing
vern ment
ĠComm unity
Ġprom ote
Ġey e
ĠCal ifornia
Ġsignific ant
C E
H ippo
s m
u ed
Ġ ?
Ġt al
Ġf ight
Ġp en
Ġm atch
ĠS TM
ĠC zech
ĠT utor
ĠH uman
ĠL ink
Ġ( @
ĠF ire
Ġwh ose
Ġwe ather
av a
ik i
pl ace
Ġspe nd
enc ed
enc ies
ĠCont rol
Ġenter ed
Ġwalk ing
Ġcour t
Ġlim it
Ġdem on
ĠApp le
augh t
Ġcharacter istics
omb ia
ĠFile Hippo
ĠDav id
bru ary
usal em
itzer land
4 3
A G
B erry
I V
d am
n el
p oint
y ond
re c
Ġc ov
Ġm ention
Ġl uxury
ĠP at
ĠL CD
Ġv s
Ġr ich
ĠCh at
Ġu nd
ell ers
ans ion
lect ion
Ġ4 5
Ġinst ead
Ġev alu
Ġsk in
li ers
Ġlangu ages
Ġpar am
Ġinterest ing
Ġconfig uration
ĠEqu ipment
8 9
R M
g al
h u
ã Ģ
it iz
Ġc ore
Ġb ound
Ġd er
Ġd ied
ĠC ode
Ġis land
ĠF air
Ġv ul
Ġr apid
ail way
Ġ- -
Ġcomp ress
ĠCh ar
form ance
Ġro t
ord er
ber t
Ġfe e
Ġrequ ires
gr ade
ĠSe x
Ġgu ide
Ġset ting
Ġser ve
ĠPl ay
Ġown ers
ĠSp a
Ġsupport ed
Ġstud ent
ash ion
angu age
ĠSc ience
Ġlet ter
ĠAss oci
Ġaccur acy
Ġann oun
Ġgraph ics
Ġarchitect ure
cond ition
0 4
C C
O h
S c
S m
b u
g as
i i
k ok
l ines
m osp
o ff
t age
y e
Ġw at
Ġf air
Ġf uel
Ġp aid
ed d
Ġm id
Ġd ie
om es
ĠS M
ĠS ale
ĠC ong
Ġn ice
Ġg en
ĠT rip
ĠM em
os ition
Ġcom ment
Ġex port
Ġde b
Ġr at
Ġsh ape
Ġch at
Ġcomp at
Ġ3 2
Ġte le
Ġpre m
Ġpre t
ific ations
ob by
Ġrec o
icro electronics
Ġcor porate
Su per
Ġinc or
Ġpack aging
Ġrepl ace
Ġinit ial
resp ond
ĠJer usalem
Ġweld ing
ĠSTM icroelectronics
5 4
8 6
P E
S D
r is
y o
Ġa ware
Ġs oul
Ġf old
Ġf irm
Ġp et
ro te
ĠS ydney
Ġl iable
Ġl iability
Ġl aser
Ġfor mer
Ġbe yond
ĠB en
ĠB razil
Ġst ress
Ġcon ference
ĠF il
qu arium
ĠG lobal
ate ver
Ġex clusive
ĠO ver
Ġch ain
ind ing
end ing
Ġsc en
Ġsc ience
Ġatt empt
oun ge
40 4
Ġpat ent
Ġocc as
ĠIndust rial
ĠLim ited
Ġjour ney
ĠAng el
uis ine
5 9
X X
b l
u it
w in
Ġs ight
Ġs ports
or a
it ude
ĠC ON
Ġe leg
ac ific
Ġg ate
ĠP ress
am m
ĠB ible
ĠL ife
Ġal tern
ĠE v
ail able
out ique
ĠSt ock
Ġman ual
Ġsp ot
Ġcomm itted
Wh o
oth ing
Ġass ist
Ġrem ov
Ġvis ion
Ġed ge
por ter
ĠBl og
ĠBl ue
stand ing
lev ision
Ġsat ellite
ĠBar celona
Ġcomb ination
ĠSystem s
Ġvol ume
Ġclaim s
Ġfail ure
Ġarriv al
ĠReview s
ĠMil an
M an
m b
Ġs ustain
it ors
ed om
Ġm ilitary
ĠP eter
od es
os h
os ure
ĠF ort
if f
Ġsh ip
Ġse ason
ang ing
ide os
Ġapp oint
ish ing
part y
mer ce
Ġrem ain
ĠCon st
Ġcor respond
Ġreturn ed
Ġiss ue
Ġdriv ing
ĠMach ine
Acc ording
Ġchalleng es
Ġrele ased
Less on
Ġreco very
8 7
D et
L ook
P e
R C
b ur
c are
p s
on ia
Ġs olid
Ġs ociety
Ġc ru
Ġd river
Ġh yd
Ġth y
ot o
Ġl ate
ĠM art
ĠM aster
ĠD em
ri age
ri pt
ĠF irst
ĠF ather
Ġex act
Ġr ain
Ġat mosp
Ġk iss
ĠO per
ip al
ĠIn vest
ĠThe y
Ġte acher
ens ions
chn ical
Ġpers ons
Ġcol umn
Ġcomple ted
ĠPl aza
Ad min
ĠSw itzerland
Ġflex ibility
Ġprinc iples
Ġca used
Ġlik ely
Ġdat abase
Ġdiam ond
0 3
0 5
G et
L C
M any
c ol
l ation
p ite
at ively
Ġw rote
al d
ed it
ic row
ĠS ch
ĠC H
ĠP oint
ĠM iddle
Ġpro pos
ĠB C
if ically
Ġcom ments
ĠE N
Ġv illage
ĠN or
ard ens
ĠJ ust
ra ight
com ing
Ġprovid er
Ġcar s
Ġmin ute
Ġ200 7
19 9
ĠCon ference
aut hor
201 5
ĠAs ian
Ġreport s
ĠFe bruary
Ġobject s
ĠDis c
Ġconsum ption
Ġaud io
Ġdeg ree
æĸ ĩ
, âĢĿ
4 7
D r
O f
O pen
P G
U D
a e
a ign
Â »
er ia
or iz
Ġw is
Ġp al
al ed
Ġb orn
Ġd ress
Ġd rug
ĠS P
ĠS y
ĠS ales
ĠC ost
ĠM er
ĠM ex
ul ate
od ay
and a
Ġde ploy
Ġgo es
Ġne igh
Ġprov ision
Ġmin imum
ĠEx per
co very
ĠPl ace
ĠHe ad
ĠRes earch
Ġspec ified
Ġplay er
On ce
Ġstre et
Ġinc ome
Ġsitu ated
ĠCor poration
Ġbal cony
Ġflex ible
Ġadvert ising
Ġguarant ee
eal and
) :
0 2
F in
f riend
k y
p ng
Ġc ards
Ġw orth
Ġf aster
le br
Ġh osp
ent y
ĠS et
ur rent
Ġst one
ĠD igital
ĠR oyal
and y
Ġr ank
ell a
Ġover all
Ġreg ional
Ġprovid ers
Ġget s
Ġval ve
ĠZ ealand
Ġelect rical
ĠComm ittee
Ġpos itive
Al though
Ġintegr ation
Ġpres ence
Ġcult ural
ĠInt el
Ġlic ens
augh ter
Ġparticular ly
Des cription
ĠProf ile
ĠSte am
Ġenh ance
ĠBer lin
fol io
A Y
P ost
Ġ *
Ġt ree
in ner
re ate
it age
Ġw elcome
ent ary
ĠS um
Ġl amp
Ġn orth
ĠA p
ĠH ol
ĠD om
ri etary
and er
ist an
Ġde partment
ĠV er
ĠV en
Ġres erve
Ġapp s
ens ity
ont o
Ġthere of
ĠPro per
anc y
Ġinter ests
Ġact ual
Ġrec over
Ġass ess
Ġass istance
Ġhand le
Ġdiffer ence
Ġsub mit
IN D
Ġenter prises
Ġthink ing
Ġpract ical
Ġcommunic ations
Ġident ify
ĠFin land
Ġcontinu ed
Ġlarg er
Ġupd ated
Ġmove ment
En ter
Ġord ers
ĠBang kok
Ġthous and
ĠMel bourne
. '
0 9
C A
D is
O G
m on
o e
s y
Ġa ck
Ġs y
Ġs ector
it a
Ġc uisine
is ure
Ġf ear
Ġp oor
Ġb le
Ġb illion
Ġd rop
ĠS i
Ġre pe
Ġg one
ĠM ark
Ġst y
Ġst raight
ul ated
Ġpl astic
Ġacc om
Ġapp lied
ru ment
Ġprov isions
Ġimp ress
Ġcur rency
Ġstud ies
Ad visor
Ġfact ors
ĠPark ing
Ġmed ium
Ġcomb ined
Ġindividual s
Ġansw ered
ĠBo ard
Ġenc our
Qu ick
Ġtransport ation
Ġsav ed
ĠIS O
Ġinvol ved
Ġterr ace
ä¸Ń æĸĩ
ĠEduc ation
2 50
H er
I R
S ub
c ss
u j
in y
Ġs ources
en ge
ic ial
Ġd ream
Ġre ality
Ġre ference
ĠA fter
ĠM AC
ĠB i
ĠB ath
ĠH a
ĠL is
ĠW ashing
erv ed
ĠJ e
ĠK e
Ġad op
Ġman ner
Ġro ck
pl ay
ĠY ear
Ġwork ers
We b
les h
Ġfl or
Ġrem ains
ner gy
Ġmain ly
Ġoper ate
ĠGu ide
Ġrep air
Ġcor ner
Ġdef ault
Ġbed s
app y
Ġcurrent ly
Ġstate ment
ĠFl ore
Ġjo in
ĠAut hor
Bl ack
Ġattract ions
Ġmechan ism
Ġvehic le
Ġproced ures
Ġobl ig
ĠBrit ish
xim ately
Ġvul ner
icrow ave
4 8
C P
C ar
C ol
L og
M r
h aps
Ġt itle
at re
Ġb ag
Ġd ates
ro c
Ġh y
Ġe lement
Ġg iving
ĠT ime
ĠM ess
ir us
ĠB ig
ĠH all
ĠL as
pp ed
ect s
Ġtr uly
ĠO S
ĠCh ild
ĠK el
ib ration
Ġ3 3
Ġun less
Ġcl ub
Ġqu ant
Ġsp ring
Ġ7 5
Ġsupport s
Ġstart ing
Ġlead er
Ġsw imming
Ġwalk ed
af e
ĠInst itute
Ġfield s
Ġdest ination
Ġdam ages
Ġann ual
Ġwa it
Ġregul ations
Ġpan el
Ġdise ase
ĠLin ux
ĠCustom er
Ġscient ific
Ġnav igation
Ġcompli ance
ĠTrip Advisor
0 7
D S
H z
T O
g ment
j s
m y
Ġa w
Ġs ession
or row
Ġth reat
ĠP ay
ĠP rem
ĠM ov
ĠH oliday
ul a
ĠL ab
ĠR F
em ale
Ġex ecut
ĠN atural
Ġcomp ared
Ġpl ants
Ġres ort
Ġper mitted
ep ing
Ġpr ay
Ġco ast
Ġfin ally
Ġopen ing
opy right
ateg ories
Ġi P
opp ed
Ġdest inations
Ġreserv es
ĠPal ace
Ġaf ford
ĠBud d
Ġhistor ical
Ġseem ed
Ġdescrib ed
condition ed
Ġatmosp here
C ert
T op
b ody
k er
m issions
Ġs itting
Ġs ailing
or ia
Ġc er
Ġp o
ar io
Ġb udget
Ġto ward
Ġd oub
st en
ĠC ard
Ġre act
id i
ĠA lex
ig ration
ĠB a
Ġhe aring
Ġst age
Ġst ability
ri x
Ġsh ops
Ġle isure
Ġ3 4
Ġ3 6
cl ass
Ġag ents
Ġ4 8
Ġar ising
Ġsp a
ays ia
ĠDe c
Ġsc ript
Ġsm ooth
ĠEx p
ĠFr ank
Ġent ry
Ġimpro ved
Ġmanufact urers
Ġmed ic
Ġpack age
Ġcharact ers
Ġach ie
ĠProf ess
Ġhappen ed
Ġmechan ical
Ġfurn iture
ĠProt ection
Ġop in
ht ml
B r
C S
E P
F irst
L ab
N ext
b ut
p ack
w ell
Ġt ail
Ġs outh
Ġw ine
Ġm il
Ġl iquid
ut s
ol es
ĠT ok
ĠM obile
ly m
Ġst ruct
ĠH ard
um s
Ġsh op
Ġsh aring
out hern
Ġpre d
ty pe
Ġcar ried
mer cial
ours es
pr int
Ġown er
Ġnear ly
Ġpass ed
iqu es
Ġfin ished
Ġinf o
Ġvisit ing
ĠComm unic
Ġpract ices
Ġreason able
Ġorig in
Ġcell s
Ġther mal
ĠCas ino
Ġcrit ical
ĠTor onto
ĠFlore nce
0 6
D uring
D ouble
G od
T C
c ow
c ious
f aces
v anced
ĠS pr
ot hes
ĠA B
Ġis n
am ster
ĠT im
ĠM or
ce an
ĠH o
ri ven
os en
ĠG irl
Ġas pect
ĠE U
ĠW elcome
Ġde part
ĠN av
ĠO F
Ġwe ar
Ġim ag
Ġar bit
row se
Ġsupp liers
âĤ¬ Â
Ġfl ight
Ġke pt
Ġpol y
ĠInd ian
ĠCon f
Pro v
Ġlow est
Ġchang ing
Ġpat tern
Ġfeel ing
uk et
Ġcal cul
Ġdeliver ed
Ġcompet ition
Ġappear s
Loc ation
Ġmount ain
Ġimplement ation
Ġdepend ing
Ġdeterm ine
Ġbott om
ĠEst ate
Ġexperi ences
Ġpie ces
ĠDub ai
Ġextrem ely
idel ines
ĠFranc isco
ĠAssoci ation
C ustom
O ut
P er
T A
c ient
d ong
f low
Ã ¶
Ġt ri
Ġc itiz
Ġin j
Ġto ilet
ĠC r
Ġre asons
Ġl ibrary
id ents
Ġfor g
ab ric
em porary
ain less
Ġv ent
Ġex hib
ust r
ak ed
Ġch air
Ġch arm
erv ation
Ġ3 8
Ġ3 9
Ġacc el
ous ly
In st
Ġag re
Ġper mission
ian o
Ġwork ed
Ġcomm it
Ġloc ations
ĠSe e
Ġhelp ful
Ġvis ual
Ġval u
Ġ200 5
ĠQ uality
There fore
Ġcall s
ĠYou ng
Ġfore st
ĠFl or
Ġprofess ion
Ġstore d
Ġconsum er
Ph one
Ġtransl ation
ĠWord Press
iger ator
ĠMex ico
D ata
S im
c am
k i
l or
p et
t a
Ġ river
he l
Ġs ort
en ior
Ġb urn
Ġb ird
Ġb attery
Ġin ject
Ġto w
le ar
ĠS olutions
ĠC are
Ġre form
Ġe ight
ĠP ersonal
ĠP acific
am in
Ġhe ating
ĠH Y
Ġcon cent
ri er
if ts
Ġwh atever
Ġwas te
Ġk ids
pt h
ĠV iet
ĠCh i
ell er
ber g
ors hip
Ġar ticles
ob e
Ġno ise
ĠSe oul
ock et
Ġ7 0
ĠAr ticle
Ġform s
Ġeven ing
Ġstand ing
ĠCl oud
St art
Ġcert ification
rop ical
ĠCol lege
Ġsecond s
Ġappro ximately
Ġsuccess fully
Ġbeaut y
Ġkind s
Ġreserv ations
net ic
hem ical
Ġpartners hip
cret ion
Ġinit i
Ġdele te
ĠGree ce
Ġconfirm ation
Ġcircum st
Ġeleg ant
6 7
A ir
C T
F S
O P
b el
c ell
d a
d den
j iang
o ose
u um
å ı
Ġ ir
Ġc ab
Ġb es
Ġm ail
Ġm useum
ic ing
Ġd en
Ġh uge
el ine
Ġre cre
ut y
ac c
ĠM c
ĠM usic
ĠH ot
ĠF amily
Ġit em
ort hern
ill ions
ĠN ov
Ġse ven
Ġsu dden
ell ow
Ġad apt
lo ok
lic ations
Ġint ellectual
ĠTh ank
Ġ) .
Ġcre ation
ĠUS B
Ġresult ing
ĠAl b
Ġterm inate
Ġent rance
Ġsign al
Ġref r
201 6
ĠBr idge
Ġhost el
Ġcare er
Ġsomet imes
ĠGo vernment
Ġhealth y
iven ess
Ġdest roy
Ġcamp aign
ĠAdd ress
Ġwin ter
Ġstreng then
Ġconven ience
Ġcreat ing
Ġprop rietary
Ġprep ared
ĠStand ard
ĠTick et
A V
D M
G r
M ain
h ow
j a
p age
Ġ ;
Ġ Ã
Ġ æ
Ġt ab
in st
Ġw el
Ġf arm
Ġm us
Ġin vent
Ġh us
ĠC at
ĠT ri
ĠM ult
ĠM aterial
ĠB ab
Ġcon vers
ĠD i
ĠL uc
if ier
qu ality
Ġr ise
âĢ ¢
00 1
iz er
Ġpl ug
Ġro se
Ġher self
Ġper man
Ġsp ect
ert s
Ġinst ant
Ġinst ance
Ġinst ruct
Ġbl ess
ĠPl an
Ġcap abilities
Ġfam ilies
Ġeas ier
Ġret ail
Ġev il
Ġautom ation
ung sten
Ġnetwork s
ĠCol ombia
Ġest ate
Ġport s
Ġpat ients
ĠSw ed
Ġredu ced
Ġtravel ers
idd en
ĠLoc ated
Ġdisplay ed
ĠFin ancial
Ġansw ers
Ġschool s
Ġcompon ent
Ġprint ing
ĠTour ism
ĠMos cow
Ġinsp ection
Ġbab y
Ġpow der
Ġnorm al
Ġprob ably
Ġinflu ence
B ack
D el
F urther
S A
T w
T ype
c raft
f in
g n
h o
t ics
u zz
Ġ Ì
Ġb and
Ġm ut
Ġm ir
Ġm ist
ro at
ĠC N
ĠC ru
ĠA V
ĠA ud
us hed
Ġg ain
ĠP orn
Ġfor th
ĠM a
ĠM at
Ġst ates
ĠH y
Ġv en
ĠW all
ak ers
Ġse at
ang ed
ĠCh ic
ĠJ ack
Ġcont ext
ĠIn s
ĠK itchen
Ġint ended
Ġte aching
Ġdis cretion
end er
Ġar ms
ĠâĢ º
Ġam azing
urn s
ĠSh are
Ġact ions
Ġmod ule
Ġmin im
Ġfound ation
Ġ200 0
ĠCo ast
ĠZ h
Ġcould n
Ġconf idential
Ġful f
Ġgener ally
Ġread ing
Ġplay ing
On ly
Ġaccommod ations
Ġsl ight
Ġocc up
Un ited
ster dam
ĠLoc al
hem at
Ġgirl s
Ġcover ed
ĠRom an
ĠTw o
Ġadvant ages
Ġce lebr
Ġwid ely
Ġbear ings
Ġbreat h
Ġinstitut ions
9 5
C omm
M ar
T E
T P
i ences
n s
o en
on om
or ation
es ter
Ġc m
Ġc and
Ġm att
ĠS l
et ing
Ġg lob
Ġfor ces
ĠT imes
Ġon es
ly ing
ĠB ah
Ġst able
Ġst opped
un ning
os it
ĠF ind
qu ir
ĠG en
Ġwas n
ĠN on
ĠN ear
ĠU l
âĢ ļ
ip l
Ġgo als
Ġne arest
erm an
here d
Ġtrans form
Ġcons ists
Ġsc ale
Ġaccess ible
Ġview ed
Ġcollect ed
AC T
Ġhold ing
Ġfav our
iam i
ĠAc adem
ĠBud apest
Ġexperi enced
ĠCond itions
rie f
Ġpleas ant
ĠAN D
Ġsatis f
ĠHist ory
Ġexerc ise
Vis it
Ġpret ty
bur gh
4 4
A Q
A ct
H N
H TML
l ife
m ar
n o
u i
Ġt ube
Ġa head
in f
re st
Ġs yn
or ge
il ton
ĠS H
ur a
ig e
ĠP et
am ples
Ġpro ceed
Ġst ru
ĠD on
ĠL os
od ies
ĠR ue
ĠG al
ĠG allery
ĠV ict
Ġle aving
Ġapp e
Ġdis k
ise ment
ĠRe port
Ġbr ands
oss ible
ĠEx change
ĠPl atform
Ġnum bers
Ġrest rict
Ġbook s
ĠFor m
Ġplay ers
Ġport folio
Ġexpl ore
ĠSk y
Ġcertain ly
Ġauthor ities
ĠIN D
Ġeffort s
ĠCour t
Ġarr ange
edd ing
ĠAngel es
Ġack nowledge
ĠWashing ton
Ġcircumst ances
6 8
G B
L A
S w
T ake
U nder
i y
i ro
l ink
l ike
r im
r ap
Ġa quarium
Ġc as
Ġf it
Ġf if
Ġm o
Ġm al
Ġh all
il os
Ġl ack
ĠA z
ĠP eters
ĠT re
Ġbe g
ir ty
Ġcon sequ
ĠD ong
ul s
ĠL i
ĠL uxury
ate ur
ĠE xt
ĠN ations
ĠU k
Ġro ot
Ġun author
Ġso fa
Ġloc k
Ġthan ks
Sh anghai
Ġlook s
Ġinst rument
ĠAd vert
Ġoper ator
eng ers
az z
Ġsim pl
Ġfac ility
Ġfr ame
Ġeffect ively
ĠChrist ian
ĠComm ission
Ġmov ie
Ġlog istics
Tr ans
ĠElect ronics
Ġviol ation
Ġrecomm ended
ĠFound ation
ival ent
Ġcontroll er
Ġfrequ ency
Ġexpert ise
Ġintrodu ced
Ġpul led
Ġdyn amic
7 2
G re
H el
I B
R est
S E
S pe
S ec
a is
c os
f ault
l ong
r as
r ich
Ġ â
Ġt aste
in et
he nt
Ġthe ory
Ġs ons
Ġc art
Ġc ategories
en ant
Ġp un
al ty
Ġth r
Ġl ose
Ġl ift
ĠA R
ac ilities
Ġg ar
ĠP ool
Ġst ri
Ġst rict
ĠH ill
ĠH ung
ul ous
Ġal though
ĠG olf
ist ant
Ġex ceed
Ġse cret
Ġcomp lim
Ġen em
ib ly
ind er
Ġj oy
Ġup load
In formation
Ġbr ings
Ġrec ently
Ġback up
Ġfl ights
Ġhand ling
ĠSu nd
Ġconf idence
ĠAn y
Ġenter tainment
ann el
Ġsign ed
Ġcert ificate
Ġbuild ings
ones ia
ĠAt l
ĠPe ace
Ġsol ar
Ġprec ision
Ġking dom
Ġheav y
ĠSm art
Ġsav ings
Ġcreat ive
ĠStud io
ĠRest aurants
ĠEnter prise
verse as
Ġhundred s
Ġter rit
ĠSaf ety
ĠPortug al
Ġbehav ior
Ġdemon str
Ġmention ed
ĠTok yo
ĠHY IP
Ġhus band
6 3
L a
M on
M ay
N e
T H
a el
b ol
Ã Ń
Ġt ub
Ġa p
Ġs ick
Ġd ivers
le vel
Ġh ar
il a
ĠC ams
Ġn amed
ol is
Ġg od
ĠP RO
ad er
ĠM P
ĠE nt
Ġse ating
ĠO lym
ĠJ ac
Ġcont ents
lo oking
Ġres ource
Ġserv ers
Ġthem e
Ġdet ection
Ġtrans mission
Ġthan k
ĠSe cret
Ġshow ing
ax d
Ġperson ally
Ġrem oved
ĠEx ecutive
Ġfound ed
Ġmach inery
ĠAn n
aut y
Ġautom otive
ĠPol and
ĠMin ister
Ġel im
Ġtalk ing
Ġvol tage
enn a
Ġlay out
Ġchann el
urb an
Ġabs olut
Ġdise ases
Ġdele ted
ĠGree k
Ġtrend s
Ġlau ndry
Ġstrateg ic
Ġparam eters
5 2
F r
L ast
O C
X P
c ar
c ure
e qu
g a
g est
i as
p ire
x i
in n
Ġs ect
Ġs ides
Ġf ashion
ic ious
Ġd oll
ĠS av
ĠS ens
st an
Ġre ve
Ġre tain
Ġl ies
Ġn ar
Ġfor get
ĠT hen
ĠB outique
ĠR ock
os is
her lands
ĠW IND
Ġex hibition
Ġde cre
Ġse ems
ĠV ir
Ġcont ained
cl es
Ġman ager
Ġun iversity
Ġdis s
ra ham
Ġ4 00
ound s
Ġsp ent
Ġshe l
Ġreg ions
Ġsupp lies
Ġwant s
Ġcar bon
Ġexp ansion
Ġgr and
Ġset s
ĠEx hibition
Ġche apest
Ġpol ice
Ġadv ice
Ġext ent
ĠPh uket
Ġspec ifically
Ġreal ize
ify ing
ĠDes k
Ġfore cast
Ġreport ed
Ġdispl ays
Ġredu cing
osp el
Ġtechn iques
Ġfre edom
Ġdesk top
ĠElect ric
Ġprodu ced
ĠMod el
ĠAfric an
ĠBook ing
Ġemerg ency
Thank s
Ġbelie ved
Ġswe et
spe ed
Ġprim ary
ĠMot or
Eng lish
Ġexact ly
Ġappe ared
8 2
A g
B D
D id
H amster
N S
b ass
f e
i ate
k nown
Ġ er
he ther
er ies
re land
Ġc at
Ġw indows
Ġp ure
ion e
Ġd iet
ent ine
ĠS henzhen
ĠC irc
Ġn et
ĠA ward
Ġg ather
am ental
ĠT ower
Ġwith d
ĠH am
ĠD VD
ul ations
ri an
ĠL ibrary
os ite
em n
Ġv ict
Ġex ception
Ġch art
Ġch ance
ĠV M
Ġcomp ly
Ġcont emporary
Ġpl us
Ġpl ans
Ġapp rec
Ġte nd
Ġserv es
ra id
Ġsp oke
cre te
Ġrequ ests
ĠRe c
Ġadd ing
Ġtrans p
Ġem ot
ĠSh op
ĠDe b
ĠTe chnical
rib e
ug gage
Ġext ract
Ġdef ined
ĠDes cription
Ġplay ed
viron ments
ĠChrist mas
Ġi Phone
Ġcare fully
Ġclass es
ĠAm sterdam
Us ing
Ġbathroom s
Ġenc ry
Ġparticip ate
Res ource
ĠMal aysia
ĠProv ince
fr ont
Ġthous ands
ĠTem perature
Ġtrav ellers
Ġwonder ful
ĠQue en
Ġaltern ative
5 7
6 2
8 1
8 00
E F
G eneral
M C
R el
S L
d ate
d own
f urt
i enna
m es
p ing
r d
w est
Ã ³
ä º
ä ½
æ ľ
Ġ ing
Ġt ank
in burgh
Ġs an
Ġs ac
Ġf lesh
Ġd ialog
Ġh ur
Ġn one
ad d
ad s
ĠT er
Ġon to
Ġst ations
ĠH and
est ival
ĠD ating
ĠD AT
ĠL es
ĠL and
ĠL anguage
pt oms
ĠK nowledge
Ġcl ock
vel y
In ter
ie ce
Ġqu arter
Ġar ray
old ing
Ġknow s
Ġco ord
Ġdesign s
ĠEx pl
Ġform ed
Ġconf lic
Ġpur su
Ġrep ut
ĠRes ources
ĠEng land
ann ed
Ġrece ption
ĠBl u
Ġposs ibility
Ġhost s
Ġmeas uring
Ġinvest ig
US TR
Ġpat ient
Ġdi agn
Ġflo ors
uk e
Ġwhe el
Ġconnect ions
Ġbal ance
Ġla un
Ġobtain ed
Ġhistor ic
Ġrad io
ĠMad rid
ĠEconom ic
ĠDepart ment
Ġprepar ation
ĠCong ress
ĠViet nam
ĠIND USTR
ĠPeters burg
8 3
M ake
P riv
R A
S P
S erv
b an
d ry
e ous
t t
Ġf ill
Ġf ruit
Ġf emale
Ġm i
Ġd ensity
Ġh ath
il s
ĠS QL
Ġre nder
Ġl iter
ĠI reland
ĠT ax
ĠM C
ĠM us
ĠM un
ĠM ary
ĠM iss
ĠM iami
Ġcon vert
ĠL u
ĠR ob
ĠE UR
ĠE nergy
ĠW ish
ĠW ood
ĠW atch
ect ive
Ġr ul
Ġr are
Ġr ating
Ġall oy
ĠJ ud
ĠSt ep
Ġdo ors
Ġen vironments
lo v
Ġres ol
Ġapp lies
Ġcl in
end ar
ick s
ĠRe qu
ne ys
Ġtrans mit
Ġinter ior
Ġ7 4
Ġgr adu
Ġaccess ories
Ġ200 4
Ġequ ivalent
az e
Ġdel ay
ĠRes idence
red it
ene va
Ġfac ilit
ple te
Ġopt ical
Ġcommun ities
Ġphot ograph
201 2
ĠFor um
ĠCol or
sh op
Ġet h
ĠApp lication
Tr avel
ĠRoom s
Ġexpress ion
Ġmar riage
ĠBo x
Ġlay er
Ġrespect ive
Ġfoc used
Ġadmin istration
hold ers
Ġchall enge
Ġimport ance
Ġaf raid
Ġprinc iple
RE E
Ġcontroll ed
Ġneg ot
ĠGold en
Ġcou ple
Ġfix ed
OW S
Ġslow ly
Ġintellig ent
Ġtal ent
Ġannoun ced
Ġremov al
Ġrecre ational
Ġunauthor ized
! !
H O
N ame
l ut
l og
n es
p ower
w ater
Ġt ag
on us
re ction
Ġc ourses
Ġf at
ing ly
ed s
Ġd a
Ġd ig
Ġd aughter
Ġh r
ĠC OR
ĠC ross
ĠC heck
Ġl ov
Ġe ast
Ġe arn
ve y
am ber
ĠM ich
ap ed
Ġ1 50
Ġr ide
Ġr ule
iv ities
ack s
Ġ3 7
Ġte levision
Ġprov en
Ġdes ire
Ġproduct ivity
Ch rist
irect ing
Ġsm ile
Ġass ets
Ġfl ash
Ġrem ark
Ġcre ates
Ġche ap
ĠGu ang
Ġcontrol s
Ġdist ribute
Ġtem ple
201 4
Ġfact ory
Ġpresent ed
ili ar
ĠElect ronic
Be fore
ĠIN TER
Ġtour ist
ĠSec ond
New s
Ġrecord s
Ġsuper ior
Product s
Ġpub lish
Ġwatch ing
Ġelectric ity
Ġrecogn ition
Ġfund amental
Ġdocument ation
Ġrefer red
Ġdraw ing
Ġbecom ing
Ġleaders hip
Ġsole ly
Ġfeed back
Ġsubs idi
ĠCount ry
ĠPhil ipp
ĠDev ices
Ġgrant ed
ĠJew s
ĠVe gas
ĠHel p
ĠOver view
ĠProper ty
Ġcitiz ens
ĠWIND OWS
7 6
8 4
C ome
E l
F l
G e
M L
b us
n an
y r
Ġ é
Ġ ign
Ġ urban
Ġt ight
in ch
Ġs ample
it i
Ġw itness
ou red
Ġf abric
Ġm ission
Ġd ro
Ġl ived
Ġe lev
Ġfor ced
ch arge
ag a
Ġhe ight
Ġcon ver
Ġan cient
ĠE arth
ĠO l
Ġwe ak
ĠJ ose
Ġme ant
ĠThe se
Ġcl othing
ont in
com p
Ġ5 5
Ġ6 00
ĠSh opping
Ġinter view
Ġgr ace
Ġvis a
Ġatt end
ĠSu pp
Ġprof it
Ġnum erous
ĠInd onesia
Ġgener ate
AN D
AC K
Ġpay ments
Ġmanufact urer
rem e
Ġmov ies
Ġclos er
we et
Ġcompet itive
Loc ated
Ġwa iting
mark s
pect ive
Ġerr ors
ĠFore ign
ĠMos es
Ġra ised
see ing
Ġlab el
atal og
Ġvers ions
Ġrelig ion
Ġconsist ent
ĠManufact urer
Ġcompat ible
Ġsustain able
sy ch
Ġagre ed
Ġcommit ment
Ġvalu able
oen ix
Ġmatt ers
hent ic
2 000
B C
C ons
C urrent
G ood
c an
d s
e ch
g reg
h ot
k o
k en
v ideos
at o
it ely
Ġc up
Ġc ash
Ġc ounter
ed y
Ġb ond
Ġb low
st yle
ĠC P
Ġth ick
ot ic
Ġl oved
Ġn uc
Ġyou th
ĠP rom
ĠI ll
ad ian
ĠT el
ĠT reat
ĠM all
ĠM ost
ce nd
ĠB ou
ĠL ib
ĠR d
Ġal umin
Ġ1 20
ĠG ate
ist rant
ĠW ill
Ġus age
ĠN umber
um es
oc ation
Ġk il
ĠO EM
Ġcomp ens
ast ing
Ġdo ctor
Ġad ults
Ġte ach
so le
Th us
Ġinter pre
ĠTh at
Ġph ilos
Ġ200 6
Ġbel ong
ĠX Hamster
ĠInd ex
Ġext end
Ġext ension
Ġext ensive
Pro ject
Ġdisc iples
Ġlight ing
ĠCol lection
Ġlim itation
Ġport ion
Ġcr is
ĠAll ah
Ġkeep ing
ĠMin h
Ġtemperature s
ĠEd inburgh
Ġrepresent ative
Ġrisk s
Ġmot ion
Loc ality
unic ipal
ĠMed ical
Ġspirit ual
Ġpain ting
Ġrespond ed
ĠBel g
Ġrelationship s
Ġrout e
Ġmer ch
Ġtransact ion
Ġadministr ative
Ġappoint ed
Pe ople
friend ly
Ġprofession als
Ġcomplim entary
5 6
C or
E d
J o
U L
W orld
c ut
g or
j o
y ou
y ear
Ġ rom
in os
er o
at ur
Ġs ins
Ġc os
Ġc raft
Ġw et
Ġf an
Ġf ig
Ġf inger
al i
al se
Ġb ow
Ġm ine
Ġm icrowave
ro b
as ure
as tern
ĠS ports
ĠC A
ĠC AD
Ġl aid
Ġl ounge
ĠA h
us ing
ĠI ron
im g
ĠM en
Ġst ainless
ĠD an
ĠD iv
ĠL ou
ĠL earn
ĠR ailway
ap y
os es
ĠF ull
ĠG ar
op er
art ers
ist a
ang er
ĠO b
ia o
Ġcomp l
Ġman aged
In ternational
ru ption
ĠâĢ ĺ
Ġtrans formation
Ch oose
Ġgu ard
Ġgu idelines
Sh are
Ġmin ing
vent ure
ĠTe chnologies
ĠEx porter
Ġke ys
Ġproper ly
Ġdist in
Pro cess
ĠAl t
Ġbre ach
Ġlist en
Ġcle arly
Ġtrad ition
app ed
Ġprogram ming
Ġstre t
ES T
itc hes
Ġmanufact ure
Ġens ures
Ġsens itive
Ġallow ing
Ġemploy ee
Ġiss ued
Ġoffic ers
Ġappear ance
ĠTrans port
Ġtransfer red
Ġwall s
go ing
ĠKore an
Ġrecogn ize
Ġprevious ly
ĠBal i
Ġord inary
Ġut il
Ġemerg ing
ĠCap ital
Ġarm y
ĠVis a
Ġpie ce
Ġinteract ive
ĠCast le
ĠNet herlands
Ġconv ersion
ocr atic
ĠAdmin istration
Ġmiss ing
ĠPop ular
Ġcollabor ation
ĠCost a
ĠAuthor ity
Ġdoub t
ĠChic ago
ĠAcadem y
ĠUk rain
ĠAdvert isement
ĠSund ay
3 00
5 1
5 8
6 1
C al
D P
E lect
O B
P ort
R et
R em
b re
d es
f l
i pt
v ol
Ġ ice
Ġt ests
in ar
re t
Ġs port
Ġo verseas
is d
Ġp ip
Ġb order
ic ians
Ġd og
Ġh om
ĠP L
ad ium
ĠM ember
ch ild
ĠH an
ĠD C
ĠG raph
Ġ2 50
Ġr aw
ĠU t
Ġsu it
ĠCh ange
ast ics
Ġcont aining
Ġme at
av as
ĠK ar
ib ar
Ġany where
Ġim pl
Ġro w
Ġour selves
Ġup grade
Ġag ent
Ġspe aking
.. ..
It s
Ġph ase
Ġph arm
Ġph ones
Ġimp ossible
Ġcol our
Ġhelp ed
Ġrem aining
ĠBe auty
Ġequ al
Ġshould er
az on
ĠGu ests
ĠIs l
Ġed itor
Ġbre ad
ĠComp ut
Ġsign s
Ġsmall er
Ġplan et
Ġaff ected
Ġlink ed
Ġbig gest
Ġve get
ĠAut o
Ġauthor ized
Ġtre es
itect ure
Ġbus y
Ġregul atory
Ġdriv es
Ġdriv ers
ĠTw itter
Ġmass age
Ġneg ative
Ind ust
Comp any
ĠCount y
Ġvehic les
Ġtask s
ĠEnd ed
ĠCle an
Ġaffili ates
ĠFeature s
Ġesc ape
Ġoccas ion
Ġwis dom
ĠLis bon
Ġoblig ations
Ġperman ent
Tw o
Ġslight ly
4 00
7 9
C ount
K S
M I
M in
P op
P age
S C
S I
S ign
V ia
W elcome
b ul
h and
l ist
m arket
r ad
r ary
v ation
å ¤
Ġ 01
at i
Ġs orry
Ġf igure
Ġp air
Ġp aint
ar ia
Ġb en
Ġd u
ro gen
as se
ĠS ingle
st al
ĠC reat
Ġth read
ot a
ot al
Ġn ations
Ġg ifts
im ent
ĠT EC
ĠM otel
ĠD u
ĠD owntown
ĠL ic
ap es
un ction
Ġ1 000
ĠE ther
ĠW u
ĠW ind
ak s
ĠN E
ĠN ature
Ġch osen
ĠV irtual
ide o
Ġcomp act
ack ing
fer ences
ĠThe atre
Ġte ams
Ġcl othes
ra ul
ov a
Ġar rive
ĠCom ments
Ġrec ip
Ġbu ff
pr us
ĠAd vanced
ĠCo ffee
az ine
ĠPl us
Ġsub sequ
Ġcur tain
Ġrep rodu
Ġsur v
room s
ĠPh oenix
Ġfam iliar
ĠLe gal
ĠPr ices
ĠPr int
201 3
Ġold er
ĠBr and
Ġprom ise
Ġaddress es
Ġgl ory
itu ated
Ġcr im
ĠMin istry
Ġbeh alf
ha ust
sc ape
Ġident ification
Ġstore s
Ġplatform s
Ġhapp ens
Ġmount ains
Ġmaintain ing
Ġsuff ering
Ġdepend s
Ġprior ity
Te ch
Ġattack s
ĠFore x
Ġcharg es
Ġcharg ed
Fe aturing
Ġtrademark s
Ġconcern ed
Ġcy cle
Ġhous es
Ġvac uum
Ġcapt ure
Ġear lier
ĠExper ience
Ġafford able
Ġinstruct ions
" )
9 2
E m
S k
V ote
w orld
Ġ 00
Ġt ips
re es
at hered
Ġs ong
Ġw rought
is hes
an qu
Ġf iber
Ġp ush
Ġm el
Ġd inner
ĠS ave
ĠS ign
ĠS ource
ĠC ook
ĠC RM
Ġth in
Ġre ject
Ġre nov
Ġl ips
ur ious
id ity
ĠA G
ĠA L
ol ic
ig r
ĠP en
im b
ĠB ul
ag en
Ġst ated
ĠH air
ĠL ines
Ġ( "
ĠR ich
if orm
ill as
Ġex ch
Ġr an
ĠN ight
ĠU r
pt ed
ĠV illage
rou d
av or
ĠK h
Ġab road
Ġj ump
own a
Ġper haps
Ġ4 2
end ant
ov iet
Ġsp ons
olog ne
ĠRe f
riv al
land o
Ġbr ain
Ġass embly
ĠTe am
Ġ200 3
Ġpass engers
Ġconf ir
ĠAn im
Ġreal ized
Ġstay ed
Ġsk y
Ġest im
ES S
Ġdem ands
Ġconst antly
Ġdr ag
Ġinc ur
ams ung
Ġexist ence
Ġimprove ment
ĠEn vironment
pro of
Ġengine ers
ĠAt hens
Ġauthor ity
Ġfunction ality
Ġupd ates
Ġstat istics
ĠMod ern
Ġpurch ased
Bl og
ĠAustral ian
Ġang le
Ġtransl ate
Ġsuff icient
Ġdrink s
ĠMB T
Ġunivers e
Ġrelig ious
Ġshut tle
Ġcorrespond ing
ĠMart in
ĠVen ice
Ġachie ved
Ġopin ion
Ġpred ict
ĠSwed en
7 1
7 8
B en
B ar
C reate
E E
J apan
P L
R I
U T
a it
c ard
e ment
g l
h otel
k ay
u ang
u nder
ä ¹
Ġt un
Ġs ister
it is
Ġc ot
Ġc row
Ġc yl
Ġw or
Ġw ave
Ġp ra
Ġb ars
Ġin h
ĠC ape
us hing
ad ow
ĠB ur
ĠD est
ĠD ie
ri ott
ĠL ess
ĠL ove
ĠR en
ĠG ener
and om
ant a
ĠE L
Ġv ary
Ġsh ar
Ġk illed
ok er
og a
Ġcomp ar
cl aim
Ġj ur
Ġj ew
Ġag ric
Ġdes cript
Ġpr ayer
Ġsp ok
ĠRe v
ty ard
Ġdevelop ers
Ġass ign
Ġform ats
Ġstr ing
Ġgreat est
ĠPh one
Ġterm in
Ġent ity
Ġstart s
Ġlight s
ux e
Ġimpro ving
Ġthough ts
Ġrun s
Ġpresent ation
Ġlog o
Ġtyp ical
Ġclos ely
Ġcommunic ate
Ġmar ried
ĠVal ley
ĠAnt on
ĠRom ania
Ġla unch
Ġrelax ation
Ġfund s
Ġfunct ional
Ġlabor atory
Ġmat hemat
Ġwarrant y
Ġhous ing
rel ated
ĠAnal ysis
ĠDet ails
ĠConst ruction
oriz ont
Ġneigh bor
ĠKel owna
ĠFrank furt
ĠFlor ida
Ġbird s
5 3
C amp
D C
M ap
N A
P N
P OR
S an
S pecial
T oday
V ery
c ellent
e f
j i
k ing
l ock
v o
â ģ
å Ľ
Ġ il
in ity
he ster
er as
Ġs it
Ġs and
Ġs enior
it an
Ġp orn
Ġb odies
Ġh it
om an
om atic
ĠS ar
ĠS cript
ĠS oviet
ĠC a
ĠC up
Ġn ative
Ġis ol
Ġg ates
Ġg athered
ĠP ri
ĠD ate
ĠD ocu
ĠF und
if ies
ĠG ardens
em ony
ant e
Ġnot ed
Ġse qu
all ed
Ġch ief
act ive
ĠV ienna
Ġcomp are
ĠCh ang
erv ations
ĠJ in
cl ing
Ġne ither
Ġun c
Ġun s
Th rough
Ġdis hes
com es
ĠY ah
Ġpr ison
ĠRe covery
Ġright eous
aw a
Ġsupp lier
chnolog ical
Ġbr anch
ool s
Ġsee ing
Ġ8 00
Ġcre am
Ġbel ief
Ġstand s
uss ion
ĠCon nect
Ġfin ance
Pro f
Ġgener ator
Ġcho ices
Ġdisc ontin
Ġinf ring
Ġautom ated
Ġorgan ic
Ġposs ess
Ġnetwork ing
An other
Ġinvest ors
Ġconst ruct
br and
ĠFl at
IT Y
Un iversity
Ġpri est
Ġident ity
ĠEd it
ĠCor porate
ĠInt egr
Be ijing
amb urg
Ġsol ve
ĠMet al
Ġinde ed
Ġdiscuss ions
Ġpromot ion
ett le
Ġsmart phone
ĠPhot o
Ġrev olution
Ġprep are
ĠSil ver
Ġpleas ure
ĠEr ror
ĠTool s
ĠFed eral
Post ed
Black Berry
Lab els
Ġtoilet ries
Ġcand id
ĠDAT ING
Ġreput ation
avas cript
Ġagric ult
âģ Ħ
A ng
B usiness
C he
E G
M ult
N ational
P A
S QL
T V
T ime
W ill
b a
f rom
h r
q i
t ion
w as
Â ¬
ç ļ
Ġ !
Ġt or
Ġa part
er ning
es h
an j
Ġf le
Ġp roud
Ġto m
el a
ĠS D
ĠC ologne
et ables
Ġg un
Ġg ift
ĠP u
ĠI B
Ġfor t
ĠT able
ĠT HE
ĠH osp
ĠL ee
ab ulous
od ge
un es
un ately
em ed
ain ts
ĠW in
Ġsh ock
Ġsh alt
iv ation
are n
Ġcomp r
Ġle an
th at
Ġpl enty
ord an
Ġout standing
Ġ4 1
ick ed
Ġrel atively
Ġover view
Ġco ating
ĠTh ai
Ġexp lo
Ġbu ying
Ġvis ited
ĠTe xt
Ġoffer ings
Ġprot ocol
Ġelect ro
Ġgener ated
Ġbook ings
ĠPr inc
ĠMar riott
Ġtop ic
Ġhouse hold
Ġmeas ured
Ġcare ful
Ġens uring
Ġintegr ity
ĠSw iss
Ġclick ing
Ġexpl an
Ġmajor ity
ĠMe eting
Ġloss es
Ġattract ive
Ġfavor ites
ĠCas a
Ġsignific antly
Ġbott le
Ġexam ples
Ġabs or
Ġsugg est
Ġsugg estions
Ġhon est
ĠTick ets
Ġsym ptoms
Ġsatis fact
ĠAutom ation
aud i
ĠCy prus
ĠCult ure
Ġreplace ment
Ġsy nt
ĠChild ren
uts ch
Ġstruct ures
Ġconvers ation
Ġing red
dry er
Ġcris is
A I
A ss
A partment
F ollow
O V
P al
P ar
P ol
d o
j ak
k m
l aw
m ary
m ade
p an
p aper
r um
s a
Ġt ou
in ating
he ast
Ġs pl
it ality
Ġw orry
Ġf ant
Ġp hen
Ġb ul
Ġb ought
Ġin com
Ġin ner
ro x
Ġh ate
Ġh ire
ĠS a
ĠS n
ĠS EO
st ract
ĠC ath
Ġl uggage
Ġn ation
Ġe ating
ur ities
id th
im s
am less
ad ise
ĠT H
ĠT ags
ĠB et
ĠG B
ĠG eneva
Ġnot iced
Ġsh oot
Ġk id
Ġk ettle
âĢ ŀ
Ġtr ouble
Ġwe ap
pt y
ĠJ ames
Ġdo ct
Ġpl ate
ace ut
Ġro y
Ġag ency
Ġar gu
ian a
Ġoff ices
Ġshe et
anc er
Ġtrans ition
Ġem b
Ġcons id
Ch inese
Ġtw ice
Ġbr idge
Ġgu ys
Ġrec ording
Ġmin i
Ġperson nel
Ġsm iled
ĠEx cel
Ġac adem
Ġperform ed
Ġbo asts
Ġterm ination
Ġcert ified
201 1
Ġmeet ings
Ġsk ip
ĠOr der
ĠOr lando
br idge
Ġclass ic
Ġexpl ain
Ġappro val
ĠTo ilet
Ġpres ident
ĠAust ria
Add itional
Ġspecific ations
ĠBu y
ĠReg ion
ĠÂ ©
Ġconsum ers
leg al
ĠAcc ommod
Ġprec ise
Ġviol ence
Ġrepl ied
Ġca uses
oph y
Ġblock s
wh ile
ĠArch itecture
iction ary
Ġjud gment
ĠSpe c
ĠCult ural
ĠFlow ers
Ġsty lish
ĠBudd h
ĠProfess ional
Ġmut ual
Ġstru gg
Ġwithd raw
Ġlaun ched
ĠPhilipp ines
Ġkil omet
raul ic
C ent
D R
J esus
L ike
M ed
N U
R F
S outh
b orn
c ision
p o
p ens
t ra
u z
Â £
Ġt ons
Ġt ungsten
Ġs now
Ġw ond
Ġw rit
is a
Ġf ing
Ġd ock
ĠS N
ĠS and
ĠS ome
st ate
Ġn ob
Ġn ights
ĠP ub
am ics
ĠT R
Ġbe aring
ĠB all
ag ers
Ġst rip
ĠH amburg
ĠL ing
od a
od ing
ĠR os
ĠF act
ĠW ild
ĠW omen
Ġex cess
Ġwas hing
ĠN ote
Ġwe alth
ear ning
ĠCh amp
ĠJ ade
ĠJ ava
ĠK ids
Ġen force
ans om
ik a
Ġsa una
Ġdes pite
Ġ5 9
clud ed
Ġind oor
Ġam b
hed ral
Ġtrans mitted
Ġmod ules
ĠDe utsch
Ġgu ess
Ġcol lege
Ġinst ruments
Ġhelp ing
ient ed
Ġcustom ized
Ġaut hentic
ĠTe le
ĠTr aining
Ġfollow s
ĠSp ace
Ġob vious
Ġdirect or
Ġelect ronics
Ġend s
ĠAn aly
Ġlist ening
Ġspec ify
Ġdec isions
Ġlaw y
Ġdef end
Ġtem pl
Ġpost s
Ġaccommod ate
Ġturn ing
ĠCan adian
Ġgre w
Ġgovern ments
ĠAb raham
Ġtyp ically
clus ion
Ġaud ience
ĠSm oking
Ġsil ver
Ġmag n
Ġmag netic
CO M
ĠLog in
ĠPass enger
ĠPhot os
Ġdiscl ose
Ġwood en
Ġsus p
Ġanim al
Ġproced ure
ĠJew ish
Ġsym bol
Ġsurround ed
ĠBas ic
Ġprem ium
Ġvulner ability
Ġmil k
Ġrefr igerator
âĢļ Â¬
Ġdivers e
çļ Ħ
aceut ical
A ccess
E V
F rance
P ower
S M
S et
i ated
v ia
å ¥
Ġt aught
Ġt ropical
in er
in ces
re y
re pre
Ġs qu
it err
Ġo x
Ġw are
Ġw ire
Ġw edding
is ers
Ġf ed
Ġf illed
Ġf alse
ed ge
Ġb apt
Ġm ort
Ġd ust
Ġd ance
Ġh oly
om as
ĠC ry
Ġre verse
ur able
id ance
ĠA ve
ĠP M
ĠP ak
ĠM om
ĠM and
ĠM ah
ir ates
Ġcon crete
ĠD ining
ĠD ouble
ul f
ul ator
ĠL ux
ĠF riend
ĠF resh
The ir
ĠE ff
Ġv ast
rom e
ĠW ang
Ġr ace
Ġwas h
ust er
ak a
ak i
Ġk ill
ĠU nder
our nal
res ents
ĠJ i
ĠSt art
Ġne ck
ub a
Ġun able
Ġso il
ik ing
Ġprov ince
Ġ4 6
Ġ4 7
Ġdes ired
Ġ5 7
ĠUn ivers
Ġmap s
Wh ich
aw ay
Ġpers pective
Ġshow ed
Ġmin ibar
Ġexp ensive
Ġ9 9
ĠTe a
con f
co hol
Ġoper ated
Ġpass ion
ER S
uss y
Ġsur pr
Ġdirect ors
Ġcap able
St ud
Ġfac ing
Ġcent ers
Ġrece iving
ĠLe vel
Ġcall ing
Ġspecial ist
Ġprogram me
Ġpublic ation
Ġfore ver
uck y
200 9
ivid ed
cent ury
ograph ic
ĠAss embly
Ġrepresent atives
OL OG
Ġmeasure ments
-- --
bed ded
ĠMach inery
Ġdecl ared
Ġguarant eed
ĠBro ok
ĠBlack Berry
Fe ature
ĠAP I
Ġanim als
ĠTem ple
xy gen
Ġscre ens
anz i
Ġtransact ions
Ġsurve y
Ġrub ber
Ġtele phone
col or
ĠNor way
Ġven ue
Ġfavour ite
Ġterrit ory
Ġsubsidi aries
Pop ular
Ġjur isd
repre ne
iterr ane
A K
C ity
G lobal
H ist
K s
M od
S te
S uch
c ase
g ent
j an
l s
n ight
r ate
s per
t able
Â ¢
Ã §
Ġ <
Ġt ables
Ġs ter
Ġs aving
Ġc atch
Ġw orship
is her
is ition
Ġm yst
Ġd ating
ĠS AP
ĠS CH
ĠC S
ĠC op
ot es
ot ed
Ġl unch
Ġe gg
Ġg ear
ĠP ed
ĠT O
ĠM ass
Ġpro port
Ġpro te
Ġst ake
Ġst amp
Ġst ories
Ġcon vent
ab il
ĠR ate
un ct
ĠF ish
em a
ĠW ine
Ġr ail
ak h
ĠN ob
ĠO il
ĠJ ordan
ĠSt yle
Ġen abled
Ġun iform
ass es
Ġsa ith
Ġar med
Ġshe ll
Ġnew sp
ific ial
Ġrel ating
riv ing
Ġem ph
Ġem issions
ert o
ĠDe f
Ġsc ene
Ġunder st
Ġrec on
Ġexp enses
Ġass et
ĠZ one
Ġoper ational
Ġsub mitted
ĠX XX
ĠFr id
ĠCl ose
TM t
St and
Ġstud io
arg o
ues e
Ġdef ine
Ġspecial ized
Ġpriv ile
Ġref use
201 7
Ġfact or
ĠInst all
Ġconst ant
Ġleg s
Ġinc ident
200 7
Ġexpl ains
Ġappro ved
ĠSk ype
Ġcal endar
Ġreserv ed
Ġident ified
Ġsend ing
Ġexpress ed
Ġlearn ed
Ġtax es
Qu estions
Ġparticip ants
ole c
ĠMed iterrane
Ġrecogn ized
ĠRel ations
Ġcrit eria
Comp are
Ġroll er
Ġsus pend
Ġdisp utes
ĠHer itage
Ġsal vation
Ġcool ing
Ġcop per
Room s
Ġincor por
Det ails
ĠInvest ment
Ġaspect s
âĤ¬Â ¦
Ġsudden ly
HN OLOG
Gre en
ĠHung ary
cure ment
Ġnar row
Ġsac rif
Ġnuc lear
Ġalumin um
ĠTEC HNOLOG
ĠMediterrane an
1 01
9 3
C are
C ategory
G L
K e
K ey
M et
P ublic
S end
S cript
S henzhen
T erm
V M
W est
a ft
d ess
d ao
e in
f m
h i
h us
i ations
p m
y th
Ã ¤
å ĩ
Ġt ap
Ġt ong
Ġa st
Ġs om
Ġs ch
Ġc ried
Ġc aught
en ess
en os
Ġw est
an ner
Ġp ill
Ġp sych
ar ation
Ġm ouse
ic an
Ġd owntown
ro t
Ġh op
el ve
om a
ĠS ize
ĠS of
st one
ĠC ou
ĠC opyright
Ġre new
et ooth
Ġl ib
Ġl iver
Ġe p
ĠA k
ĠA ff
ig ious
ĠP aper
ĠT S
ĠT ow
Ġbe ings
ĠH P
ment ation
ĠL ow
ĠL ook
ab ling
ĠF oot
ĠF REE
Ġal b
ĠG mb
Ġr ising
ĠN Y
Ġsh oes
ang erous
ĠO cean
ast ers
ell ed
Ġle ct
lo or
Ġres ur
Ġun w
Ġte chnological
ie v
Ġserv ants
ish ment
Ġ4 9
Ġfe aturing
Ġcomm ission
Ġrel ation
Ġem pty
Ġco verage
Ġact s
Ġmod ified
iss on
Ġcons cious
Ġdevelop er
Ġsc ore
Ġevery where
Ġoper ators
ĠMan ual
ĠFr ont
IN E
St ep
Ġmem or
Ġbre ast
Ġrece ipt
ĠAs h
Ġincre ases
ĠMar ia
ĠBr anch
ĠCol l
Ġlim its
lev ard
ott om
Ġwar ning
Ġve nd
Ex per
Ġsitu ations
Ġlot s
Ġfour th
Ġconc erning
enn is
Ġprec ious
Ġcirc uit
Book ing
Ġoptim al
ĠDr agon
Ġbank s
Ġprop he
Ġprop het
ĠFore st
Ġarriv ed
Ġut ility
Ġtim etables
Ġver ify
Ġtrack ing
Ġindic ate
ĠRet urns
Ġextrem e
Bu y
cher s
ĠDen mark
Ġcov ers
Ġrestrict ions
ĠSecret ary
ĠMun ich
gor ith
Ġacadem ic
ĠFrid ay
ĠGmb H
( )
A c
A ust
C M
D A
E A
H S
H ave
H ost
N et
O K
P T
S il
W ould
f all
o z
s l
s ur
u ment
w all
ç ī
Ġ è
in cess
Ġs q
Ġs elling
es ides
it o
Ġc d
Ġf ault
Ġp ix
Ġp ipe
Ġb rief
Ġm illions
Ġto oth
ic i
as ma
Ġh idden
el le
ĠS ection
ĠS audi
Ġl ux
Ġl apt
Ġe ase
ol i
ac ular
Ġg ro
Ġg olf
ig g
ig o
ĠP R
ĠP ur
ad ed
ĠT ian
ĠM id
ir ation
ĠB ol
ĠH om
ĠH appy
ri ers
ab b
ab i
ĠW alk
ĠW ars
Ġnot ify
Ġr ated
Ġsh ares
Ġsu ites
Ġcan cel
Ġwe aring
du le
ĠJ ane
Ġpl ot
Ġacc ident
ord s
Ġdis h
Ġ4 4
Ġar ts
ĠY es
Ġsp r
Ġind ex
Ġind icated
Ġsc al
Ġ7 00
Ġcol ors
ĠWe ek
Ġsm oking
Ġrem ained
Ġvis ible
Ġ: :
rib utes
ĠQ ing
ĠGu arant
Ġins ert
ĠCon verter
ars h
Ġext ended
Ġfr ag
Ġfr amework
Ġterm inal
Ġdec ide
AN T
Ġref und
ĠFor ce
ĠMar ina
Ġtest im
Ġpublic ly
Ġfact s
Ġet ern
Ġinvest ments
Ġpos itions
Ġlo vely
Ġfre ight
word s
hem e
ĠReg istration
Ġsepar ated
ĠVal ue
ĠEm pire
ĠEm irates
ke eping
Ġoptim ized
Ġsuff er
Ġground s
itut ion
Ġmark s
ĠLog istics
Ġpeace ful
ĠDel ivery
Ġanaly tics
Ġrout es
Ġdiscl osure
ĠTest ament
ĠArch ives
Ġprefer red
Ġrob ust
Ġcontinuous ly
Ġestablish ment
Ġsurround ing
ĠOpt im
ĠMount ain
OM E
ĠLat in
Ġdiscount s
Ġrat io
Ġpropos ed
Ġhosp ital
Ġinj ury
Ġglob ally
ĠOlym pic
ä½ ĵ
Ġsan ct
lut ion
Ġdistin ct
Ġspok en
Ġil legal
ĠAccommod ation
Ġunderst ood
7 3
A f
B R
E s
F low
I AL
J ohn
J PG
L ink
M aster
N umber
P oint
S U
S ur
b et
c ore
n ic
p ool
w a
® Ģ
Â ¡
Ġ ic
Ġ urg
Ġt on
Ġt ested
Ġa id
or er
or ter
Ġf ails
Ġm ale
Ġd riven
le ep
as is
Ġh o
ĠS S
ĠS amsung
ĠC ase
ĠC atal
ĠC roat
Ġre duction
Ġl it
Ġl ying
ĠA ction
ĠI d
Ġbe aches
ag raph
Ġst uff
ĠL ane
Ġal ter
Ġal arm
em perature
Ġv an
Ġv irus
ĠW ay
Ġex haust
ĠN O
ĠN ic
ĠN ext
ang el
per formance
Ġcomp rom
Ġu pper
Ġwill ing
Ġad m
iz z
Ġres idence
Ġro of
Ġint roduction
Ġag encies
Ġserv ant
Ġ5 3
Ġind emn
ĠUn it
Ġdet ect
te ch
ĠCom mercial
Ġco ach
ĠTh ree
Ġ9 3
Ġ9 8
Ġval ves
Ġair craft
ĠHe at
ern ame
ĠIs a
ĠRes p
Ġfac es
ĠCon n
Ġperform ing
Ġcor rupt
Ġfr ames
Ġlead s
Ġdisc ip
Ġorder ed
Ġcontin ues
Ġcontact s
Ġtop ics
Ġstre am
Su pport
Ġturn s
Ġi OS
ĠProduct ion
ĠFl ash
Ġjo ined
ĠAm azon
ĠOff er
Ġaccept ance
Ġpri ests
sc ale
ĠFin n
Ġtre ated
Ġx xx
Ġprotect ing
lim ited
Ġparticip ation
Ġadjust ment
Ġra ise
Ġfish ing
Ġdisp ute
ani el
Ġunivers ities
ĠEgypt ian
ĠManufact uring
Off ering
Ġdecor ated
Ġaward ed
ĠSat ur
Ġflu id
Ġcontribut ion
Ġaware ness
Look ing
Ġkiss ed
Ġble nd
ĠSi em
ĠiP ad
ĠCommunic ations
ĠVict oria
Hel p
ĠUkrain e
Ġcrim inal
Ġsatisfact ion
Ġingred ients
% .
? '
B ed
E X
F R
G roup
V al
W hether
c or
g if
k h
m aking
n ame
s uch
t ar
v an
v ision
å ®
ç Ķ
Ġa x
in ated
he tic
Ġs alt
Ġs ought
or ough
Ġo xygen
Ġw aves
Ġf itted
ar o
ic ian
ro v
ro be
Ġh ub
Ġh ung
Ġh yp
il er
il ly
ĠS ett
ĠS ociety
et her
Ġl ie
ĠA gr
ut ch
ĠT ag
ĠM ir
ch ron
ĠH un
ĠD E
ĠD yn
ĠL ittle
ĠL LC
ĠF L
ĠE astern
Ġv ir
Ġv ess
ĠW a
Ġnot es
Ġde ar
Ġde emed
Ġr ailway
ĠN ord
um er
Ġsh ot
our g
Ġse amless
Ġtr uck
ear ing
ĠJ ournal
ĠSt orage
Ġbut t
ater ing
ra wn
ond e
enc ing
Ġsc r
ĠAr rival
Ġ9 7
Ġvis ibility
Ġatt or
ĠAd obe
Ġsupport ing
Ġprof its
hip s
Ġcap ability
Ġelect ion
Ġbo at
Ġspec ies
ĠPr ime
Ġcho osing
Ġdef ense
Ġev ol
AN G
ĠPol y
Ġmanufact ured
Ġleg it
ĠApp lications
Ġste am
Ġredu ces
Ġhuman ity
Ġbeh old
ĠCar l
Ġrese ar
comm unic
ĠAt t
Ġhold s
ĠDis ney
Ġexpress ly
Ġbring ing
Ġsound s
chan ical
zer o
ĠMet ro
Ġrecord ed
Con verter
ĠBed room
Cl oud
Ġoptim ize
Ġbank ing
Ġcam eras
zz a
iam ond
Ġz one
Ġdeterm ined
ĠRel ated
ĠGe orge
Ġdecl ine
Ġcross ing
Ġanaly ze
Ġdark ness
Ġconcept s
ĠAccess ories
ĠDub lin
Ġprefer ences
Reg istrant
Ġrecommend ations
Ġintrodu ce
ĠStat us
Ġscre w
Ġincreasing ly
Ġdefin itely
ĠDepart ure
Ġmix ed
ĠLink s
Ġevalu ation
Ġder iv
ĠMem bers
Fin ally
Ġflor ists
acc ur
ĠMult i
Further more
Ġmo ist
ĠAz ure
ĠVir gin
ĠVM ware
Ġconflic t
ĠINDUSTR Y
ĠJose ph
ĠBelg ium
ĠEther net
Ġsubsequ ent
Ġincur red
Ġcot ton
Ġdescript ions
ĠAnton io
was her
Ġlux urious
ĠGuarant ee
ä½ĵ ä¸Ńæĸĩ
% ,
9 6
B el
E mail
F C
G P
I E
J un
T X
V ideo
W S
Y e
e et
f ers
j in
m at
o is
u ction
y ang
å ·
ç ¥
Ġ ä¸Ńæĸĩ
Ġt ill
Ġt ears
in th
on ents
re f
re al
re ams
at us
Ġf o
Ġf ro
Ġf illing
Ġp il
Ġp ull
ed ing
ar in
Ġb ids
Ġb attle
le ts
Ġh aven
ĠS L
ĠS ong
ĠC er
ĠC art
ĠC EO
ĠC redit
Ġre b
Ġre ward
Ġy es
ol o
ac o
Ġg ap
ĠP ot
ad i
ĠT en
ĠT err
ĠT yp
ĠM ai
ers ey
ĠB us
Ġst im
ĠH K
ment ed
ĠD ar
ul ating
ĠL A
ĠL et
ĠL earning
ĠR am
ap pe
un te
ĠF a
ĠF our
ĠF estival
Ġal gorith
qu is
Ġ1 01
ist ing
ew here
pp ing
Ġex ecutive
Ġsu ck
all as
Ġcan cell
ang le
ĠV an
Ġcont rast
Ġman if
ub s
Ġj ack
ress ion
Th ree
In f
Ġper f
Ġ4 3
Ġpr icing
Ġpre v
Ġrel ative
ric ane
Ġ6 4
Ġmod ular
Ġprocess ed
Ġmet ro
Ġvis its
Ġbl ind
Ġbel t
ER T
Ġrep resents
Ġrest ore
Ġcor ros
Ġbo ost
Ġent reprene
Ġev olution
Ġaccount s
Ġspecial ly
pend ing
Ġagree ments
Ġactiv ely
Ġeng age
ĠOr acle
Ġhost ing
Ġprom pt
olid ays
ĠOn ly
Ġcomput ing
Ġsecond ary
Ġreport ing
ĠBar b
Ġhold er
Us er
Ġpark s
Ġperfect ly
Ġsever e
Ġtot ally
ĠGre ater
amb ling
Des ign
Ġ40 4
Ġcover ing
Ġregard less
ari ant
ĠSte el
Ġfurn ished
Ġdistribut ed
ĠOut door
Ġwid th
Pr ice
ĠSil icon
Ġfrequ ently
Ġconduct ed
ĠCour se
Go ogle
Ġacqu ired
Ġwarrant ies
ĠCur rent
Ġvac ation
Ġintellig ence
hol m
Ġç ®Ģ
ĠTur key
Ġcov enant
ĠFair child
ĠChar les
Ġowners hip
ĠDisc ussion
Ġlamp s
Ġrepe ated
Ġmir ror
ĠMus lim
ĠBou levard
Ġphilos ophy
åĽ ½
âĢŀ Â¢
Ġconsid ering
Ġfing ers
1 50
A nt
C N
C opyright
D L
D isc
E r
E v
H T
I K
R S
T ACT
U K
V C
a ired
c at
d i
j e
p ass
y i
Ġ ur
on ly
er ver
Ġs izes
Ġs outhern
Ġs amples
or f
is i
Ġf ly
ar r
ar on
Ġm ur
Ġm ob
Ġin tern
Ġd w
le ag
Ġh abit
Ġh omes
el ing
ĠS outhern
st ream
ĠC C
ĠC it
ĠC ab
ĠC ategory
Ġre ly
Ġl ad
Ġn ine
ol ars
ad ers
ĠT a
ĠT ours
ĠM ill
ly n
Ġpro of
ch ip
Ġst ack
Ġst orm
ĠH ours
ĠH angzhou
ess ions
ĠR u
ĠF alls
ĠF acilities
ist ed
ĠE asy
Ġex it
Ġr u
Ġtr oub
ĠO R
og en
pt on
ĠJ iang
ĠJ avascript
ĠIn sp
av ed
Ġad s
ind a
ge nd
Ġun f
Ġup gr
Ġdis pos
ater al
Ġserv ing
Ġ201 9
Ġspe ech
Ġsp aces
Ġpre gn
Ġsc anning
Ġcol on
oy s
Ġgr ad
Ġapplic ant
rib le
au ndry
arm a
Ġhere by
Ġdel ight
Ġfin ish
Pro t
ĠPh ys
ĠAl bert
Ġstay ing
201 0
Ġorgan ized
Ġeng aged
Ġcheck ed
200 8
Ġenjoy ed
Ġfeel ings
Ġexpl ained
IT E
Ġemploy ment
Ġart ificial
Ġdest ruction
Ġtell ing
Ġcomb ine
pro f
Ġdam aged
Ġpack ages
ĠFin ance
ĠTerm inal
Ġapply ing
Ġimplement ed
ĠPer u
ĠPer formance
Ġfail ed
Ġentire ly
ĠStud y
Ġrelax ed
Ġmark ed
Ġofficial s
Ġfoot ball
Ġiron ing
Ġtarget ed
ĠCamp ing
Ġjour nal
ĠEnter tainment
Ġopp osite
Ġacqu isition
Ġjud ge
Ġobl igation
alle l
Ġcock t
Ġdim ensions
Ġfold er
ĠFil ter
Ġrepe at
Web Resource
ĠMov ie
Ġcer emony
Ġmedic ine
pack ers
Ġinject ion
Ġdestroy ed
ĠMaterial s
Ġthr one
Ġsect ors
ĠMich ael
ĠLou is
ĠLic ense
Ġreprodu ce
ĠTECHNOLOG Y
Ġç®Ģ ä½ĵä¸Ńæĸĩ
1 20
C ON
D irect
E uro
F OR
H I
L ove
M arket
Q U
R P
R o
T est
W OR
c ceed
g i
h att
i est
i ov
l ian
m n
m el
m ad
n ed
p iece
w w
å ħ
Ġt ough
he w
he dule
er on
at on
at ile
Ġs ing
Ġs ad
es c
it z
it les
Ġc odes
en h
Ġf ans
Ġp ushed
ing u
Ġb inding
Ġm ac
Ġm old
Ġm oon
Ġm olec
Ġin accur
Ġd ivided
Ġh orse
ent h
el ess
ĠS G
ĠS U
ĠS OL
ĠS MS
ĠC ut
ĠC heng
Ġre venue
Ġl augh
Ġn it
ĠA ires
Ġg ospel
ĠI l
ĠM u
ĠM other
ĠB it
Ġhe l
Ġst ro
ĠH ub
ĠH els
ĠH ilton
Ġcon sole
ĠD oll
ĠL ith
ĠL ike
ĠR ose
ĠR io
ĠF u
qu arters
ill ance
ĠE S
ĠE mer
Ġv ibration
ĠW he
Ġnot ification
ĠN i
Ġsu cceed
for get
ial ly
og rap
Ġle ather
ĠSt adium
Ġen abling
lo om
Ġpl ays
Ġres id
ous es
Ġj u
ik o
Ġdis abled
ra ud
Ġprov ed
ound ed
int age
Ġover looking
Ġco at
Ġinter rupt
Ġgu idance
Ġcar rier
Ġmin s
Ġmin eral
Ġexp ired
Ġ0 8
Ġatt ach
ĠTr ad
ĠX P
ĠDat abase
Ġins ights
ann a
Ġdec ades
Ġsign ature
AT E
Ġincre d
ĠMar ine
Ġstre ets
Ġhead s
ĠWh y
Ġlet ters
Ġconst itute
fort unately
Ġleg is
br id
Ġland marks
Ġexc iting
ribut ed
let ter
ĠAm ateur
roll er
Ġweek end
cy cl
Ġocc urs
we h
we ight
ĠEd ition
Ġconnect or
ĠIm m
EL L
Ġcommon ly
Ġtour ism
Ġtour ists
val entine
ĠBed s
Ġconfig ured
Pl ay
Ġmax im
Ġple ased
Ġther m
Ġpromot ing
Ġsex ual
Ġra ising
Ġdescrib e
Sp here
Pre vious
Ġterr or
Ġdeg rees
Ġill ustr
Ġbroad cast
Ġdiam eter
ĠOpt ions
Ġconsult ation
ĠStat istics
Ġult ra
Ġult imate
Ġexpand ing
Ġexpand ed
Ġseek ing
ĠRad io
ĠRad isson
Ġmid st
ĠEv ents
Ġteacher s
Ġaccom pl
ĠPrem ier
ĠSpr ing
ĠGirl s
Ġdepart ure
Ġbes ide
Ġinvent ory
Ġspect acular
Rest aurants
cos ystem
Ġabsolut ely
stan bul
ĠDesk top
Ġtransp arent
Ġphotograph s
ĠGuang dong
Count ry
Ġben ch
Ġbuff et
ĠHosp ital
Ġtempl ate
Ġic ons
Ġderiv ative
leag ues
6 00
B oth
F L
F ore
F abulous
G en
H ot
H uman
I ES
L im
P P
P ass
P ersonal
b al
c m
c r
d ers
g hed
i our
o ch
u ct
u ation
u ce
w idth
z y
Ġ id
Ġ ãĢ
er k
er ness
re b
Ġs ew
Ġs oph
it arian
Ġo d
Ġc um
Ġm erg
ic he
Ġd iving
Ġh urt
ent le
ĠS ri
ĠS elf
Ġth row
et ime
Ġy ellow
Ġn ode
ow ed
ur ich
ĠA ren
ut r
ol k
ol ar
Ġis lands
Ġg ardens
ĠP ent
ĠT ips
ĠM S
ĠM ake
Ġpro hib
ĠB on
ĠB ad
ĠH old
ĠH aw
est ion
ĠD a
ĠD allas
ĠL arge
ĠL iver
ĠR oc
em on
ĠE s
Ġv it
Ġv ote
Ġde ce
Ġde pth
Ġr id
um mer
our cing
âĢ ĺ
Ġsu gar
are t
ĠV ac
ĠV ista
ell s
rou s
ĠK r
Ġad j
ind ex
Ġun ion
Th ings
pl an
ens ional
ĠY outh
ink i
cre ts
ĠPro p
te en
ĠCom pl
Ġ6 3
Ġhigh light
ĠTh read
Ġsc hed
Ġsc ope
Ġbr ake
Ġ7 8
Ġunder t
Ġgu y
Ġcol leagues
Ġmin or
Ġexp osed
Ġ9 5
Ġdesign er
ĠGod dess
Ġwould n
Ġevery day
Ġac id
ĠAd am
And roid
az ed
ĠPl ayer
Ġform ation
Ġdiffer ences
Ġrep ent
Ġdel ivers
Ġsur faces
Ġdirect ory
ĠCon c
Ġlist ing
Ġvar iable
Ġsign als
app ing
EN CE
ĠComm un
ĠInn ov
Ġkey board
Ġdr am
Ġlo an
Ġcomput ers
200 4
200 6
ĠAg ency
let t
Ġlog in
Ġart ist
ĠWeb cam
Ġve ctor
ĠPart ner
cy cle
ĠRep resent
Ġcal c
Ġtreat ments
ĠReg ister
Ġkitchen ette
Ġrespect ively
Ġmembers hip
Ġamount s
Ġmount ing
Ġwall paper
Ġang er
Ġconfig ure
Ph oto
Ġant ib
Ġprint ed
Ġrepl aced
Ġdiscuss ed
ĠCam era
Ġanaly z
Ġharm less
Ġmer cy
ĠLin en
Ġunivers al
ĠDev ice
Ġop ens
ĠChe ap
Ġtrav elling
ĠCert ificate
ĠGood s
Ġdefin ition
Ġadministr ator
Ġqual ified
ĠProcess ing
ĠFlow er
Ġwat ers
Ġdeb t
ĠPoint s
Ġdeploy ment
Ġvent ure
inst all
ĠIns urance
Ġconfidential ity
Ġdoll ars
Ġapprec iate
ĠBlu etooth
ĠDest inations
Che ap
Ġexplan ation
Ġproport ion
Ġresur rection
Ġtestim ony
! âĢĿ
, '
7 27
A H
A X
B A
B re
D om
D ep
E B
F D
F T
F our
G ener
H omes
I O
M icro
M obile
N ever
Q uality
R ep
S ave
T ag
U C
V ideos
Y et
c ons
c ause
c lick
d f
d y
g ener
h ou
j ob
n ia
o a
p apers
s hip
ä »
å į
æ Ĭ
Ġ ri
he im
on ed
or ical
es a
Ġc atalog
Ġw estern
is er
Ġp or
Ġb ill
Ġb are
ic iency
Ġd ownt
Ġd angerous
ro ph
as a
Ġh ole
Ġh obby
ĠS aul
ĠS lov
st ep
ĠC ore
ĠC able
ĠC reate
Ġre in
Ġy uan
Ġl ung
Ġn orthern
ur ches
ut a
im a
ĠT C
ĠT ree
ĠT ake
ĠT ube
ĠT emplate
ĠT oday
ĠM oney
Ġbe at
ly wood
Ġpro ve
Ġpro curement
ĠB and
ter y
Ġhe ll
Ġst ick
ĠH at
ĠH en
ĠH ello
est e
Ġcon vey
ab et
ĠR ect
if fer
if iable
if iers
ĠG h
ĠG as
igh ter
Ġv ine
Ġv irt
ĠW at
ect ions
ĠN az
ĠN orthern
og ether
ĠCh an
Ġle aves
ĠJ ersey
Ġcont rary
Ġme ets
ĠSt ay
th is
av ailable
ib et
gh an
ub ric
Ġun cle
Ġun forget
ord ers
Ġte eth
Ġher itage
ber ry
com merce
Ġkn ock
Ġ5 2
ĠâĢ Ŀ
Ġdet ail
ific ates
Ġrel ief
Re view
Ġam pl
amp ing
Ġ6 1
Ġsupp osed
Ġsc hedule
Ġ7 2
Ġcustom s
Ġaccess ing
Ġfl our
ĠTr ain
Ġ200 1
Ġbl ank
ĠPl anning
Ġsim ulation
Ġadv oc
Ġstud ied
Ġenter ing
ues day
Ġref ers
Ġhouse keeping
Ġask ing
AR T
sh an
de fault
Ġgovern ance
Ġland scape
Tr ade
ĠGr an
ĠPart ners
EC T
ĠInt roduction
Ġdownload ed
ĠIm age
ĠÂ °
Ġdeliver ing
alt a
Ġeduc ational
ĠDevelop er
Ġsepar ation
Des pite
Ġang el
Ġsil ence
Pl aces
Ġimport ed
Ġpromot ions
isc al
ĠWork ing
wh ich
Ġhon or
ĠAv ailable
Ġexpect ations
Ġdiscover ed
ĠPost ed
ĠTest ing
ĠMag azine
ĠSol ar
Ġlau ghed
Ġprim arily
Ġsubst ant
Ġregular ly
ĠCons ult
ĠSpe ed
ĠJo bs
ĠFeature d
